{
  "version": "1.0",
  "truncation": null,
  "padding": null,
  "added_tokens": [
    {
      "id": 0,
      "content": "[PAD]",
      "single_word": false,
      "lstrip": false,
      "rstrip": false,
      "normalized": false,
      "special": true
    },
    {
      "id": 1,
      "content": "[CLS]",
      "single_word": false,
      "lstrip": false,
      "rstrip": false,
      "normalized": false,
      "special": true
    },
    {
      "id": 2,
      "content": "[SEP]",
      "single_word": false,
      "lstrip": false,
      "rstrip": false,
      "normalized": false,
      "special": true
    },
    {
      "id": 3,
      "content": "[UNK]",
      "single_word": false,
      "lstrip": false,
      "rstrip": false,
      "normalized": false,
      "special": true
    },
    {
      "id": 4,
      "content": "[MASK]",
      "single_word": false,
      "lstrip": false,
      "rstrip": false,
      "normalized": false,
      "special": true
    }
  ],
  "normalizer": {
    "type": "BertNormalizer",
    "clean_text": true,
    "handle_chinese_chars": false,
    "strip_accents": false,
    "lowercase": false
  },
  "pre_tokenizer": {
    "type": "BertPreTokenizer"
  },
  "post_processor": {
    "type": "TemplateProcessing",
    "single": [
      {
        "SpecialToken": {
          "id": "[CLS]",
          "type_id": 0
        }
      },
      {
        "Sequence": {
          "id": "A",
          "type_id": 0
        }
      },
      {
        "SpecialToken": {
          "id": "[SEP]",
          "type_id": 0
        }
      }
    ],
    "pair": [
      {
        "SpecialToken": {
          "id": "[CLS]",
          "type_id": 0
        }
      },
      {
        "Sequence": {
          "id": "A",
          "type_id": 0
        }
      },
      {
        "SpecialToken": {
          "id": "[SEP]",
          "type_id": 0
        }
      },
      {
        "Sequence": {
          "id": "B",
          "type_id": 1
        }
      },
      {
        "SpecialToken": {
          "id": "[SEP]",
          "type_id": 1
        }
      }
    ],
    "special_tokens": {
      "[CLS]": {
        "id": "[CLS]",
        "ids": [
          1
        ],
        "tokens": [
          "[CLS]"
        ]
      },
      "[SEP]": {
        "id": "[SEP]",
        "ids": [
          2
        ],
        "tokens": [
          "[SEP]"
        ]
      }
    }
  },
  "decoder": {
    "type": "WordPiece",
    "prefix": "##",
    "cleanup": true
  },
  "model": {
    "type": "WordPiece",
    "unk_token": "[UNK]",
    "continuing_subword_prefix": "##",
    "max_input_chars_per_word": 100,
    "vocab": {
      "[PAD]": 0,
      "[CLS]": 1,
      "[SEP]": 2,
      "[UNK]": 3,
      "[MASK]": 4,
      "!": 5,
      "\"": 6,
      "#": 7,
      "$": 8,
      "%": 9,
      "&": 10,
      "'": 11,
      "(": 12,
      ")": 13,
      "*": 14,
      "+": 15,
      ",": 16,
      "-": 17,
      ".": 18,
      "/": 19,
      "0": 20,
      "1": 21,
      "2": 22,
      "3": 23,
      "4": 24,
      "5": 25,
      "6": 26,
      "7": 27,
      "8": 28,
      "9": 29,
      ":": 30,
      ";": 31,
      "<": 32,
      "=": 33,
      ">": 34,
      "?": 35,
      "@": 36,
      "A": 37,
      "B": 38,
      "C": 39,
      "D": 40,
      "E": 41,
      "F": 42,
      "G": 43,
      "H": 44,
      "I": 45,
      "J": 46,
      "K": 47,
      "L": 48,
      "M": 49,
      "N": 50,
      "O": 51,
      "P": 52,
      "Q": 53,
      "R": 54,
      "S": 55,
      "T": 56,
      "U": 57,
      "V": 58,
      "W": 59,
      "X": 60,
      "Y": 61,
      "Z": 62,
      "[": 63,
      "\\": 64,
      "]": 65,
      "^": 66,
      "_": 67,
      "`": 68,
      "a": 69,
      "b": 70,
      "c": 71,
      "d": 72,
      "e": 73,
      "f": 74,
      "g": 75,
      "h": 76,
      "i": 77,
      "j": 78,
      "k": 79,
      "l": 80,
      "m": 81,
      "n": 82,
      "o": 83,
      "p": 84,
      "q": 85,
      "r": 86,
      "s": 87,
      "t": 88,
      "u": 89,
      "v": 90,
      "w": 91,
      "x": 92,
      "y": 93,
      "z": 94,
      "{": 95,
      "|": 96,
      "}": 97,
      "~": 98,
      "¡": 99,
      "£": 100,
      "¤": 101,
      "¦": 102,
      "§": 103,
      "¨": 104,
      "©": 105,
      "«": 106,
      "¬": 107,
      "®": 108,
      "¯": 109,
      "°": 110,
      "±": 111,
      "²": 112,
      "³": 113,
      "´": 114,
      "µ": 115,
      "¶": 116,
      "·": 117,
      "¸": 118,
      "¹": 119,
      "º": 120,
      "»": 121,
      "¼": 122,
      "½": 123,
      "¾": 124,
      "¿": 125,
      "À": 126,
      "Á": 127,
      "Â": 128,
      "Ã": 129,
      "Ä": 130,
      "Å": 131,
      "Æ": 132,
      "Ç": 133,
      "È": 134,
      "É": 135,
      "Ê": 136,
      "Ë": 137,
      "Í": 138,
      "Î": 139,
      "Ï": 140,
      "Ñ": 141,
      "Ó": 142,
      "Ô": 143,
      "Ö": 144,
      "×": 145,
      "Ø": 146,
      "Ú": 147,
      "Ü": 148,
      "Ý": 149,
      "ß": 150,
      "à": 151,
      "á": 152,
      "â": 153,
      "ã": 154,
      "ä": 155,
      "å": 156,
      "æ": 157,
      "ç": 158,
      "è": 159,
      "é": 160,
      "ê": 161,
      "ë": 162,
      "ì": 163,
      "í": 164,
      "î": 165,
      "ï": 166,
      "ñ": 167,
      "ò": 168,
      "ó": 169,
      "ô": 170,
      "õ": 171,
      "ö": 172,
      "÷": 173,
      "ø": 174,
      "ù": 175,
      "ú": 176,
      "û": 177,
      "ü": 178,
      "ý": 179,
      "þ": 180,
      "ÿ": 181,
      "Ā": 182,
      "ā": 183,
      "Ă": 184,
      "ă": 185,
      "Ą": 186,
      "ą": 187,
      "Ć": 188,
      "ć": 189,
      "Č": 190,
      "č": 191,
      "Ď": 192,
      "ď": 193,
      "Đ": 194,
      "đ": 195,
      "Ē": 196,
      "ē": 197,
      "ė": 198,
      "Ę": 199,
      "ę": 200,
      "Ě": 201,
      "ě": 202,
      "ğ": 203,
      "ġ": 204,
      "Ģ": 205,
      "ģ": 206,
      "ħ": 207,
      "ī": 208,
      "į": 209,
      "İ": 210,
      "ı": 211,
      "Ķ": 212,
      "ķ": 213,
      "Ĺ": 214,
      "ĺ": 215,
      "Ļ": 216,
      "ļ": 217,
      "Ľ": 218,
      "ľ": 219,
      "ŀ": 220,
      "Ł": 221,
      "ł": 222,
      "Ń": 223,
      "ń": 224,
      "Ņ": 225,
      "ņ": 226,
      "Ň": 227,
      "ň": 228,
      "ō": 229,
      "Ő": 230,
      "ő": 231,
      "Œ": 232,
      "œ": 233,
      "Ŕ": 234,
      "ŕ": 235,
      "Ř": 236,
      "ř": 237,
      "Ś": 238,
      "ś": 239,
      "Ş": 240,
      "ş": 241,
      "Š": 242,
      "š": 243,
      "Ţ": 244,
      "ţ": 245,
      "Ť": 246,
      "ť": 247,
      "ū": 248,
      "Ů": 249,
      "ů": 250,
      "Ű": 251,
      "ű": 252,
      "ų": 253,
      "ŷ": 254,
      "Ÿ": 255,
      "Ź": 256,
      "ź": 257,
      "Ż": 258,
      "ż": 259,
      "Ž": 260,
      "ž": 261,
      "ſ": 262,
      "ƒ": 263,
      "ǎ": 264,
      "ǫ": 265,
      "Ǻ": 266,
      "ȩ": 267,
      "ɫ": 268,
      "ʻ": 269,
      "ʼ": 270,
      "ʽ": 271,
      "ʾ": 272,
      "˃": 273,
      "ˆ": 274,
      "ˇ": 275,
      "ˉ": 276,
      "ˊ": 277,
      "˘": 278,
      "˚": 279,
      "˛": 280,
      "˝": 281,
      "̅": 282,
      "̓": 283,
      "̕": 284,
      "̦": 285,
      "̶": 286,
      "̹": 287,
      "΄": 288,
      "Α": 289,
      "Β": 290,
      "Γ": 291,
      "Δ": 292,
      "Ε": 293,
      "Η": 294,
      "Ι": 295,
      "Κ": 296,
      "Λ": 297,
      "Μ": 298,
      "Ν": 299,
      "Ο": 300,
      "Π": 301,
      "Ρ": 302,
      "Σ": 303,
      "Τ": 304,
      "Υ": 305,
      "Φ": 306,
      "Χ": 307,
      "Ψ": 308,
      "Ω": 309,
      "ά": 310,
      "έ": 311,
      "ή": 312,
      "α": 313,
      "β": 314,
      "γ": 315,
      "δ": 316,
      "ε": 317,
      "ζ": 318,
      "η": 319,
      "θ": 320,
      "ι": 321,
      "κ": 322,
      "λ": 323,
      "μ": 324,
      "ν": 325,
      "ξ": 326,
      "ο": 327,
      "π": 328,
      "ρ": 329,
      "ς": 330,
      "σ": 331,
      "τ": 332,
      "υ": 333,
      "φ": 334,
      "χ": 335,
      "ψ": 336,
      "ω": 337,
      "ό": 338,
      "ϑ": 339,
      "ϕ": 340,
      "Ϭ": 341,
      "І": 342,
      "А": 343,
      "В": 344,
      "Д": 345,
      "М": 346,
      "Н": 347,
      "О": 348,
      "П": 349,
      "Р": 350,
      "С": 351,
      "Т": 352,
      "Ш": 353,
      "Ю": 354,
      "Я": 355,
      "а": 356,
      "б": 357,
      "в": 358,
      "д": 359,
      "е": 360,
      "ж": 361,
      "з": 362,
      "и": 363,
      "й": 364,
      "к": 365,
      "л": 366,
      "м": 367,
      "н": 368,
      "о": 369,
      "п": 370,
      "р": 371,
      "с": 372,
      "т": 373,
      "у": 374,
      "х": 375,
      "ц": 376,
      "ч": 377,
      "ш": 378,
      "ъ": 379,
      "ы": 380,
      "ь": 381,
      "ю": 382,
      "я": 383,
      "і": 384,
      "ї": 385,
      "ј": 386,
      "ҫ": 387,
      "ׁ": 388,
      "ב": 389,
      "ה": 390,
      "ו": 391,
      "י": 392,
      "ל": 393,
      "ש": 394,
      "٭": 395,
      "ả": 396,
      "ẹ": 397,
      "ẽ": 398,
      "ề": 399,
      "ỉ": 400,
      "ἀ": 401,
      "ἁ": 402,
      "ἄ": 403,
      "ἐ": 404,
      "Ἐ": 405,
      "ἴ": 406,
      "ὄ": 407,
      "ὐ": 408,
      "ὤ": 409,
      "ὦ": 410,
      "ὲ": 411,
      "ὶ": 412,
      "ὸ": 413,
      "ὺ": 414,
      "ῶ": 415,
      "‒": 416,
      "–": 417,
      "—": 418,
      "―": 419,
      "‘": 420,
      "’": 421,
      "‚": 422,
      "‛": 423,
      "“": 424,
      "”": 425,
      "„": 426,
      "‟": 427,
      "†": 428,
      "‡": 429,
      "•": 430,
      "․": 431,
      "…": 432,
      "‰": 433,
      "′": 434,
      "″": 435,
      "‹": 436,
      "›": 437,
      "⁄": 438,
      "₂": 439,
      "€": 440,
      "⃰": 441,
      "ℓ": 442,
      "™": 443,
      "⅓": 444,
      "⅔": 445,
      "←": 446,
      "↑": 447,
      "→": 448,
      "↓": 449,
      "↔": 450,
      "⇒": 451,
      "∀": 452,
      "∂": 453,
      "∅": 454,
      "∆": 455,
      "∏": 456,
      "∑": 457,
      "−": 458,
      "∕": 459,
      "∗": 460,
      "∙": 461,
      "√": 462,
      "∞": 463,
      "∪": 464,
      "∫": 465,
      "∼": 466,
      "≅": 467,
      "≈": 468,
      "≠": 469,
      "≡": 470,
      "≤": 471,
      "≥": 472,
      "⊙": 473,
      "⋅": 474,
      "⎭": 475,
      "⎮": 476,
      "⎯": 477,
      "─": 478,
      "■": 479,
      "□": 480,
      "▪": 481,
      "►": 482,
      "◆": 483,
      "◊": 484,
      "○": 485,
      "●": 486,
      "☼": 487,
      "♀": 488,
      "♂": 489,
      "♣": 490,
      "♥": 491,
      "♦": 492,
      "♭": 493,
      "♯": 494,
      "✓": 495,
      "⟶": 496,
      "〈": 497,
      "汪": 498,
      "盾": 499,
      "矛": 500,
      "覚": 501,
      "鋆": 502,
      "ﬁ": 503,
      "（": 504,
      "）": 505,
      "##y": 506,
      "##t": 507,
      "##o": 508,
      "##ó": 509,
      "##í": 510,
      "##š": 511,
      "##l": 512,
      "##a": 513,
      "##s": 514,
      "##n": 515,
      "##ě": 516,
      "##Y": 517,
      "##d": 518,
      "##h": 519,
      "##v": 520,
      "##e": 521,
      "##k": 522,
      "##é": 523,
      "##m": 524,
      "##u": 525,
      "##j": 526,
      "##i": 527,
      "##r": 528,
      "##Z": 529,
      "##c": 530,
      "##p": 531,
      "##á": 532,
      "##ž": 533,
      "##f": 534,
      "##č": 535,
      "##ý": 536,
      "##Í": 537,
      "##g": 538,
      "##z": 539,
      "##Š": 540,
      "##Ě": 541,
      "##ř": 542,
      "##w": 543,
      "##A": 544,
      "##ů": 545,
      "##C": 546,
      "##b": 547,
      "##L": 548,
      "##K": 549,
      "##ň": 550,
      "##I": 551,
      "##Č": 552,
      "##M": 553,
      "##E": 554,
      "##Ž": 555,
      "##O": 556,
      "##N": 557,
      "##S": 558,
      "##T": 559,
      "##R": 560,
      "##Ó": 561,
      "##U": 562,
      "##P": 563,
      "##H": 564,
      "##V": 565,
      "##Ť": 566,
      "##ď": 567,
      "##F": 568,
      "##Ň": 569,
      "##Q": 570,
      "##Ď": 571,
      "##B": 572,
      "##ť": 573,
      "##3": 574,
      "##q": 575,
      "##ú": 576,
      "##D": 577,
      "##É": 578,
      "##X": 579,
      "##x": 580,
      "##Ý": 581,
      "##Á": 582,
      "##J": 583,
      "##W": 584,
      "##1": 585,
      "##Ú": 586,
      "##9": 587,
      "##8": 588,
      "##Ů": 589,
      "##Ř": 590,
      "##ę": 591,
      "##0": 592,
      "##è": 593,
      "##7": 594,
      "##5": 595,
      "##G": 596,
      "##ä": 597,
      "##2": 598,
      "##ö": 599,
      "##Ü": 600,
      "##4": 601,
      "##ü": 602,
      "##ß": 603,
      "##6": 604,
      "##ê": 605,
      "##ç": 606,
      "##å": 607,
      "##È": 608,
      "##Ö": 609,
      "##ë": 610,
      "##Ø": 611,
      "##ľ": 612,
      "##ł": 613,
      "##ô": 614,
      "##œ": 615,
      "##â": 616,
      "##ś": 617,
      "##î": 618,
      "##ń": 619,
      "##đ": 620,
      "##ĺ": 621,
      "##ű": 622,
      "##Ä": 623,
      "##ć": 624,
      "##Ł": 625,
      "##ş": 626,
      "##ā": 627,
      "##ø": 628,
      "##ī": 629,
      "##ã": 630,
      "##ū": 631,
      "##Ź": 632,
      "##ï": 633,
      "##ñ": 634,
      "##ă": 635,
      "##ő": 636,
      "##¯": 637,
      "##à": 638,
      "##®": 639,
      "##ē": 640,
      "##ά": 641,
      "##ε": 642,
      "##ι": 643,
      "##°": 644,
      "##φ": 645,
      "##Ć": 646,
      "##б": 647,
      "##д": 648,
      "##Ĺ": 649,
      "##Ą": 650,
      "##ù": 651,
      "##ŕ": 652,
      "##ţ": 653,
      "##õ": 654,
      "##´": 655,
      "##×": 656,
      "##ʾ": 657,
      "##ą": 658,
      "##Â": 659,
      "##Ż": 660,
      "##ˇ": 661,
      "##µ": 662,
      "##ż": 663,
      "##ʻ": 664,
      "##Ľ": 665,
      "##→": 666,
      "##Ŕ": 667,
      "##α": 668,
      "##¼": 669,
      "##Ô": 670,
      "##Ţ": 671,
      "##€": 672,
      "##Ë": 673,
      "##ź": 674,
      "##ξ": 675,
      "##Î": 676,
      "##Å": 677,
      "##ʼ": 678,
      "##ˆ": 679,
      "##Đ": 680,
      "##ų": 681,
      "##ò": 682,
      "##ъ": 683,
      "##Ş": 684,
      "##û": 685,
      "##©": 686,
      "##ğ": 687,
      "##æ": 688,
      "##Ê": 689,
      "##и": 690,
      "##н": 691,
      "##ч": 692,
      "##я": 693,
      "##м": 694,
      "##ы": 695,
      "##ļ": 696,
      "##ὐ": 697,
      "##κ": 698,
      "##Н": 699,
      "##Σ": 700,
      "##Ñ": 701,
      "##Ç": 702,
      "##Ű": 703,
      "##β": 704,
      "##Ő": 705,
      "##ɫ": 706,
      "##Ń": 707,
      "##ν": 708,
      "##π": 709,
      "##η": 710,
      "##δ": 711,
      "##έ": 712,
      "##σ": 713,
      "##ω": 714,
      "##™": 715,
      "##−": 716,
      "##±": 717,
      "##ņ": 718,
      "##ÿ": 719,
      "##Υ": 720,
      "##Ρ": 721,
      "##Ι": 722,
      "##Ο": 723,
      "##Ν": 724,
      "##Ę": 725,
      "##ķ": 726,
      "##ẹ": 727,
      "##¸": 728,
      "##∅": 729,
      "##τ": 730,
      "##ı": 731,
      "##Ś": 732,
      "##ō": 733,
      "##ς": 734,
      "##γ": 735,
      "##ὸ": 736,
      "##ﬁ": 737,
      "##÷": 738,
      "##ģ": 739,
      "##Δ": 740,
      "##ǎ": 741,
      "##¨": 742,
      "##ė": 743,
      "##ο": 744,
      "##▪": 745,
      "##☼": 746,
      "##в": 747,
      "##а": 748,
      "##ј": 749,
      "##ц": 750,
      "##р": 751,
      "##с": 752,
      "##к": 753,
      "##≥": 754,
      "##⎯": 755,
      "##ї": 756,
      "##т": 757,
      "##е": 758,
      "##О": 759,
      "##Р": 760,
      "##Д": 761,
      "##ь": 762,
      "##λ": 763,
      "##μ": 764,
      "##ρ": 765,
      "##Ă": 766,
      "##ħ": 767,
      "##ϑ": 768,
      "##↓": 769,
      "##̶": 770,
      "##Ï": 771,
      "##θ": 772,
      "##ή": 773,
      "##ῶ": 774,
      "##Ψ": 775,
      "##ὲ": 776,
      "##ȩ": 777,
      "##ʽ": 778,
      "##ŀ": 779,
      "##ŷ": 780,
      "##∞": 781,
      "##ì": 782,
      "##л": 783,
      "##Ļ": 784,
      "##Ģ": 785,
      "##Ÿ": 786,
      "##Β": 787,
      "##Ε": 788,
      "##Τ": 789,
      "##Α": 790,
      "##ὺ": 791,
      "##Ņ": 792,
      "##о": 793,
      "##ш": 794,
      "##і": 795,
      "##υ": 796,
      "##ὤ": 797,
      "##̕": 798,
      "##Φ": 799,
      "##İ": 800,
      "##º": 801,
      "##ǫ": 802,
      "##Ω": 803,
      "##ό": 804,
      "##ề": 805,
      "##≤": 806,
      "##ả": 807,
      "##●": 808,
      "##п": 809,
      "##й": 810,
      "##ℓ": 811,
      "##Χ": 812,
      "##Η": 813,
      "##ˉ": 814,
      "##ю": 815,
      "##С": 816,
      "##Т": 817,
      "##у": 818,
      "##♂": 819,
      "##À": 820,
      "##ỉ": 821,
      "##∆": 822,
      "##Ã": 823,
      "##з": 824,
      "##х": 825,
      "##χ": 826,
      "##ὶ": 827,
      "##ו": 828,
      "##į": 829,
      "##st": 830,
      "##ní": 831,
      "##ov": 832,
      "##ch": 833,
      "##en": 834,
      "##ou": 835,
      "##la": 836,
      "##ro": 837,
      "##le": 838,
      "po": 839,
      "##ra": 840,
      "##te": 841,
      "##li": 842,
      "na": 843,
      "ne": 844,
      "se": 845,
      "##ho": 846,
      "##ře": 847,
      "je": 848,
      "##em": 849,
      "##ak": 850,
      "##ně": 851,
      "##ce": 852,
      "##in": 853,
      "do": 854,
      "##at": 855,
      "##lo": 856,
      "##no": 857,
      "##sk": 858,
      "##an": 859,
      "##it": 860,
      "pro": 861,
      "##al": 862,
      "##or": 863,
      "za": 864,
      "##rá": 865,
      "##ří": 866,
      "st": 867,
      "##ku": 868,
      "##ni": 869,
      "##de": 870,
      "##on": 871,
      "##jí": 872,
      "##ých": 873,
      "##je": 874,
      "vy": 875,
      "##od": 876,
      "##ři": 877,
      "to": 878,
      "##ka": 879,
      "##ci": 880,
      "##ti": 881,
      "##né": 882,
      "##ky": 883,
      "by": 884,
      "##er": 885,
      "##to": 886,
      "##ad": 887,
      "##ší": 888,
      "pře": 889,
      "##cí": 890,
      "##mi": 891,
      "##po": 892,
      "##el": 893,
      "##na": 894,
      "##va": 895,
      "ro": 896,
      "##dy": 897,
      "ob": 898,
      "##vě": 899,
      "##il": 900,
      "že": 901,
      "##ter": 902,
      "##ck": 903,
      "##ar": 904,
      "##ko": 905,
      "##et": 906,
      "js": 907,
      "##sti": 908,
      "od": 909,
      "##mě": 910,
      "##ná": 911,
      "##lu": 912,
      "##mu": 913,
      "##ru": 914,
      "##av": 915,
      "##lá": 916,
      "##dě": 917,
      "##ého": 918,
      "ná": 919,
      "##tě": 920,
      "##ová": 921,
      "##vo": 922,
      "ve": 923,
      "pod": 924,
      "vý": 925,
      "##by": 926,
      "##ek": 927,
      "jak": 928,
      "##me": 929,
      "##ze": 930,
      "##vá": 931,
      "zá": 932,
      "##že": 933,
      "##ob": 934,
      "tak": 935,
      "pr": 936,
      "při": 937,
      "##ál": 938,
      "##ým": 939,
      "##ed": 940,
      "##ví": 941,
      "##še": 942,
      "##tu": 943,
      "kter": 944,
      "##ji": 945,
      "ně": 946,
      "##ez": 947,
      "mo": 948,
      "pří": 949,
      "##mo": 950,
      "si": 951,
      "##ém": 952,
      "##ta": 953,
      "##ním": 954,
      "##du": 955,
      "##ova": 956,
      "ko": 957,
      "##ím": 958,
      "##ne": 959,
      "roz": 960,
      "##ly": 961,
      "##bo": 962,
      "te": 963,
      "##nou": 964,
      "##nu": 965,
      "##as": 966,
      "mě": 967,
      "jed": 968,
      "##ové": 969,
      "##is": 970,
      "##ká": 971,
      "##nost": 972,
      "##rav": 973,
      "ch": 974,
      "##tí": 975,
      "##ních": 976,
      "##da": 977,
      "##uje": 978,
      "##ný": 979,
      "##tel": 980,
      "před": 981,
      "##ny": 982,
      "##di": 983,
      "##es": 984,
      "##lí": 985,
      "ale": 986,
      "##ist": 987,
      "sv": 988,
      "##ma": 989,
      "##dá": 990,
      "jako": 991,
      "##do": 992,
      "##ty": 993,
      "spo": 994,
      "mu": 995,
      "kon": 996,
      "in": 997,
      "jsem": 998,
      "bu": 999,
      "nej": 1000,
      "vě": 1001,
      "ni": 1002,
      "sp": 1003,
      "##mí": 1004,
      "##kla": 1005,
      "##čí": 1006,
      "##men": 1007,
      "##ovat": 1008,
      "##id": 1009,
      "##ží": 1010,
      "##ské": 1011,
      "vz": 1012,
      "Po": 1013,
      "##ště": 1014,
      "##led": 1015,
      "##ick": 1016,
      "re": 1017,
      "ka": 1018,
      "##bu": 1019,
      "##up": 1020,
      "##če": 1021,
      "##lov": 1022,
      "##át": 1023,
      "##ků": 1024,
      "##pad": 1025,
      "sou": 1026,
      "##vní": 1027,
      "##ční": 1028,
      "##lou": 1029,
      "##nosti": 1030,
      "##kon": 1031,
      "##jící": 1032,
      "ho": 1033,
      "ji": 1034,
      "kdy": 1035,
      "##hod": 1036,
      "##stav": 1037,
      "##ve": 1038,
      "##rov": 1039,
      "nebo": 1040,
      "co": 1041,
      "##vy": 1042,
      "##jší": 1043,
      "##tá": 1044,
      "##my": 1045,
      "mi": 1046,
      "op": 1047,
      "##sp": 1048,
      "##ry": 1049,
      "##ri": 1050,
      "##kou": 1051,
      "jsou": 1052,
      "##hu": 1053,
      "##bě": 1054,
      "##za": 1055,
      "ma": 1056,
      "mí": 1057,
      "##ných": 1058,
      "##ent": 1059,
      "##ování": 1060,
      "##ba": 1061,
      "které": 1062,
      "má": 1063,
      "##sta": 1064,
      "Ne": 1065,
      "##kov": 1066,
      "##ád": 1067,
      "##vi": 1068,
      "##či": 1069,
      "##se": 1070,
      "##ži": 1071,
      "##sí": 1072,
      "##op": 1073,
      "le": 1074,
      "Na": 1075,
      "pra": 1076,
      "##má": 1077,
      "##zi": 1078,
      "##lé": 1079,
      "jen": 1080,
      "##žit": 1081,
      "ze": 1082,
      "##dí": 1083,
      "##am": 1084,
      "kte": 1085,
      "##sa": 1086,
      "##ního": 1087,
      "##sob": 1088,
      "##si": 1089,
      "prá": 1090,
      "tě": 1091,
      "Je": 1092,
      "vš": 1093,
      "aby": 1094,
      "##oru": 1095,
      "##zí": 1096,
      "jeho": 1097,
      "##len": 1098,
      "##bí": 1099,
      "zp": 1100,
      "##vět": 1101,
      "##re": 1102,
      "##oval": 1103,
      "##stup": 1104,
      "##klad": 1105,
      "##jem": 1106,
      "##om": 1107,
      "##sto": 1108,
      "který": 1109,
      "##00": 1110,
      "vše": 1111,
      "##kt": 1112,
      "##ově": 1113,
      "##ovan": 1114,
      "##pe": 1115,
      "##leč": 1116,
      "##ali": 1117,
      "dě": 1118,
      "##pu": 1119,
      "ví": 1120,
      "už": 1121,
      "bý": 1122,
      "##ené": 1123,
      "vel": 1124,
      "byl": 1125,
      "##ran": 1126,
      "##ec": 1127,
      "##lem": 1128,
      "##řed": 1129,
      "##su": 1130,
      "##ům": 1131,
      "##chá": 1132,
      "##ální": 1133,
      "tu": 1134,
      "pou": 1135,
      "Pro": 1136,
      "##hy": 1137,
      "##ými": 1138,
      "pa": 1139,
      "##zna": 1140,
      "##ste": 1141,
      "nap": 1142,
      "##ám": 1143,
      "19": 1144,
      "##stí": 1145,
      "##ha": 1146,
      "##vr": 1147,
      "##gi": 1148,
      "##ství": 1149,
      "hla": 1150,
      "vo": 1151,
      "##inu": 1152,
      "##ného": 1153,
      "než": 1154,
      "pot": 1155,
      "##kem": 1156,
      "##dou": 1157,
      "zem": 1158,
      "##zu": 1159,
      "ži": 1160,
      "##ši": 1161,
      "##sled": 1162,
      "poz": 1163,
      "bez": 1164,
      "##ena": 1165,
      "tr": 1166,
      "až": 1167,
      "##vod": 1168,
      "jedno": 1169,
      "ří": 1170,
      "##so": 1171,
      "cel": 1172,
      "nep": 1173,
      "##ůže": 1174,
      "##liv": 1175,
      "když": 1176,
      "li": 1177,
      "##rů": 1178,
      "##val": 1179,
      "hod": 1180,
      "##last": 1181,
      "di": 1182,
      "##iny": 1183,
      "##lat": 1184,
      "bude": 1185,
      "To": 1186,
      "##alší": 1187,
      "##ovo": 1188,
      "sy": 1189,
      "mez": 1190,
      "jin": 1191,
      "##nější": 1192,
      "##ati": 1193,
      "všech": 1194,
      "##děl": 1195,
      "##eno": 1196,
      "také": 1197,
      "##prav": 1198,
      "##jich": 1199,
      "ty": 1200,
      "př": 1201,
      "společ": 1202,
      "pů": 1203,
      "##ut": 1204,
      "##ir": 1205,
      "##ina": 1206,
      "prost": 1207,
      "té": 1208,
      "##cké": 1209,
      "##rát": 1210,
      "##ových": 1211,
      "jsme": 1212,
      "##raz": 1213,
      "##pa": 1214,
      "de": 1215,
      "sa": 1216,
      "bylo": 1217,
      "stá": 1218,
      "být": 1219,
      "mož": 1220,
      "##stat": 1221,
      "proto": 1222,
      "dů": 1223,
      "##vu": 1224,
      "která": 1225,
      "##cích": 1226,
      "moh": 1227,
      "##ská": 1228,
      "##čně": 1229,
      "však": 1230,
      "byla": 1231,
      "dru": 1232,
      "##mé": 1233,
      "##ový": 1234,
      "##zení": 1235,
      "##ských": 1236,
      "zd": 1237,
      "##tní": 1238,
      "##nit": 1239,
      "##chod": 1240,
      "jejich": 1241,
      "če": 1242,
      "##itu": 1243,
      "##ského": 1244,
      "##ský": 1245,
      "##hle": 1246,
      "##ují": 1247,
      "jí": 1248,
      "##ným": 1249,
      "dí": 1250,
      "či": 1251,
      "##co": 1252,
      "sk": 1253,
      "##rob": 1254,
      "dob": 1255,
      "další": 1256,
      "tom": 1257,
      "let": 1258,
      "toho": 1259,
      "##ké": 1260,
      "ani": 1261,
      "ru": 1262,
      "##ená": 1263,
      "ten": 1264,
      "##koli": 1265,
      "##sky": 1266,
      "##řej": 1267,
      "##há": 1268,
      "##for": 1269,
      "něk": 1270,
      "ku": 1271,
      "bo": 1272,
      "##ovi": 1273,
      "##ct": 1274,
      "ještě": 1275,
      "##pi": 1276,
      "##fi": 1277,
      "stra": 1278,
      "##est": 1279,
      "zv": 1280,
      "##gra": 1281,
      "lid": 1282,
      "ak": 1283,
      "##bi": 1284,
      "vlast": 1285,
      "##hra": 1286,
      "něj": 1287,
      "pak": 1288,
      "sku": 1289,
      "své": 1290,
      "živo": 1291,
      "může": 1292,
      "ní": 1293,
      "přes": 1294,
      "##kud": 1295,
      "##be": 1296,
      "##vat": 1297,
      "##un": 1298,
      "##sy": 1299,
      "no": 1300,
      "##tek": 1301,
      "mezi": 1302,
      "##sku": 1303,
      "##ani": 1304,
      "mno": 1305,
      "##cky": 1306,
      "sta": 1307,
      "tře": 1308,
      "##čit": 1309,
      "nad": 1310,
      "##tr": 1311,
      "##chu": 1312,
      "dá": 1313,
      "##pr": 1314,
      "její": 1315,
      "prů": 1316,
      "##eny": 1317,
      "Če": 1318,
      "lé": 1319,
      "ta": 1320,
      "##ším": 1321,
      "##iná": 1322,
      "vá": 1323,
      "nez": 1324,
      "nás": 1325,
      "my": 1326,
      "##ět": 1327,
      "není": 1328,
      "kom": 1329,
      "Jak": 1330,
      "##tej": 1331,
      "##tem": 1332,
      "vět": 1333,
      "##pl": 1334,
      "ex": 1335,
      "##čas": 1336,
      "podle": 1337,
      "Za": 1338,
      "##nout": 1339,
      "zna": 1340,
      "##šení": 1341,
      "##rg": 1342,
      "Do": 1343,
      "##ený": 1344,
      "vi": 1345,
      "##chy": 1346,
      "ry": 1347,
      "##hla": 1348,
      "##ory": 1349,
      "##vně": 1350,
      "##rod": 1351,
      "ře": 1352,
      "##eme": 1353,
      "kde": 1354,
      "ke": 1355,
      "##dr": 1356,
      "##žd": 1357,
      "prac": 1358,
      "##cho": 1359,
      "##vou": 1360,
      "##ření": 1361,
      "##tom": 1362,
      "##rop": 1363,
      "tím": 1364,
      "Vy": 1365,
      "##ické": 1366,
      "##ast": 1367,
      "##bli": 1368,
      "##ností": 1369,
      "##ců": 1370,
      "Pod": 1371,
      "##mys": 1372,
      "au": 1373,
      "##sla": 1374,
      "##stá": 1375,
      "druh": 1376,
      "prav": 1377,
      "##ovou": 1378,
      "##ení": 1379,
      "##zy": 1380,
      "poli": 1381,
      "##teč": 1382,
      "20": 1383,
      "##eně": 1384,
      "##ovala": 1385,
      "##pí": 1386,
      "##ček": 1387,
      "ov": 1388,
      "##aly": 1389,
      "##měr": 1390,
      "St": 1391,
      "##vali": 1392,
      "Mo": 1393,
      "Ale": 1394,
      "slu": 1395,
      "##ané": 1396,
      "##kr": 1397,
      "ti": 1398,
      "syst": 1399,
      "##ska": 1400,
      "čá": 1401,
      "min": 1402,
      "##ového": 1403,
      "případ": 1404,
      "##sá": 1405,
      "##vé": 1406,
      "##sko": 1407,
      "##spě": 1408,
      "sto": 1409,
      "zač": 1410,
      "čas": 1411,
      "##hled": 1412,
      "##ud": 1413,
      "##lož": 1414,
      "dne": 1415,
      "##ném": 1416,
      "##án": 1417,
      "##lení": 1418,
      "Kdy": 1419,
      "##čet": 1420,
      "so": 1421,
      "##zd": 1422,
      "již": 1423,
      "##bor": 1424,
      "svě": 1425,
      "##sou": 1426,
      "lo": 1427,
      "stav": 1428,
      "kr": 1429,
      "##kra": 1430,
      "##chni": 1431,
      "##hl": 1432,
      "fir": 1433,
      "##ůsob": 1434,
      "ur": 1435,
      "##ady": 1436,
      "##im": 1437,
      "an": 1438,
      "Ro": 1439,
      "země": 1440,
      "##kaz": 1441,
      "čer": 1442,
      "##ved": 1443,
      "##ených": 1444,
      "Pra": 1445,
      "##um": 1446,
      "proje": 1447,
      "##tick": 1448,
      "##del": 1449,
      "##chop": 1450,
      "stej": 1451,
      "##ner": 1452,
      "##hem": 1453,
      "tedy": 1454,
      "##ala": 1455,
      "##ing": 1456,
      "pov": 1457,
      "odp": 1458,
      "vů": 1459,
      "##ech": 1460,
      "pat": 1461,
      "##žení": 1462,
      "Ma": 1463,
      "##ej": 1464,
      "roce": 1465,
      "##nění": 1466,
      "##log": 1467,
      "##vrop": 1468,
      "řek": 1469,
      "##ver": 1470,
      "os": 1471,
      "rů": 1472,
      "##pis": 1473,
      "##vají": 1474,
      "tam": 1475,
      "roku": 1476,
      "zat": 1477,
      "budou": 1478,
      "##čky": 1479,
      "tomu": 1480,
      "##ležit": 1481,
      "##čení": 1482,
      "cí": 1483,
      "200": 1484,
      "By": 1485,
      "##emi": 1486,
      "##lep": 1487,
      "sm": 1488,
      "##vis": 1489,
      "##šť": 1490,
      "##mín": 1491,
      "Tak": 1492,
      "vod": 1493,
      "##roj": 1494,
      "##edi": 1495,
      "##tiv": 1496,
      "představ": 1497,
      "pla": 1498,
      "měl": 1499,
      "Ně": 1500,
      "##let": 1501,
      "úč": 1502,
      "##ol": 1503,
      "každ": 1504,
      "##pra": 1505,
      "Ve": 1506,
      "pá": 1507,
      "samo": 1508,
      "bě": 1509,
      "##ující": 1510,
      "nabí": 1511,
      "nes": 1512,
      "prob": 1513,
      "musí": 1514,
      "##ori": 1515,
      "##ana": 1516,
      "Při": 1517,
      "##lní": 1518,
      "##tech": 1519,
      "nich": 1520,
      "##rní": 1521,
      "nemo": 1522,
      "dlou": 1523,
      "##stou": 1524,
      "##stě": 1525,
      "##rat": 1526,
      "protože": 1527,
      "sí": 1528,
      "nějak": 1529,
      "In": 1530,
      "##us": 1531,
      "##lad": 1532,
      "obje": 1533,
      "##eni": 1534,
      "první": 1535,
      "##roz": 1536,
      "vyu": 1537,
      "tý": 1538,
      "rozhod": 1539,
      "##lém": 1540,
      "proti": 1541,
      "rod": 1542,
      "##eb": 1543,
      "##lád": 1544,
      "##tele": 1545,
      "##mů": 1546,
      "##ily": 1547,
      "##teri": 1548,
      "velmi": 1549,
      "##ovali": 1550,
      "##vání": 1551,
      "zamě": 1552,
      "několi": 1553,
      "více": 1554,
      "mal": 1555,
      "##ene": 1556,
      "neby": 1557,
      "kteří": 1558,
      "změ": 1559,
      "svět": 1560,
      "su": 1561,
      "potře": 1562,
      "Ch": 1563,
      "##ovní": 1564,
      "ško": 1565,
      "byly": 1566,
      "##čka": 1567,
      "kli": 1568,
      "##šel": 1569,
      "du": 1570,
      "##tře": 1571,
      "ja": 1572,
      "##stli": 1573,
      "##ždy": 1574,
      "##lově": 1575,
      "##vý": 1576,
      "nic": 1577,
      "mili": 1578,
      "##skou": 1579,
      "##nika": 1580,
      "##ký": 1581,
      "rych": 1582,
      "způsob": 1583,
      "##té": 1584,
      "par": 1585,
      "nedo": 1586,
      "##nad": 1587,
      "##cha": 1588,
      "neu": 1589,
      "nik": 1590,
      "org": 1591,
      "Když": 1592,
      "##van": 1593,
      "##bou": 1594,
      "##ktu": 1595,
      "##ato": 1596,
      "sil": 1597,
      "fun": 1598,
      "zí": 1599,
      "stát": 1600,
      "##ůj": 1601,
      "##ence": 1602,
      "dva": 1603,
      "##forma": 1604,
      "##nání": 1605,
      "pe": 1606,
      "##logi": 1607,
      "spolu": 1608,
      "Ko": 1609,
      "##zku": 1610,
      "##rou": 1611,
      "stan": 1612,
      "žád": 1613,
      "##tor": 1614,
      "##rost": 1615,
      "hra": 1616,
      "bych": 1617,
      "##nice": 1618,
      "těch": 1619,
      "us": 1620,
      "tra": 1621,
      "##ému": 1622,
      "Co": 1623,
      "##řit": 1624,
      "Ka": 1625,
      "Zá": 1626,
      "##enou": 1627,
      "Od": 1628,
      "##nov": 1629,
      "cest": 1630,
      "Pře": 1631,
      "mají": 1632,
      "##ští": 1633,
      "hodno": 1634,
      "SE": 1635,
      "nám": 1636,
      "##děla": 1637,
      "něco": 1638,
      "vyš": 1639,
      "da": 1640,
      "##říklad": 1641,
      "##žel": 1642,
      "des": 1643,
      "##tra": 1644,
      "##čil": 1645,
      "ele": 1646,
      "##zem": 1647,
      "##ník": 1648,
      "rá": 1649,
      "třeba": 1650,
      "Mar": 1651,
      "##šem": 1652,
      "obchod": 1653,
      "produ": 1654,
      "va": 1655,
      "vyso": 1656,
      "##rt": 1657,
      "Vý": 1658,
      "##inan": 1659,
      "##til": 1660,
      "kou": 1661,
      "pos": 1662,
      "pě": 1663,
      "jednot": 1664,
      "##kce": 1665,
      "Mi": 1666,
      "##rom": 1667,
      "##inou": 1668,
      "##lit": 1669,
      "##nik": 1670,
      "osob": 1671,
      "##oví": 1672,
      "pomo": 1673,
      "Nej": 1674,
      "##liš": 1675,
      "##mer": 1676,
      "met": 1677,
      "pl": 1678,
      "##hou": 1679,
      "podob": 1680,
      "nepo": 1681,
      "pouze": 1682,
      "Jed": 1683,
      "přede": 1684,
      "minu": 1685,
      "for": 1686,
      "##čních": 1687,
      "##stru": 1688,
      "já": 1689,
      "##ském": 1690,
      "Te": 1691,
      "##tů": 1692,
      "##nem": 1693,
      "##cen": 1694,
      "Ob": 1695,
      "výrob": 1696,
      "vyt": 1697,
      "##sem": 1698,
      "ote": 1699,
      "nov": 1700,
      "##kové": 1701,
      "systém": 1702,
      "zákon": 1703,
      "##stan": 1704,
      "eko": 1705,
      "##znam": 1706,
      "##nutí": 1707,
      "dokon": 1708,
      "##iti": 1709,
      "rad": 1710,
      "##losti": 1711,
      "zak": 1712,
      "##ul": 1713,
      "##pli": 1714,
      "##ace": 1715,
      "##ot": 1716,
      "star": 1717,
      "tři": 1718,
      "##ard": 1719,
      "krá": 1720,
      "##řád": 1721,
      "této": 1722,
      "rov": 1723,
      "asi": 1724,
      "posled": 1725,
      "zná": 1726,
      "##ag": 1727,
      "člově": 1728,
      "tele": 1729,
      "##lan": 1730,
      "##nými": 1731,
      "##ur": 1732,
      "lze": 1733,
      "##žad": 1734,
      "##rně": 1735,
      "##kách": 1736,
      "Al": 1737,
      "součas": 1738,
      "pí": 1739,
      "plá": 1740,
      "##zor": 1741,
      "Bo": 1742,
      "zeměděl": 1743,
      "##jed": 1744,
      "##prá": 1745,
      "An": 1746,
      "##ované": 1747,
      "201": 1748,
      "##ání": 1749,
      "čty": 1750,
      "##voj": 1751,
      "##den": 1752,
      "##rch": 1753,
      "##ity": 1754,
      "##por": 1755,
      "##vatel": 1756,
      "##sle": 1757,
      "up": 1758,
      "##měř": 1759,
      "##řad": 1760,
      "obla": 1761,
      "##ctví": 1762,
      "10": 1763,
      "řad": 1764,
      "##tro": 1765,
      "elekt": 1766,
      "##race": 1767,
      "čin": 1768,
      "##ig": 1769,
      "199": 1770,
      "##hlá": 1771,
      "nech": 1772,
      "##řá": 1773,
      "##zace": 1774,
      "otá": 1775,
      "##cent": 1776,
      "##ost": 1777,
      "##pla": 1778,
      "##álně": 1779,
      "##jeme": 1780,
      "Ná": 1781,
      "jim": 1782,
      "chy": 1783,
      "plo": 1784,
      "informa": 1785,
      "##lý": 1786,
      "kra": 1787,
      "##chází": 1788,
      "což": 1789,
      "vždy": 1790,
      "mé": 1791,
      "kvali": 1792,
      "##sah": 1793,
      "##ilo": 1794,
      "někter": 1795,
      "##vším": 1796,
      "##dob": 1797,
      "##enci": 1798,
      "##pit": 1799,
      "společnosti": 1800,
      "##nil": 1801,
      "slov": 1802,
      "##čku": 1803,
      "růz": 1804,
      "nevy": 1805,
      "##lik": 1806,
      "sprá": 1807,
      "##sl": 1808,
      "##ge": 1809,
      "sebe": 1810,
      "ča": 1811,
      "##dech": 1812,
      "##nomi": 1813,
      "##bav": 1814,
      "##bra": 1815,
      "právě": 1816,
      "##řejmě": 1817,
      "problém": 1818,
      "##stal": 1819,
      "##sed": 1820,
      "##nat": 1821,
      "Evrop": 1822,
      "finan": 1823,
      "zů": 1824,
      "##cela": 1825,
      "Kč": 1826,
      "##jde": 1827,
      "##publi": 1828,
      "##št": 1829,
      "den": 1830,
      "dvě": 1831,
      "cen": 1832,
      "stře": 1833,
      "sna": 1834,
      "##isí": 1835,
      "##bý": 1836,
      "##cím": 1837,
      "určit": 1838,
      "době": 1839,
      "komu": 1840,
      "všechny": 1841,
      "##lost": 1842,
      "15": 1843,
      "##cem": 1844,
      "##rd": 1845,
      "kterou": 1846,
      "jist": 1847,
      "##tivní": 1848,
      "základ": 1849,
      "například": 1850,
      "stále": 1851,
      "Jen": 1852,
      "mít": 1853,
      "míst": 1854,
      "ra": 1855,
      "##peč": 1856,
      "##zná": 1857,
      "##kro": 1858,
      "##eň": 1859,
      "podí": 1860,
      "případě": 1861,
      "##zá": 1862,
      "vlastní": 1863,
      "Ni": 1864,
      "ba": 1865,
      "##nick": 1866,
      "##gen": 1867,
      "progra": 1868,
      "zdra": 1869,
      "snad": 1870,
      "spe": 1871,
      "##žně": 1872,
      "##bec": 1873,
      "##nů": 1874,
      "koru": 1875,
      "minist": 1876,
      "výkon": 1877,
      "veli": 1878,
      "bi": 1879,
      "##pě": 1880,
      "##ata": 1881,
      "Ten": 1882,
      "##ber": 1883,
      "situ": 1884,
      "##dět": 1885,
      "##lů": 1886,
      "použí": 1887,
      "dr": 1888,
      "##klá": 1889,
      "##slu": 1890,
      "##iv": 1891,
      "##ňuje": 1892,
      "##oda": 1893,
      "zaměst": 1894,
      "čt": 1895,
      "##sad": 1896,
      "jde": 1897,
      "##ména": 1898,
      "##mou": 1899,
      "pan": 1900,
      "##tiž": 1901,
      "zahra": 1902,
      "##man": 1903,
      "skup": 1904,
      "prv": 1905,
      "měla": 1906,
      "život": 1907,
      "vys": 1908,
      "čí": 1909,
      "Pr": 1910,
      "vr": 1911,
      "##zo": 1912,
      "##čer": 1913,
      "##ev": 1914,
      "řekl": 1915,
      "##čá": 1916,
      "kro": 1917,
      "##vů": 1918,
      "republi": 1919,
      "##ických": 1920,
      "tří": 1921,
      "postup": 1922,
      "##pat": 1923,
      "Pa": 1924,
      "zde": 1925,
      "Pokud": 1926,
      "ban": 1927,
      "##cit": 1928,
      "ode": 1929,
      "kdo": 1930,
      "provo": 1931,
      "##met": 1932,
      "##ář": 1933,
      "hor": 1934,
      "svou": 1935,
      "dvou": 1936,
      "něm": 1937,
      "##jte": 1938,
      "tento": 1939,
      "##dání": 1940,
      "mohou": 1941,
      "především": 1942,
      "několik": 1943,
      "##ovým": 1944,
      "##hlí": 1945,
      "vlá": 1946,
      "##níků": 1947,
      "##vala": 1948,
      "##pro": 1949,
      "větš": 1950,
      "##kle": 1951,
      "uved": 1952,
      "kolem": 1953,
      "##sil": 1954,
      "18": 1955,
      "zej": 1956,
      "##řil": 1957,
      "##ment": 1958,
      "Se": 1959,
      "##stra": 1960,
      "##ách": 1961,
      "chtě": 1962,
      "ved": 1963,
      "práce": 1964,
      "##pod": 1965,
      "##der": 1966,
      "totiž": 1967,
      "speci": 1968,
      "Ja": 1969,
      "bud": 1970,
      "##ari": 1971,
      "on": 1972,
      "jeden": 1973,
      "ostat": 1974,
      "člen": 1975,
      "počí": 1976,
      "Le": 1977,
      "##ková": 1978,
      "kni": 1979,
      "sed": 1980,
      "měsí": 1981,
      "##věd": 1982,
      "##mat": 1983,
      "pop": 1984,
      "##chno": 1985,
      "##ůž": 1986,
      "prostřed": 1987,
      "uni": 1988,
      "##nici": 1989,
      "##ila": 1990,
      "zda": 1991,
      "výro": 1992,
      "Jo": 1993,
      "techni": 1994,
      "nem": 1995,
      "ČR": 1996,
      "teď": 1997,
      "##luv": 1998,
      "##fek": 1999,
      "inter": 2000,
      "zatím": 2001,
      "##rak": 2002,
      "hle": 2003,
      "tisí": 2004,
      "##tické": 2005,
      "##ších": 2006,
      "##stu": 2007,
      "Podle": 2008,
      "ener": 2009,
      "##nictví": 2010,
      "ok": 2011,
      "dobře": 2012,
      "oh": 2013,
      "dnes": 2014,
      "nové": 2015,
      "pu": 2016,
      "##zv": 2017,
      "12": 2018,
      "##py": 2019,
      "vol": 2020,
      "lá": 2021,
      "##ovatel": 2022,
      "##žen": 2023,
      "##káz": 2024,
      "jste": 2025,
      "nev": 2026,
      "veřej": 2027,
      "dál": 2028,
      "##ple": 2029,
      "vzta": 2030,
      "##jení": 2031,
      "nut": 2032,
      "##rál": 2033,
      "tro": 2034,
      "##nan": 2035,
      "##ede": 2036,
      "skuteč": 2037,
      "##ili": 2038,
      "##obě": 2039,
      "##onu": 2040,
      "kan": 2041,
      "umě": 2042,
      "##kam": 2043,
      "soci": 2044,
      "chví": 2045,
      "##ický": 2046,
      "Bu": 2047,
      "Ji": 2048,
      "Mě": 2049,
      "ci": 2050,
      "##ré": 2051,
      "la": 2052,
      "pokud": 2053,
      "##dělá": 2054,
      "##sel": 2055,
      "##lek": 2056,
      "##stick": 2057,
      "svého": 2058,
      "rek": 2059,
      "##fer": 2060,
      "##cení": 2061,
      "och": 2062,
      "poč": 2063,
      "##mož": 2064,
      "##lav": 2065,
      "##hlé": 2066,
      "##ským": 2067,
      "##letí": 2068,
      "##byt": 2069,
      "otev": 2070,
      "zvý": 2071,
      "##rán": 2072,
      "##ován": 2073,
      "stejně": 2074,
      "podmín": 2075,
      "svo": 2076,
      "Ty": 2077,
      "proce": 2078,
      "tep": 2079,
      "al": 2080,
      "##min": 2081,
      "Sa": 2082,
      "bar": 2083,
      "dis": 2084,
      "##ie": 2085,
      "Spo": 2086,
      "##poru": 2087,
      "##spo": 2088,
      "korun": 2089,
      "byli": 2090,
      "vůbec": 2091,
      "podni": 2092,
      "##cháze": 2093,
      "##ovaly": 2094,
      "##sud": 2095,
      "##vyš": 2096,
      "tohoto": 2097,
      "##rý": 2098,
      "uz": 2099,
      "##řízení": 2100,
      "##enta": 2101,
      "Před": 2102,
      "##dek": 2103,
      "sch": 2104,
      "schop": 2105,
      "##pon": 2106,
      "##dní": 2107,
      "##hr": 2108,
      "##kl": 2109,
      "působ": 2110,
      "prof": 2111,
      "část": 2112,
      "připo": 2113,
      "hosp": 2114,
      "##nitř": 2115,
      "organi": 2116,
      "hy": 2117,
      "##řen": 2118,
      "##gu": 2119,
      "ny": 2120,
      "##hov": 2121,
      "konce": 2122,
      "lí": 2123,
      "ce": 2124,
      "často": 2125,
      "využí": 2126,
      "##ích": 2127,
      "ekonomi": 2128,
      "##drž": 2129,
      "oko": 2130,
      "posky": 2131,
      "##ovací": 2132,
      "připrav": 2133,
      "vám": 2134,
      "možné": 2135,
      "fak": 2136,
      "pohy": 2137,
      "##rac": 2138,
      "všechno": 2139,
      "##ven": 2140,
      "jedin": 2141,
      "inve": 2142,
      "##čné": 2143,
      "Fran": 2144,
      "nejen": 2145,
      "zku": 2146,
      "##tal": 2147,
      "##dit": 2148,
      "##krát": 2149,
      "##rodní": 2150,
      "##tečně": 2151,
      "těchto": 2152,
      "fil": 2153,
      "##tím": 2154,
      "Roz": 2155,
      "##ovy": 2156,
      "Kon": 2157,
      "postav": 2158,
      "jej": 2159,
      "gene": 2160,
      "fo": 2161,
      "spí": 2162,
      "ovšem": 2163,
      "kla": 2164,
      "nabíd": 2165,
      "##teli": 2166,
      "sní": 2167,
      "##žití": 2168,
      "##hů": 2169,
      "lidí": 2170,
      "##alo": 2171,
      "žá": 2172,
      "naše": 2173,
      "jednotliv": 2174,
      "##čního": 2175,
      "význam": 2176,
      "##roveň": 2177,
      "##hé": 2178,
      "man": 2179,
      "místo": 2180,
      "nikdy": 2181,
      "svých": 2182,
      "zaji": 2183,
      "##ned": 2184,
      "##mý": 2185,
      "výraz": 2186,
      "odbor": 2187,
      "oblasti": 2188,
      "leto": 2189,
      "Já": 2190,
      "ředi": 2191,
      "odpově": 2192,
      "zvlá": 2193,
      "dosta": 2194,
      "##roje": 2195,
      "##děli": 2196,
      "ot": 2197,
      "##čem": 2198,
      "##štění": 2199,
      "oprav": 2200,
      "##nic": 2201,
      "autom": 2202,
      "##šit": 2203,
      "spoj": 2204,
      "nebu": 2205,
      "letech": 2206,
      "##emo": 2207,
      "##ovalo": 2208,
      "Re": 2209,
      "přit": 2210,
      "##šet": 2211,
      "jas": 2212,
      "##víc": 2213,
      "##jících": 2214,
      "##ději": 2215,
      "##čin": 2216,
      "##novu": 2217,
      "zejména": 2218,
      "##itel": 2219,
      "dom": 2220,
      "##čan": 2221,
      "obdob": 2222,
      "pozor": 2223,
      "požad": 2224,
      "##kal": 2225,
      "##álních": 2226,
      "říká": 2227,
      "těž": 2228,
      "##nes": 2229,
      "prez": 2230,
      "neza": 2231,
      "per": 2232,
      "list": 2233,
      "##lez": 2234,
      "potřeb": 2235,
      "Pří": 2236,
      "##mená": 2237,
      "##ředí": 2238,
      "techno": 2239,
      "moc": 2240,
      "##jít": 2241,
      "nemě": 2242,
      "rok": 2243,
      "##ga": 2244,
      "##udi": 2245,
      "30": 2246,
      "##mysl": 2247,
      "pracovní": 2248,
      "mimo": 2249,
      "nemá": 2250,
      "služ": 2251,
      "##per": 2252,
      "ven": 2253,
      "tvr": 2254,
      "muž": 2255,
      "kul": 2256,
      "větší": 2257,
      "oči": 2258,
      "##dů": 2259,
      "##uj": 2260,
      "exist": 2261,
      "##kci": 2262,
      "jež": 2263,
      "##žil": 2264,
      "##hrá": 2265,
      "vás": 2266,
      "##jím": 2267,
      "##zní": 2268,
      "pova": 2269,
      "##kých": 2270,
      "br": 2271,
      "##čen": 2272,
      "##lech": 2273,
      "smě": 2274,
      "##hat": 2275,
      "zákaz": 2276,
      "pořád": 2277,
      "mil": 2278,
      "výsled": 2279,
      "##šk": 2280,
      "##xi": 2281,
      "##stva": 2282,
      "jiné": 2283,
      "umož": 2284,
      "důvod": 2285,
      "##pá": 2286,
      "prode": 2287,
      "víc": 2288,
      "##nal": 2289,
      "Má": 2290,
      "##dal": 2291,
      "zdravo": 2292,
      "##sně": 2293,
      "mohl": 2294,
      "Proto": 2295,
      "##loven": 2296,
      "##sů": 2297,
      "ním": 2298,
      "dve": 2299,
      "##sát": 2300,
      "sám": 2301,
      "##opak": 2302,
      "zcela": 2303,
      "důležit": 2304,
      "##kům": 2305,
      "politi": 2306,
      "zji": 2307,
      "##kami": 2308,
      "##net": 2309,
      "vla": 2310,
      "dokonce": 2311,
      "trhu": 2312,
      "České": 2313,
      "aut": 2314,
      "firmy": 2315,
      "##alu": 2316,
      "poji": 2317,
      "Br": 2318,
      "rám": 2319,
      "úspě": 2320,
      "tla": 2321,
      "##obil": 2322,
      "příliš": 2323,
      "plat": 2324,
      "##teg": 2325,
      "##šlo": 2326,
      "##plně": 2327,
      "střed": 2328,
      "otáz": 2329,
      "##sty": 2330,
      "##stech": 2331,
      "##ovaných": 2332,
      "tou": 2333,
      "Ru": 2334,
      "neb": 2335,
      "obě": 2336,
      "prov": 2337,
      "##zen": 2338,
      "##plika": 2339,
      "tvá": 2340,
      "##rem": 2341,
      "původ": 2342,
      "cent": 2343,
      "ter": 2344,
      "##šní": 2345,
      "auto": 2346,
      "náv": 2347,
      "materi": 2348,
      "Ta": 2349,
      "Li": 2350,
      "##stře": 2351,
      "Ho": 2352,
      "hu": 2353,
      "téměř": 2354,
      "Vá": 2355,
      "mod": 2356,
      "tomto": 2357,
      "##orů": 2358,
      "dra": 2359,
      "Jan": 2360,
      "set": 2361,
      "zase": 2362,
      "11": 2363,
      "spotře": 2364,
      "Pak": 2365,
      "např": 2366,
      "##ale": 2367,
      "sko": 2368,
      "svůj": 2369,
      "##vaz": 2370,
      "##gie": 2371,
      "at": 2372,
      "##ít": 2373,
      "##ická": 2374,
      "##vědo": 2375,
      "##žší": 2376,
      "##hnout": 2377,
      "kdyby": 2378,
      "##lin": 2379,
      "mat": 2380,
      "kam": 2381,
      "vytvo": 2382,
      "ri": 2383,
      "##hledem": 2384,
      "patří": 2385,
      "kontro": 2386,
      "Ag": 2387,
      "##čním": 2388,
      "abych": 2389,
      "##hléd": 2390,
      "##spoň": 2391,
      "##ody": 2392,
      "##era": 2393,
      "##átku": 2394,
      "##bní": 2395,
      "##klady": 2396,
      "vl": 2397,
      "##ren": 2398,
      "##tou": 2399,
      "tvo": 2400,
      "mas": 2401,
      "zapo": 2402,
      "polo": 2403,
      "chce": 2404,
      "umí": 2405,
      "okam": 2406,
      "##hdy": 2407,
      "##važ": 2408,
      "lidé": 2409,
      "sice": 2410,
      "dalších": 2411,
      "naši": 2412,
      "léka": 2413,
      "oby": 2414,
      "nemoc": 2415,
      "druhé": 2416,
      "16": 2417,
      "ab": 2418,
      "My": 2419,
      "##vky": 2420,
      "zel": 2421,
      "hist": 2422,
      "člověk": 2423,
      "##zel": 2424,
      "poslední": 2425,
      "náro": 2426,
      "přímo": 2427,
      "zahrani": 2428,
      "společnost": 2429,
      "procent": 2430,
      "každý": 2431,
      "##ovém": 2432,
      "ši": 2433,
      "##vil": 2434,
      "bí": 2435,
      "Mu": 2436,
      "vých": 2437,
      "mar": 2438,
      "ver": 2439,
      "##čů": 2440,
      "##logie": 2441,
      "##ten": 2442,
      "##tila": 2443,
      "části": 2444,
      "##ron": 2445,
      "chvíli": 2446,
      "Sou": 2447,
      "prostředí": 2448,
      "##ovaný": 2449,
      "sobě": 2450,
      "##cie": 2451,
      "rozdí": 2452,
      "##aný": 2453,
      "##bá": 2454,
      "##pozi": 2455,
      "rychle": 2456,
      "reali": 2457,
      "##cký": 2458,
      "uži": 2459,
      "##ita": 2460,
      "##kání": 2461,
      "##krač": 2462,
      "men": 2463,
      "##br": 2464,
      "##kli": 2465,
      "##hli": 2466,
      "kar": 2467,
      "možnost": 2468,
      "účin": 2469,
      "řešení": 2470,
      "##mp": 2471,
      "##kat": 2472,
      "##eč": 2473,
      "takže": 2474,
      "nyní": 2475,
      "##čila": 2476,
      "##ického": 2477,
      "mode": 2478,
      "##šeno": 2479,
      "znovu": 2480,
      "17": 2481,
      "##koj": 2482,
      "##zaci": 2483,
      "##lil": 2484,
      "práci": 2485,
      "##dení": 2486,
      "měli": 2487,
      "##vající": 2488,
      "##zřejmě": 2489,
      "##nému": 2490,
      "vál": 2491,
      "led": 2492,
      "blí": 2493,
      "##znač": 2494,
      "čtyři": 2495,
      "##šla": 2496,
      "lep": 2497,
      "##eta": 2498,
      "ar": 2499,
      "##cet": 2500,
      "##lých": 2501,
      "Vel": 2502,
      "opat": 2503,
      "voj": 2504,
      "paci": 2505,
      "začí": 2506,
      "souvis": 2507,
      "poku": 2508,
      "tyto": 2509,
      "svým": 2510,
      "##he": 2511,
      "získ": 2512,
      "dří": 2513,
      "Vz": 2514,
      "červ": 2515,
      "##jet": 2516,
      "studi": 2517,
      "ome": 2518,
      "##ito": 2519,
      "res": 2520,
      "nor": 2521,
      "největ": 2522,
      "zab": 2523,
      "jestli": 2524,
      "celé": 2525,
      "mys": 2526,
      "##onů": 2527,
      "tisíc": 2528,
      "##koliv": 2529,
      "stud": 2530,
      "##něž": 2531,
      "Ví": 2532,
      "systému": 2533,
      "##stit": 2534,
      "pom": 2535,
      "##vor": 2536,
      "14": 2537,
      "ply": 2538,
      "vypad": 2539,
      "25": 2540,
      "##kových": 2541,
      "No": 2542,
      "neo": 2543,
      "US": 2544,
      "##nak": 2545,
      "##mot": 2546,
      "vyp": 2547,
      "cha": 2548,
      "trochu": 2549,
      "##poč": 2550,
      "sem": 2551,
      "##ována": 2552,
      "13": 2553,
      "myš": 2554,
      "##prac": 2555,
      "##rad": 2556,
      "slou": 2557,
      "##prve": 2558,
      "##žní": 2559,
      "opět": 2560,
      "tady": 2561,
      "##klo": 2562,
      "zt": 2563,
      "poskyt": 2564,
      "##čeká": 2565,
      "##žství": 2566,
      "##dění": 2567,
      "žen": 2568,
      "jednou": 2569,
      "hlu": 2570,
      "stě": 2571,
      "kultu": 2572,
      "domá": 2573,
      "##OV": 2574,
      "##entů": 2575,
      "vyj": 2576,
      "podstat": 2577,
      "##son": 2578,
      "velké": 2579,
      "##ckých": 2580,
      "##ér": 2581,
      "rámci": 2582,
      "##zuje": 2583,
      "##sahu": 2584,
      "chod": 2585,
      "bezpeč": 2586,
      "##řel": 2587,
      "pi": 2588,
      "dost": 2589,
      "##lace": 2590,
      "mnoho": 2591,
      "##řilo": 2592,
      "##aných": 2593,
      "zas": 2594,
      "##vid": 2595,
      "návr": 2596,
      "str": 2597,
      "##uk": 2598,
      "obraz": 2599,
      "##šti": 2600,
      "Ba": 2601,
      "##ca": 2602,
      "proč": 2603,
      "##álu": 2604,
      "zařízení": 2605,
      "čtvr": 2606,
      "krát": 2607,
      "sl": 2608,
      "řízení": 2609,
      "##EN": 2610,
      "vyšší": 2611,
      "zví": 2612,
      "života": 2613,
      "násled": 2614,
      "pět": 2615,
      "hospod": 2616,
      "##aná": 2617,
      "bá": 2618,
      "bra": 2619,
      "dovo": 2620,
      "chla": 2621,
      "##tý": 2622,
      "##lán": 2623,
      "##tně": 2624,
      "##dat": 2625,
      "jenom": 2626,
      "vhod": 2627,
      "tran": 2628,
      "přece": 2629,
      "Vě": 2630,
      "##cti": 2631,
      "##hledu": 2632,
      "##ST": 2633,
      "dítě": 2634,
      "##RA": 2635,
      "##hý": 2636,
      "zprac": 2637,
      "ml": 2638,
      "##ort": 2639,
      "##něl": 2640,
      "##vad": 2641,
      "vši": 2642,
      "##ráž": 2643,
      "doprav": 2644,
      "dobu": 2645,
      "Vše": 2646,
      "jaké": 2647,
      "ky": 2648,
      "počíta": 2649,
      "##rojů": 2650,
      "##kovi": 2651,
      "hlavní": 2652,
      "##álním": 2653,
      "##dává": 2654,
      "##šen": 2655,
      "Mez": 2656,
      "považ": 2657,
      "##rální": 2658,
      "##aci": 2659,
      "období": 2660,
      "##ními": 2661,
      "##nila": 2662,
      "dále": 2663,
      "##kám": 2664,
      "polov": 2665,
      "vrá": 2666,
      "Něme": 2667,
      "##nám": 2668,
      "##ktů": 2669,
      "několika": 2670,
      "nimi": 2671,
      "povin": 2672,
      "##tin": 2673,
      "##čast": 2674,
      "##ket": 2675,
      "##ovu": 2676,
      "vysvět": 2677,
      "cho": 2678,
      "foto": 2679,
      "přij": 2680,
      "nav": 2681,
      "děti": 2682,
      "zaměstnan": 2683,
      "přístup": 2684,
      "##ledu": 2685,
      "##pil": 2686,
      "##telné": 2687,
      "přitom": 2688,
      "jednodu": 2689,
      "zach": 2690,
      "##žné": 2691,
      "aplika": 2692,
      "zh": 2693,
      "##les": 2694,
      "##čera": 2695,
      "pár": 2696,
      "##četně": 2697,
      "##cou": 2698,
      "můž": 2699,
      "##mus": 2700,
      "##idla": 2701,
      "##ovány": 2702,
      "##áz": 2703,
      "zap": 2704,
      "Kar": 2705,
      "mlad": 2706,
      "##ár": 2707,
      "##ín": 2708,
      "doby": 2709,
      "##bil": 2710,
      "světa": 2711,
      "Něk": 2712,
      "100": 2713,
      "navíc": 2714,
      "díky": 2715,
      "evrop": 2716,
      "možná": 2717,
      "##ováním": 2718,
      "##šky": 2719,
      "sebou": 2720,
      "slo": 2721,
      "méně": 2722,
      "stru": 2723,
      "amer": 2724,
      "##dil": 2725,
      "obrá": 2726,
      "televi": 2727,
      "během": 2728,
      "##alí": 2729,
      "aktiv": 2730,
      "psy": 2731,
      "##ickou": 2732,
      "##ckého": 2733,
      "Jeho": 2734,
      "všichni": 2735,
      "##myslu": 2736,
      "nejsou": 2737,
      "předpo": 2738,
      "##ěji": 2739,
      "profes": 2740,
      "##stvo": 2741,
      "##él": 2742,
      "vlastně": 2743,
      "muse": 2744,
      "prak": 2745,
      "##esti": 2746,
      "pokrač": 2747,
      "konstru": 2748,
      "##ák": 2749,
      "úda": 2750,
      "##kré": 2751,
      "##pově": 2752,
      "Lu": 2753,
      "uli": 2754,
      "straně": 2755,
      "##stává": 2756,
      "##zovat": 2757,
      "obec": 2758,
      "##go": 2759,
      "##řů": 2760,
      "něme": 2761,
      "smlou": 2762,
      "##zni": 2763,
      "prová": 2764,
      "##méně": 2765,
      "##sek": 2766,
      "##olog": 2767,
      "Byl": 2768,
      "##anou": 2769,
      "ředitel": 2770,
      "##cího": 2771,
      "dlouho": 2772,
      "vstup": 2773,
      "Praha": 2774,
      "##fon": 2775,
      "##dala": 2776,
      "##šek": 2777,
      "ost": 2778,
      "##álního": 2779,
      "Jako": 2780,
      "50": 2781,
      "##níci": 2782,
      "##ktor": 2783,
      "##ější": 2784,
      "zprá": 2785,
      "##žila": 2786,
      "rodi": 2787,
      "Vi": 2788,
      "##vůli": 2789,
      "kap": 2790,
      "typ": 2791,
      "jedna": 2792,
      "##ada": 2793,
      "As": 2794,
      "vznik": 2795,
      "půl": 2796,
      "##vol": 2797,
      "##tak": 2798,
      "##RO": 2799,
      "Pet": 2800,
      "včetně": 2801,
      "sty": 2802,
      "ochra": 2803,
      "strany": 2804,
      "##kva": 2805,
      "množství": 2806,
      "##bili": 2807,
      "##ral": 2808,
      "zkou": 2809,
      "##ine": 2810,
      "věci": 2811,
      "správ": 2812,
      "##nul": 2813,
      "nepří": 2814,
      "celý": 2815,
      "taky": 2816,
      "neboť": 2817,
      "##aví": 2818,
      "##jak": 2819,
      "##kový": 2820,
      "později": 2821,
      "##tera": 2822,
      "##dně": 2823,
      "klu": 2824,
      "##mít": 2825,
      "bod": 2826,
      "les": 2827,
      "příslu": 2828,
      "##kým": 2829,
      "mana": 2830,
      "##dáv": 2831,
      "##káza": 2832,
      "##art": 2833,
      "pohyb": 2834,
      "kapit": 2835,
      "AD": 2836,
      "##rání": 2837,
      "##inci": 2838,
      "Ti": 2839,
      "vedle": 2840,
      "hned": 2841,
      "elektro": 2842,
      "##fin": 2843,
      "gra": 2844,
      "AV": 2845,
      "tre": 2846,
      "sla": 2847,
      "es": 2848,
      "AP": 2849,
      "škol": 2850,
      "stro": 2851,
      "##níky": 2852,
      "poh": 2853,
      "šk": 2854,
      "někdo": 2855,
      "staveb": 2856,
      "zi": 2857,
      "něho": 2858,
      "##čel": 2859,
      "agen": 2860,
      "tradi": 2861,
      "závě": 2862,
      "ček": 2863,
      "zákona": 2864,
      "ší": 2865,
      "##kup": 2866,
      "efek": 2867,
      "rizi": 2868,
      "Nem": 2869,
      "##hor": 2870,
      "takové": 2871,
      "vzá": 2872,
      "##fika": 2873,
      "##bod": 2874,
      "AC": 2875,
      "vzdu": 2876,
      "##nos": 2877,
      "##jů": 2878,
      "##valo": 2879,
      "tzv": 2880,
      "tex": 2881,
      "prezid": 2882,
      "##řila": 2883,
      "požadav": 2884,
      "tá": 2885,
      "zákla": 2886,
      "Už": 2887,
      "##ška": 2888,
      "sr": 2889,
      "hodin": 2890,
      "##stane": 2891,
      "smr": 2892,
      "dat": 2893,
      "občan": 2894,
      "očeká": 2895,
      "dosá": 2896,
      "jazy": 2897,
      "mus": 2898,
      "potrav": 2899,
      "soutě": 2900,
      "konku": 2901,
      "prostor": 2902,
      "##ekt": 2903,
      "nejlep": 2904,
      "##ovaná": 2905,
      "De": 2906,
      "##nd": 2907,
      "nebude": 2908,
      "nikdo": 2909,
      "zdá": 2910,
      "para": 2911,
      "kor": 2912,
      "jinak": 2913,
      "světě": 2914,
      "minister": 2915,
      "kole": 2916,
      "kře": 2917,
      "tuto": 2918,
      "vývo": 2919,
      "strán": 2920,
      "odpoví": 2921,
      "dáv": 2922,
      "##kty": 2923,
      "zlo": 2924,
      "##sal": 2925,
      "##stil": 2926,
      "me": 2927,
      "století": 2928,
      "jedné": 2929,
      "AU": 2930,
      "Au": 2931,
      "sled": 2932,
      "náš": 2933,
      "##osti": 2934,
      "někdy": 2935,
      "##jímav": 2936,
      "potom": 2937,
      "##gli": 2938,
      "teplo": 2939,
      "charak": 2940,
      "jehož": 2941,
      "níž": 2942,
      "zkušeno": 2943,
      "výzku": 2944,
      "##dají": 2945,
      "urč": 2946,
      "komunika": 2947,
      "sub": 2948,
      "##běh": 2949,
      "##ticky": 2950,
      "por": 2951,
      "##mil": 2952,
      "způsobem": 2953,
      "##šli": 2954,
      "##form": 2955,
      "voz": 2956,
      "Tento": 2957,
      "pochop": 2958,
      "##tuje": 2959,
      "##átky": 2960,
      "počet": 2961,
      "##níku": 2962,
      "obsah": 2963,
      "mlé": 2964,
      "jmé": 2965,
      "La": 2966,
      "jsi": 2967,
      "##her": 2968,
      "svém": 2969,
      "jednoho": 2970,
      "hrá": 2971,
      "Cel": 2972,
      "##kali": 2973,
      "nakon": 2974,
      "##ály": 2975,
      "part": 2976,
      "součá": 2977,
      "##idel": 2978,
      "investi": 2979,
      "nepři": 2980,
      "hospodář": 2981,
      "##řa": 2982,
      "úrov": 2983,
      "Dí": 2984,
      "zájem": 2985,
      "##fo": 2986,
      "##žeb": 2987,
      "čist": 2988,
      "km": 2989,
      "##zují": 2990,
      "##ond": 2991,
      "##ško": 2992,
      "rovněž": 2993,
      "##and": 2994,
      "Sta": 2995,
      "##nické": 2996,
      "ha": 2997,
      "srov": 2998,
      "mám": 2999,
      "stanov": 3000,
      "##nami": 3001,
      "nebyl": 3002,
      "náklad": 3003,
      "##ke": 3004,
      "tato": 3005,
      "Další": 3006,
      "kaž": 3007,
      "vliv": 3008,
      "dře": 3009,
      "##vám": 3010,
      "pomocí": 3011,
      "##bit": 3012,
      "pode": 3013,
      "##éri": 3014,
      "ES": 3015,
      "##ouf": 3016,
      "##sit": 3017,
      "vid": 3018,
      "##kládá": 3019,
      "kraj": 3020,
      "níz": 3021,
      "##mem": 3022,
      "##řené": 3023,
      "##desát": 3024,
      "vybav": 3025,
      "rostli": 3026,
      "##ft": 3027,
      "samozřejmě": 3028,
      "Praze": 3029,
      "##telé": 3030,
      "en": 3031,
      "nakonec": 3032,
      "nichž": 3033,
      "opravdu": 3034,
      "můžete": 3035,
      "##res": 3036,
      "šest": 3037,
      "##pou": 3038,
      "##měrně": 3039,
      "##koho": 3040,
      "##hi": 3041,
      "##ruš": 3042,
      "##hodu": 3043,
      "##spí": 3044,
      "##dila": 3045,
      "mluv": 3046,
      "rozdíl": 3047,
      "odh": 3048,
      "informace": 3049,
      "zároveň": 3050,
      "fy": 3051,
      "##podob": 3052,
      "směr": 3053,
      "##řím": 3054,
      "přesvěd": 3055,
      "návště": 3056,
      "##dělení": 3057,
      "pé": 3058,
      "EU": 3059,
      "##cé": 3060,
      "kvůli": 3061,
      "obvy": 3062,
      "198": 3063,
      "##žná": 3064,
      "##livě": 3065,
      "##zemí": 3066,
      "##vit": 3067,
      "##vem": 3068,
      "nepře": 3069,
      "nena": 3070,
      "Du": 3071,
      "zdravot": 3072,
      "rekla": 3073,
      "hlavně": 3074,
      "české": 3075,
      "##telem": 3076,
      "##stitu": 3077,
      "##lze": 3078,
      "##ujeme": 3079,
      "##lání": 3080,
      "##mit": 3081,
      "##ňují": 3082,
      "##vním": 3083,
      "So": 3084,
      "nebylo": 3085,
      "úplně": 3086,
      "post": 3087,
      "tehdy": 3088,
      "znamená": 3089,
      "##zet": 3090,
      "stří": 3091,
      "##rostřed": 3092,
      "soud": 3093,
      "některé": 3094,
      "vyz": 3095,
      "ad": 3096,
      "mm": 3097,
      "lepší": 3098,
      "##kého": 3099,
      "skon": 3100,
      "Lo": 3101,
      "nemu": 3102,
      "spíše": 3103,
      "##ativní": 3104,
      "doku": 3105,
      "záj": 3106,
      "bře": 3107,
      "přá": 3108,
      "##alý": 3109,
      "##cká": 3110,
      "situace": 3111,
      "obra": 3112,
      "Ra": 3113,
      "dov": 3114,
      "čtyř": 3115,
      "špat": 3116,
      "##vím": 3117,
      "##fa": 3118,
      "největší": 3119,
      "ři": 3120,
      "##orie": 3121,
      "##eníze": 3122,
      "##atím": 3123,
      "uči": 3124,
      "vzdělá": 3125,
      "##zích": 3126,
      "##verz": 3127,
      "arch": 3128,
      "##luje": 3129,
      "nást": 3130,
      "stojí": 3131,
      "výstav": 3132,
      "bychom": 3133,
      "Mí": 3134,
      "roze": 3135,
      "##ant": 3136,
      "kri": 3137,
      "##pení": 3138,
      "ag": 3139,
      "týd": 3140,
      "nový": 3141,
      "zásad": 3142,
      "prodej": 3143,
      "##odi": 3144,
      "##grafi": 3145,
      "kup": 3146,
      "ruce": 3147,
      "sva": 3148,
      "pros": 3149,
      "Di": 3150,
      "různých": 3151,
      "některých": 3152,
      "vody": 3153,
      "květ": 3154,
      "cit": 3155,
      "mon": 3156,
      "základní": 3157,
      "klí": 3158,
      "##tit": 3159,
      "býval": 3160,
      "Pe": 3161,
      "##kázal": 3162,
      "konkré": 3163,
      "Ku": 3164,
      "##kala": 3165,
      "##nce": 3166,
      "akci": 3167,
      "##lel": 3168,
      "budouc": 3169,
      "nemůže": 3170,
      "mne": 3171,
      "uvá": 3172,
      "##klád": 3173,
      "##dra": 3174,
      "ště": 3175,
      "trh": 3176,
      "oz": 3177,
      "naopak": 3178,
      "vzni": 3179,
      "ať": 3180,
      "Prá": 3181,
      "přin": 3182,
      "zby": 3183,
      "mně": 3184,
      "##telů": 3185,
      "papí": 3186,
      "manžel": 3187,
      "Tu": 3188,
      "tém": 3189,
      "ser": 3190,
      "nových": 3191,
      "místě": 3192,
      "pohled": 3193,
      "Bylo": 3194,
      "Amer": 3195,
      "##řské": 3196,
      "##eti": 3197,
      "naší": 3198,
      "##lal": 3199,
      "Aš": 3200,
      "##mentu": 3201,
      "Dob": 3202,
      "navr": 3203,
      "##xu": 3204,
      "##ton": 3205,
      "náz": 3206,
      "toto": 3207,
      "##cemi": 3208,
      "##sté": 3209,
      "tem": 3210,
      "dět": 3211,
      "ple": 3212,
      "pru": 3213,
      "zbo": 3214,
      "indi": 3215,
      "##ovými": 3216,
      "komi": 3217,
      "##děpodob": 3218,
      "spoluprá": 3219,
      "Sy": 3220,
      "účast": 3221,
      "Ex": 3222,
      "málo": 3223,
      "celou": 3224,
      "motor": 3225,
      "myšlen": 3226,
      "prou": 3227,
      "obou": 3228,
      "##padu": 3229,
      "##leko": 3230,
      "fung": 3231,
      "sly": 3232,
      "##vních": 3233,
      "mohla": 3234,
      "##krá": 3235,
      "zemí": 3236,
      "ceny": 3237,
      "##žá": 3238,
      "##stické": 3239,
      "trá": 3240,
      "Dě": 3241,
      "##AN": 3242,
      "právní": 3243,
      "leh": 3244,
      "dosud": 3245,
      "##ruba": 3246,
      "##bal": 3247,
      "provoz": 3248,
      "vzd": 3249,
      "města": 3250,
      "##sť": 3251,
      "vzpo": 3252,
      "##var": 3253,
      "agentu": 3254,
      "##nách": 3255,
      "rozší": 3256,
      "##tivně": 3257,
      "čím": 3258,
      "##zer": 3259,
      "zastav": 3260,
      "##uji": 3261,
      "úřad": 3262,
      "nevě": 3263,
      "měst": 3264,
      "základě": 3265,
      "vyh": 3266,
      "dota": 3267,
      "začal": 3268,
      "večer": 3269,
      "##gy": 3270,
      "ide": 3271,
      "pri": 3272,
      "jmen": 3273,
      "##šně": 3274,
      "firem": 3275,
      "##anis": 3276,
      "##slav": 3277,
      "##stala": 3278,
      "##kcí": 3279,
      "##rek": 3280,
      "peníze": 3281,
      "pracov": 3282,
      "##celá": 3283,
      "Ha": 3284,
      "##cy": 3285,
      "mělo": 3286,
      "##pen": 3287,
      "zav": 3288,
      "jiných": 3289,
      "VŠ": 3290,
      "##ývá": 3291,
      "vnitř": 3292,
      "##pt": 3293,
      "uspo": 3294,
      "jednání": 3295,
      "Kr": 3296,
      "##šné": 3297,
      "zmí": 3298,
      "poj": 3299,
      "##chyb": 3300,
      "můžeme": 3301,
      "ori": 3302,
      "model": 3303,
      "rez": 3304,
      "ČS": 3305,
      "přev": 3306,
      "##nějších": 3307,
      "Ju": 3308,
      "VI": 3309,
      "##valy": 3310,
      "program": 3311,
      "Ber": 3312,
      "Kro": 3313,
      "skutečně": 3314,
      "mohli": 3315,
      "jednotlivých": 3316,
      "##ón": 3317,
      "##slím": 3318,
      "##ER": 3319,
      "přesto": 3320,
      "důsled": 3321,
      "##hodno": 3322,
      "měly": 3323,
      "uzav": 3324,
      "Min": 3325,
      "deset": 3326,
      "včera": 3327,
      "struktu": 3328,
      "vra": 3329,
      "poho": 3330,
      "##lej": 3331,
      "zřejmě": 3332,
      "Vo": 3333,
      "nabízí": 3334,
      "zástup": 3335,
      "meziná": 3336,
      "společen": 3337,
      "##pře": 3338,
      "mnohem": 3339,
      "##hne": 3340,
      "##gist": 3341,
      "##kovou": 3342,
      "stup": 3343,
      "doporu": 3344,
      "##ic": 3345,
      "##čím": 3346,
      "##šak": 3347,
      "zemědělství": 3348,
      "povo": 3349,
      "nu": 3350,
      "ztrá": 3351,
      "##sat": 3352,
      "##CH": 3353,
      "##ceti": 3354,
      "objem": 3355,
      "##ickým": 3356,
      "zvo": 3357,
      "##tických": 3358,
      "40": 3359,
      "žádné": 3360,
      "peně": 3361,
      "##ony": 3362,
      "##ečně": 3363,
      "poda": 3364,
      "##rk": 3365,
      "většinou": 3366,
      "ostatní": 3367,
      "vytvá": 3368,
      "##ely": 3369,
      "jednu": 3370,
      "poko": 3371,
      "##ord": 3372,
      "potvr": 3373,
      "##ováno": 3374,
      "vývoj": 3375,
      "výbě": 3376,
      "##edl": 3377,
      "resp": 3378,
      "ves": 3379,
      "##šil": 3380,
      "uvědo": 3381,
      "##rych": 3382,
      "##én": 3383,
      "##diska": 3384,
      "stand": 3385,
      "věc": 3386,
      "ovliv": 3387,
      "dopl": 3388,
      "podnika": 3389,
      "nastav": 3390,
      "##NÍ": 3391,
      "##lého": 3392,
      "ká": 3393,
      "neod": 3394,
      "sam": 3395,
      "kři": 3396,
      "##zra": 3397,
      "##dali": 3398,
      "současné": 3399,
      "##zně": 3400,
      "##stů": 3401,
      "opak": 3402,
      "hlad": 3403,
      "internet": 3404,
      "komb": 3405,
      "pově": 3406,
      "##ino": 3407,
      "zemi": 3408,
      "##ice": 3409,
      "##káže": 3410,
      "závis": 3411,
      "pora": 3412,
      "Sloven": 3413,
      "kterým": 3414,
      "##dru": 3415,
      "získá": 3416,
      "praž": 3417,
      "přesně": 3418,
      "pěti": 3419,
      "##adu": 3420,
      "průbě": 3421,
      "her": 3422,
      "##čkou": 3423,
      "pravidel": 3424,
      "času": 3425,
      "zne": 3426,
      "širo": 3427,
      "vedou": 3428,
      "člověka": 3429,
      "Pan": 3430,
      "autor": 3431,
      "kg": 3432,
      "##hal": 3433,
      "##ok": 3434,
      "alespoň": 3435,
      "##jíma": 3436,
      "##soby": 3437,
      "nezá": 3438,
      "milionů": 3439,
      "tan": 3440,
      "služeb": 3441,
      "##šku": 3442,
      "21": 3443,
      "pev": 3444,
      "napro": 3445,
      "procen": 3446,
      "pol": 3447,
      "nutné": 3448,
      "##ůl": 3449,
      "probí": 3450,
      "hodně": 3451,
      "překva": 3452,
      "skupiny": 3453,
      "musel": 3454,
      "22": 3455,
      "posla": 3456,
      "far": 3457,
      "##couz": 3458,
      "##skými": 3459,
      "##žené": 3460,
      "##měst": 3461,
      "##jícím": 3462,
      "##atu": 3463,
      "##měru": 3464,
      "zajímav": 3465,
      "máme": 3466,
      "finanční": 3467,
      "##kladu": 3468,
      "mou": 3469,
      "nebez": 3470,
      "věn": 3471,
      "prohlá": 3472,
      "všem": 3473,
      "jiného": 3474,
      "služby": 3475,
      "léč": 3476,
      "zr": 3477,
      "##inách": 3478,
      "reži": 3479,
      "národ": 3480,
      "hmot": 3481,
      "##ju": 3482,
      "zu": 3483,
      "##lostí": 3484,
      "úko": 3485,
      "##níka": 3486,
      "24": 3487,
      "##war": 3488,
      "##blí": 3489,
      "předsed": 3490,
      "Bě": 3491,
      "kromě": 3492,
      "Že": 3493,
      "##mr": 3494,
      "##vost": 3495,
      "naz": 3496,
      "příprav": 3497,
      "##mýš": 3498,
      "boj": 3499,
      "##LA": 3500,
      "znám": 3501,
      "východ": 3502,
      "situaci": 3503,
      "stavu": 3504,
      "demo": 3505,
      "pocit": 3506,
      "vyvo": 3507,
      "##těz": 3508,
      "##lie": 3509,
      "##kry": 3510,
      "##kres": 3511,
      "osm": 3512,
      "Sém": 3513,
      "mech": 3514,
      "mnoha": 3515,
      "##čej": 3516,
      "státní": 3517,
      "firma": 3518,
      "domů": 3519,
      "##chů": 3520,
      "regi": 3521,
      "slova": 3522,
      "spou": 3523,
      "kateg": 3524,
      "##rali": 3525,
      "##vili": 3526,
      "dobré": 3527,
      "odpo": 3528,
      "##štní": 3529,
      "USA": 3530,
      "##ia": 3531,
      "##kového": 3532,
      "Tato": 3533,
      "zhruba": 3534,
      "##ině": 3535,
      "##cům": 3536,
      "Není": 3537,
      "závod": 3538,
      "běž": 3539,
      "##váme": 3540,
      "srd": 3541,
      "platí": 3542,
      "okamži": 3543,
      "##graf": 3544,
      "prostě": 3545,
      "##terá": 3546,
      "##kají": 3547,
      "Zatím": 3548,
      "lu": 3549,
      "##dla": 3550,
      "konci": 3551,
      "##řít": 3552,
      "dělat": 3553,
      "roky": 3554,
      "##ore": 3555,
      "nejlepší": 3556,
      "udě": 3557,
      "následu": 3558,
      "řád": 3559,
      "##čce": 3560,
      "jich": 3561,
      "##žili": 3562,
      "problémy": 3563,
      "nějaké": 3564,
      "##nie": 3565,
      "##kova": 3566,
      "##eného": 3567,
      "samot": 3568,
      "plán": 3569,
      "##pozici": 3570,
      "chtěl": 3571,
      "blíz": 3572,
      "pozi": 3573,
      "zra": 3574,
      "##chem": 3575,
      "obli": 3576,
      "vždycky": 3577,
      "##spek": 3578,
      "rozhodnutí": 3579,
      "fa": 3580,
      "projekt": 3581,
      "hru": 3582,
      "zatímco": 3583,
      "fran": 3584,
      "##50": 3585,
      "##pozor": 3586,
      "red": 3587,
      "##prvé": 3588,
      "##vých": 3589,
      "mlu": 3590,
      "aktu": 3591,
      "Proč": 3592,
      "posu": 3593,
      "##xim": 3594,
      "##kově": 3595,
      "třetí": 3596,
      "energie": 3597,
      "##boru": 3598,
      "uděla": 3599,
      "školy": 3600,
      "partner": 3601,
      "00": 3602,
      "##itě": 3603,
      "bole": 3604,
      "posledních": 3605,
      "První": 3606,
      "##nictvím": 3607,
      "##IN": 3608,
      "hlas": 3609,
      "##slo": 3610,
      "Me": 3611,
      "##vyšší": 3612,
      "vzdál": 3613,
      "zvu": 3614,
      "výji": 3615,
      "Va": 3616,
      "malé": 3617,
      "sedm": 3618,
      "im": 3619,
      "Pav": 3620,
      "proces": 3621,
      "řekla": 3622,
      "##raci": 3623,
      "rukou": 3624,
      "kru": 3625,
      "##ovaného": 3626,
      "Hla": 3627,
      "ústav": 3628,
      "##oc": 3629,
      "rád": 3630,
      "Společ": 3631,
      "##fé": 3632,
      "dlouhod": 3633,
      "poru": 3634,
      "Zem": 3635,
      "kří": 3636,
      "cenu": 3637,
      "velice": 3638,
      "doda": 3639,
      "nového": 3640,
      "cena": 3641,
      "##nějším": 3642,
      "##niž": 3643,
      "##éf": 3644,
      "pís": 3645,
      "tolik": 3646,
      "##rovna": 3647,
      "##znamen": 3648,
      "sama": 3649,
      "vari": 3650,
      "kle": 3651,
      "republiky": 3652,
      "čem": 3653,
      "předmě": 3654,
      "ona": 3655,
      "těm": 3656,
      "vidět": 3657,
      "##kosti": 3658,
      "##lené": 3659,
      "kab": 3660,
      "cy": 3661,
      "slož": 3662,
      "##zdy": 3663,
      "minut": 3664,
      "##plo": 3665,
      "vědo": 3666,
      "##ler": 3667,
      "vlád": 3668,
      "ane": 3669,
      "zlep": 3670,
      "ut": 3671,
      "typu": 3672,
      "##aného": 3673,
      "pozem": 3674,
      "jejím": 3675,
      "velký": 3676,
      "Dá": 3677,
      "##těl": 3678,
      "fon": 3679,
      "##tky": 3680,
      "zad": 3681,
      "kW": 3682,
      "podpo": 3683,
      "##hlas": 3684,
      "pravděpodob": 3685,
      "Byla": 3686,
      "kancelá": 3687,
      "##čeno": 3688,
      "odst": 3689,
      "opera": 3690,
      "úz": 3691,
      "##ja": 3692,
      "němu": 3693,
      "našich": 3694,
      "uplat": 3695,
      "šť": 3696,
      "##lně": 3697,
      "##opis": 3698,
      "oba": 3699,
      "daleko": 3700,
      "příjem": 3701,
      "ano": 3702,
      "Mezi": 3703,
      "opti": 3704,
      "technologi": 3705,
      "defin": 3706,
      "Ze": 3707,
      "##jednou": 3708,
      "místa": 3709,
      "##nech": 3710,
      "vede": 3711,
      "menší": 3712,
      "zahá": 3713,
      "jejichž": 3714,
      "##vka": 3715,
      "podpor": 3716,
      "##end": 3717,
      "popu": 3718,
      "zvíř": 3719,
      "##OS": 3720,
      "jakou": 3721,
      "západ": 3722,
      "##ův": 3723,
      "##enti": 3724,
      "Jestli": 3725,
      "komple": 3726,
      "##ckou": 3727,
      "zmi": 3728,
      "194": 3729,
      "zvyš": 3730,
      "##řili": 3731,
      "##smu": 3732,
      "stani": 3733,
      "##DS": 3734,
      "jistě": 3735,
      "Nez": 3736,
      "smí": 3737,
      "Bar": 3738,
      "Kromě": 3739,
      "letos": 3740,
      "##pal": 3741,
      "##čný": 3742,
      "ozna": 3743,
      "kre": 3744,
      "tri": 3745,
      "hlediska": 3746,
      "Sb": 3747,
      "##hlo": 3748,
      "ramen": 3749,
      "pokle": 3750,
      "němž": 3751,
      "univerz": 3752,
      "svá": 3753,
      "Jin": 3754,
      "prý": 3755,
      "Jsou": 3756,
      "##ik": 3757,
      "##vila": 3758,
      "Čer": 3759,
      "stál": 3760,
      "kterých": 3761,
      "novin": 3762,
      "stí": 3763,
      "Seb": 3764,
      "příležit": 3765,
      "přiz": 3766,
      "##onální": 3767,
      "##více": 3768,
      "nelze": 3769,
      "dy": 3770,
      "dal": 3771,
      "nějaký": 3772,
      "##pas": 3773,
      "ženy": 3774,
      "##kém": 3775,
      "vyšet": 3776,
      "##aty": 3777,
      "anti": 3778,
      "##skem": 3779,
      "výrazně": 3780,
      "obyvatel": 3781,
      "tvoří": 3782,
      "##zací": 3783,
      "průměr": 3784,
      "##však": 3785,
      "sociální": 3786,
      "vlády": 3787,
      "programu": 3788,
      "##sme": 3789,
      "sami": 3790,
      "Dru": 3791,
      "udá": 3792,
      "nebyla": 3793,
      "##kost": 3794,
      "působí": 3795,
      "##žený": 3796,
      "##tický": 3797,
      "He": 3798,
      "Dů": 3799,
      "##říz": 3800,
      "založ": 3801,
      "##vaná": 3802,
      "pamě": 3803,
      "##vější": 3804,
      "pad": 3805,
      "kry": 3806,
      "došlo": 3807,
      "posti": 3808,
      "vůči": 3809,
      "##nek": 3810,
      "##og": 3811,
      "VA": 3812,
      "činnosti": 3813,
      "##sloven": 3814,
      "##hrnu": 3815,
      "jaký": 3816,
      "##telně": 3817,
      "lidi": 3818,
      "ned": 3819,
      "##lila": 3820,
      "chu": 3821,
      "##jel": 3822,
      "energe": 3823,
      "sně": 3824,
      "be": 3825,
      "dopis": 3826,
      "##cku": 3827,
      "##teří": 3828,
      "reak": 3829,
      "##rech": 3830,
      "60": 3831,
      "Nik": 3832,
      "##rozu": 3833,
      "telefon": 3834,
      "kilo": 3835,
      "oce": 3836,
      "##hody": 3837,
      "medi": 3838,
      "dětí": 3839,
      "hlou": 3840,
      "##nilo": 3841,
      "Přesto": 3842,
      "##tili": 3843,
      "Tě": 3844,
      "domu": 3845,
      "území": 3846,
      "publi": 3847,
      "##jíž": 3848,
      "##jedno": 3849,
      "##moc": 3850,
      "##teř": 3851,
      "možnosti": 3852,
      "státu": 3853,
      "##zdu": 3854,
      "dříve": 3855,
      "pomoc": 3856,
      "informací": 3857,
      "##hro": 3858,
      "##prava": 3859,
      "dola": 3860,
      "##padá": 3861,
      "##pak": 3862,
      "Ar": 3863,
      "Ří": 3864,
      "sá": 3865,
      "##hn": 3866,
      "##šením": 3867,
      "deseti": 3868,
      "automobil": 3869,
      "##dce": 3870,
      "vyjád": 3871,
      "##bývá": 3872,
      "Jose": 3873,
      "Nap": 3874,
      "##káž": 3875,
      "##enty": 3876,
      "Ani": 3877,
      "konkur": 3878,
      "náklady": 3879,
      "##telný": 3880,
      "##stoj": 3881,
      "tur": 3882,
      "##ovky": 3883,
      "Jiří": 3884,
      "tisk": 3885,
      "##ají": 3886,
      "úto": 3887,
      "demokra": 3888,
      "##orii": 3889,
      "##álů": 3890,
      "podporu": 3891,
      "žádný": 3892,
      "pas": 3893,
      "podmínky": 3894,
      "##OR": 3895,
      "vyrá": 3896,
      "dělá": 3897,
      "neob": 3898,
      "drob": 3899,
      "23": 3900,
      "lin": 3901,
      "##žela": 3902,
      "člán": 3903,
      "mrt": 3904,
      "nesp": 3905,
      "takový": 3906,
      "doz": 3907,
      "jiný": 3908,
      "paní": 3909,
      "##ovanou": 3910,
      "Tře": 3911,
      "bohat": 3912,
      "zpět": 3913,
      "mla": 3914,
      "republice": 3915,
      "##ese": 3916,
      "##elu": 3917,
      "ge": 3918,
      "skoro": 3919,
      "##mně": 3920,
      "196": 3921,
      "prvním": 3922,
      "spole": 3923,
      "lety": 3924,
      "přítom": 3925,
      "Česko": 3926,
      "abso": 3927,
      "##cko": 3928,
      "##itá": 3929,
      "noci": 3930,
      "jedná": 3931,
      "Pou": 3932,
      "Ještě": 3933,
      "Cí": 3934,
      "sním": 3935,
      "funkce": 3936,
      "trest": 3937,
      "##kazuje": 3938,
      "roční": 3939,
      "titu": 3940,
      "hlavu": 3941,
      "byd": 3942,
      "změny": 3943,
      "žena": 3944,
      "příj": 3945,
      "akce": 3946,
      "nižší": 3947,
      "##ude": 3948,
      "stal": 3949,
      "cm": 3950,
      "sli": 3951,
      "disku": 3952,
      "řadu": 3953,
      "stop": 3954,
      "tvor": 3955,
      "projektu": 3956,
      "Vět": 3957,
      "##lec": 3958,
      "Ri": 3959,
      "Bez": 3960,
      "##AT": 3961,
      "##stava": 3962,
      "fot": 3963,
      "##něné": 3964,
      "obchodní": 3965,
      "zep": 3966,
      "nechá": 3967,
      "##žer": 3968,
      "##rum": 3969,
      "vešk": 3970,
      "obrov": 3971,
      "##čili": 3972,
      "loň": 3973,
      "sec": 3974,
      "film": 3975,
      "##náct": 3976,
      "##etě": 3977,
      "krás": 3978,
      "nesmí": 3979,
      "scé": 3980,
      "am": 3981,
      "archi": 3982,
      "institu": 3983,
      "uživatel": 3984,
      "##mální": 3985,
      "každé": 3986,
      "##ary": 3987,
      "##fici": 3988,
      "opatření": 3989,
      "Kdo": 3990,
      "80": 3991,
      "##AR": 3992,
      "hr": 3993,
      "sví": 3994,
      "dveře": 3995,
      "můj": 3996,
      "součástí": 3997,
      "data": 3998,
      "Rad": 3999,
      "dvěma": 4000,
      "dlu": 4001,
      "##odu": 4002,
      "##akou": 4003,
      "##žitě": 4004,
      "hud": 4005,
      "blo": 4006,
      "kamen": 4007,
      "hlavou": 4008,
      "disk": 4009,
      "##mali": 4010,
      "Ing": 4011,
      "Ned": 4012,
      "minim": 4013,
      "SEK": 4014,
      "sport": 4015,
      "úst": 4016,
      "majet": 4017,
      "##ardy": 4018,
      "SEA": 4019,
      "sym": 4020,
      "Jde": 4021,
      "klas": 4022,
      "##chodu": 4023,
      "##tace": 4024,
      "syn": 4025,
      "maxim": 4026,
      "doma": 4027,
      "maji": 4028,
      "rodin": 4029,
      "Čí": 4030,
      "Be": 4031,
      "názor": 4032,
      "výsledky": 4033,
      "Teď": 4034,
      "Nic": 4035,
      "##keting": 4036,
      "dopad": 4037,
      "řidi": 4038,
      "zob": 4039,
      "hlubo": 4040,
      "##rie": 4041,
      "##čích": 4042,
      "ruku": 4043,
      "OS": 4044,
      "tun": 4045,
      "##čít": 4046,
      "zprav": 4047,
      "SEŠ": 4048,
      "##enu": 4049,
      "SEČ": 4050,
      "##pce": 4051,
      "VP": 4052,
      "leg": 4053,
      "##íme": 4054,
      "##any": 4055,
      "Bra": 4056,
      "různé": 4057,
      "střední": 4058,
      "##prez": 4059,
      "##cházejí": 4060,
      "II": 4061,
      "##eri": 4062,
      "##vého": 4063,
      "##působ": 4064,
      "řada": 4065,
      "##žet": 4066,
      "##LE": 4067,
      "moci": 4068,
      "dostal": 4069,
      "princi": 4070,
      "or": 4071,
      "##ex": 4072,
      "vzor": 4073,
      "sig": 4074,
      "využití": 4075,
      "zboží": 4076,
      "##vatele": 4077,
      "##jícího": 4078,
      "inf": 4079,
      "pre": 4080,
      "vypl": 4081,
      "snaží": 4082,
      "Ry": 4083,
      "vyv": 4084,
      "Evropě": 4085,
      "Vla": 4086,
      "určitě": 4087,
      "postupně": 4088,
      "Nebo": 4089,
      "jednoduch": 4090,
      "zvy": 4091,
      "hro": 4092,
      "tj": 4093,
      "poně": 4094,
      "##poj": 4095,
      "VS": 4096,
      "Vác": 4097,
      "ztra": 4098,
      "lit": 4099,
      "##pů": 4100,
      "Kdyby": 4101,
      "Každ": 4102,
      "obvykle": 4103,
      "Stá": 4104,
      "nač": 4105,
      "prázd": 4106,
      "výše": 4107,
      "fi": 4108,
      "vyhlá": 4109,
      "##tala": 4110,
      "příští": 4111,
      "rela": 4112,
      "českých": 4113,
      "brá": 4114,
      "##mení": 4115,
      "slav": 4116,
      "roli": 4117,
      "udrž": 4118,
      "##hodou": 4119,
      "kost": 4120,
      "trans": 4121,
      "##lky": 4122,
      "dispozici": 4123,
      "zpo": 4124,
      "přiroz": 4125,
      "VB": 4126,
      "chrá": 4127,
      "##volu": 4128,
      "##amat": 4129,
      "čtvrt": 4130,
      "lépe": 4131,
      "py": 4132,
      "Sch": 4133,
      "hou": 4134,
      "dop": 4135,
      "psycho": 4136,
      "výroby": 4137,
      "podá": 4138,
      "Ca": 4139,
      "##nili": 4140,
      "##dili": 4141,
      "bezpečnost": 4142,
      "nato": 4143,
      "##leně": 4144,
      "přísluš": 4145,
      "prostřednictvím": 4146,
      "##ff": 4147,
      "formu": 4148,
      "hroz": 4149,
      "Par": 4150,
      "##šené": 4151,
      "Tr": 4152,
      "poté": 4153,
      "myslí": 4154,
      "dvo": 4155,
      "stou": 4156,
      "dospě": 4157,
      "tva": 4158,
      "září": 4159,
      "uvedl": 4160,
      "vyžad": 4161,
      "Si": 4162,
      "někde": 4163,
      "##sen": 4164,
      "poměrně": 4165,
      "vedení": 4166,
      "##nej": 4167,
      "kterém": 4168,
      "čast": 4169,
      "komuni": 4170,
      "týden": 4171,
      "##etu": 4172,
      "##eru": 4173,
      "##rny": 4174,
      "Naď": 4175,
      "dce": 4176,
      "##livé": 4177,
      "kontak": 4178,
      "mot": 4179,
      "uží": 4180,
      "##str": 4181,
      "pole": 4182,
      "##dří": 4183,
      "##stoupil": 4184,
      "##kční": 4185,
      "vzájem": 4186,
      "moder": 4187,
      "vybra": 4188,
      "as": 4189,
      "vztah": 4190,
      "našeho": 4191,
      "##čko": 4192,
      "##out": 4193,
      "invest": 4194,
      "##kovat": 4195,
      "kal": 4196,
      "teprve": 4197,
      "##líb": 4198,
      "průběhu": 4199,
      "##vidu": 4200,
      "staro": 4201,
      "znamen": 4202,
      "##čuje": 4203,
      "speciali": 4204,
      "##jezd": 4205,
      "##IT": 4206,
      "hovo": 4207,
      "mist": 4208,
      "cestu": 4209,
      "Také": 4210,
      "##OU": 4211,
      "vysoké": 4212,
      "kterého": 4213,
      "##saz": 4214,
      "sklad": 4215,
      "##zením": 4216,
      "##dlo": 4217,
      "buď": 4218,
      "sklo": 4219,
      "poprvé": 4220,
      "vaše": 4221,
      "upozor": 4222,
      "fá": 4223,
      "Mat": 4224,
      "umožňuje": 4225,
      "adr": 4226,
      "nemusí": 4227,
      "197": 4228,
      "2010": 4229,
      "kur": 4230,
      "##stří": 4231,
      "standard": 4232,
      "pó": 4233,
      "mobil": 4234,
      "##entu": 4235,
      "špi": 4236,
      "francouz": 4237,
      "druhý": 4238,
      "##tická": 4239,
      "Ev": 4240,
      "zdů": 4241,
      "převod": 4242,
      "##ince": 4243,
      "prod": 4244,
      "Tím": 4245,
      "odliš": 4246,
      "##nemoc": 4247,
      "opu": 4248,
      "##alá": 4249,
      "letoš": 4250,
      "vním": 4251,
      "otevř": 4252,
      "odpad": 4253,
      "Asi": 4254,
      "neměl": 4255,
      "Su": 4256,
      "samostat": 4257,
      "dvoj": 4258,
      "půdy": 4259,
      "inten": 4260,
      "přípa": 4261,
      "řady": 4262,
      "hled": 4263,
      "práva": 4264,
      "##ance": 4265,
      "činnost": 4266,
      "##ger": 4267,
      "organizace": 4268,
      "regu": 4269,
      "Pol": 4270,
      "om": 4271,
      "##anu": 4272,
      "dokumen": 4273,
      "##řela": 4274,
      "##io": 4275,
      "skutečnosti": 4276,
      "parla": 4277,
      "##vku": 4278,
      "##ON": 4279,
      "prostoru": 4280,
      "mohlo": 4281,
      "jenž": 4282,
      "Stej": 4283,
      "smyslu": 4284,
      "budu": 4285,
      "##eným": 4286,
      "provozu": 4287,
      "##sav": 4288,
      "##ňovat": 4289,
      "##ribu": 4290,
      "novou": 4291,
      "oc": 4292,
      "Všech": 4293,
      "##laci": 4294,
      "Ano": 4295,
      "začala": 4296,
      "obtí": 4297,
      "##tiva": 4298,
      "jméno": 4299,
      "kapa": 4300,
      "##dé": 4301,
      "uprav": 4302,
      "představuje": 4303,
      "úrovni": 4304,
      "nim": 4305,
      "histor": 4306,
      "##dem": 4307,
      "celkem": 4308,
      "nema": 4309,
      "růst": 4310,
      "##sch": 4311,
      "označ": 4312,
      "mlá": 4313,
      "mnou": 4314,
      "použití": 4315,
      "klá": 4316,
      "kol": 4317,
      "kolo": 4318,
      "fakt": 4319,
      "právo": 4320,
      "##anta": 4321,
      "spis": 4322,
      "##ostí": 4323,
      "##metrů": 4324,
      "umístě": 4325,
      "čet": 4326,
      "##jně": 4327,
      "smrti": 4328,
      "přibli": 4329,
      "věcí": 4330,
      "důležité": 4331,
      "chování": 4332,
      "##bud": 4333,
      "Lid": 4334,
      "##fu": 4335,
      "subje": 4336,
      "med": 4337,
      "umění": 4338,
      "Vždy": 4339,
      "žid": 4340,
      "konečně": 4341,
      "oto": 4342,
      "nád": 4343,
      "##tického": 4344,
      "většina": 4345,
      "Nad": 4346,
      "Aby": 4347,
      "druhou": 4348,
      "šéf": 4349,
      "##šťov": 4350,
      "pomoci": 4351,
      "##tva": 4352,
      "Tyto": 4353,
      "pali": 4354,
      "ope": 4355,
      "charakteri": 4356,
      "##sní": 4357,
      "stran": 4358,
      "okol": 4359,
      "ovlá": 4360,
      "sever": 4361,
      "důvě": 4362,
      "hodnoty": 4363,
      "konfer": 4364,
      "kolik": 4365,
      "budeme": 4366,
      "předpis": 4367,
      "zú": 4368,
      "##pila": 4369,
      "##vin": 4370,
      "##razil": 4371,
      "##pří": 4372,
      "přišel": 4373,
      "úprav": 4374,
      "##adí": 4375,
      "Možná": 4376,
      "PO": 4377,
      "omez": 4378,
      "lékař": 4379,
      "promě": 4380,
      "##jetí": 4381,
      "##vek": 4382,
      "##ld": 4383,
      "##zek": 4384,
      "časopis": 4385,
      "nová": 4386,
      "práv": 4387,
      "##tern": 4388,
      "předcho": 4389,
      "celo": 4390,
      "jeh": 4391,
      "hvě": 4392,
      "rozvoj": 4393,
      "sniž": 4394,
      "záko": 4395,
      "pomá": 4396,
      "podla": 4397,
      "Protože": 4398,
      "stat": 4399,
      "zemích": 4400,
      "##uro": 4401,
      "sti": 4402,
      "SI": 4403,
      "viděl": 4404,
      "velkou": 4405,
      "onemoc": 4406,
      "udělat": 4407,
      "nepro": 4408,
      "stalo": 4409,
      "podrob": 4410,
      "hodiny": 4411,
      "##lku": 4412,
      "směrem": 4413,
      "drá": 4414,
      "nově": 4415,
      "##něn": 4416,
      "společností": 4417,
      "věku": 4418,
      "##teré": 4419,
      "případně": 4420,
      "složit": 4421,
      "krit": 4422,
      "svobod": 4423,
      "stejné": 4424,
      "##jímá": 4425,
      "analý": 4426,
      "souvislosti": 4427,
      "byste": 4428,
      "##čilo": 4429,
      "del": 4430,
      "šesti": 4431,
      "jít": 4432,
      "##nut": 4433,
      "kriti": 4434,
      "##cu": 4435,
      "##hání": 4436,
      "vešker": 4437,
      "##razi": 4438,
      "dél": 4439,
      "##aru": 4440,
      "přiná": 4441,
      "Go": 4442,
      "naho": 4443,
      "##ovit": 4444,
      "podíl": 4445,
      "##lka": 4446,
      "vide": 4447,
      "anebo": 4448,
      "jedním": 4449,
      "test": 4450,
      "##komu": 4451,
      "##gii": 4452,
      "##tla": 4453,
      "počtu": 4454,
      "SR": 4455,
      "##ona": 4456,
      "funkci": 4457,
      "##ivní": 4458,
      "pohledu": 4459,
      "##mile": 4460,
      "##enost": 4461,
      "pěst": 4462,
      "angli": 4463,
      "mor": 4464,
      "použit": 4465,
      "##ilí": 4466,
      "prezident": 4467,
      "vyprá": 4468,
      "zdě": 4469,
      "##CE": 4470,
      "popis": 4471,
      "##alé": 4472,
      "říct": 4473,
      "vojen": 4474,
      "##itivní": 4475,
      "##čemž": 4476,
      "Jejich": 4477,
      "ohro": 4478,
      "##ujících": 4479,
      "vítěz": 4480,
      "technologie": 4481,
      "chá": 4482,
      "rostlin": 4483,
      "Petr": 4484,
      "2011": 4485,
      "##nské": 4486,
      "fotografi": 4487,
      "##ros": 4488,
      "##sila": 4489,
      "polož": 4490,
      "barev": 4491,
      "##vnitř": 4492,
      "okra": 4493,
      "ozná": 4494,
      "provede": 4495,
      "sen": 4496,
      "Jsem": 4497,
      "ků": 4498,
      "##kři": 4499,
      "Prav": 4500,
      "Česká": 4501,
      "svými": 4502,
      "marketing": 4503,
      "##rací": 4504,
      "Ge": 4505,
      "##šila": 4506,
      "dub": 4507,
      "nevi": 4508,
      "produkce": 4509,
      "životní": 4510,
      "Jedno": 4511,
      "apod": 4512,
      "##qu": 4513,
      "##cii": 4514,
      "Její": 4515,
      "##klada": 4516,
      "Da": 4517,
      "##stavě": 4518,
      "nábo": 4519,
      "divad": 4520,
      "##ňování": 4521,
      "##xe": 4522,
      "Dnes": 4523,
      "rozpoč": 4524,
      "záležit": 4525,
      "##mír": 4526,
      "rozvo": 4527,
      "##cka": 4528,
      "vé": 4529,
      "spolupráci": 4530,
      "Win": 4531,
      "##vak": 4532,
      "okolí": 4533,
      "##tali": 4534,
      "životě": 4535,
      "objev": 4536,
      "prom": 4537,
      "výkonu": 4538,
      "Až": 4539,
      "sloven": 4540,
      "začátku": 4541,
      "rozhov": 4542,
      "##dná": 4543,
      "Nak": 4544,
      "##20": 4545,
      "obsahu": 4546,
      "Minist": 4547,
      "nau": 4548,
      "potřebu": 4549,
      "tlu": 4550,
      "Mno": 4551,
      "příst": 4552,
      "##smě": 4553,
      "##ledne": 4554,
      "odmít": 4555,
      "Ameri": 4556,
      "rádi": 4557,
      "zahraničí": 4558,
      "Díky": 4559,
      "##dro": 4560,
      "podařilo": 4561,
      "26": 4562,
      "získat": 4563,
      "##lových": 4564,
      "děla": 4565,
      "ocho": 4566,
      "##ickém": 4567,
      "ga": 4568,
      "##chi": 4569,
      "stroje": 4570,
      "návrh": 4571,
      "##ací": 4572,
      "abychom": 4573,
      "##pravě": 4574,
      "##gem": 4575,
      "##hav": 4576,
      "hlá": 4577,
      "psa": 4578,
      "napo": 4579,
      "Evropy": 4580,
      "sob": 4581,
      "daň": 4582,
      "##inář": 4583,
      "příklad": 4584,
      "potenci": 4585,
      "##mb": 4586,
      "jím": 4587,
      "##ovět": 4588,
      "Nech": 4589,
      "premi": 4590,
      "vztahu": 4591,
      "úvě": 4592,
      "dosa": 4593,
      "řadě": 4594,
      "##han": 4595,
      "tým": 4596,
      "viz": 4597,
      "podobě": 4598,
      "děj": 4599,
      "##veřej": 4600,
      "35": 4601,
      "##entní": 4602,
      "##mní": 4603,
      "nejvyšší": 4604,
      "tohle": 4605,
      "##nických": 4606,
      "ráno": 4607,
      "nezávis": 4608,
      "manažer": 4609,
      "##lada": 4610,
      "zvláštní": 4611,
      "##plat": 4612,
      "bou": 4613,
      "strá": 4614,
      "##SK": 4615,
      "##os": 4616,
      "peněz": 4617,
      "28": 4618,
      "há": 4619,
      "##ety": 4620,
      "##dej": 4621,
      "##rky": 4622,
      "##hužel": 4623,
      "usku": 4624,
      "Řek": 4625,
      "peč": 4626,
      "spíš": 4627,
      "##růst": 4628,
      "spl": 4629,
      "nadá": 4630,
      "celá": 4631,
      "##hel": 4632,
      "máte": 4633,
      "##těž": 4634,
      "90": 4635,
      "podnik": 4636,
      "Fi": 4637,
      "přičemž": 4638,
      "dist": 4639,
      "##EL": 4640,
      "##tních": 4641,
      "výši": 4642,
      "dostup": 4643,
      "médi": 4644,
      "vele": 4645,
      "srdce": 4646,
      "Samo": 4647,
      "kuchy": 4648,
      "byt": 4649,
      "nedáv": 4650,
      "##skému": 4651,
      "##mech": 4652,
      "##vací": 4653,
      "zapla": 4654,
      "##čením": 4655,
      "výmě": 4656,
      "případech": 4657,
      "posí": 4658,
      "zdravotní": 4659,
      "unie": 4660,
      "slovo": 4661,
      "##deme": 4662,
      "##stila": 4663,
      "nená": 4664,
      "ner": 4665,
      "muže": 4666,
      "dobr": 4667,
      "moje": 4668,
      "regist": 4669,
      "říj": 4670,
      "elektr": 4671,
      "Ži": 4672,
      "##oná": 4673,
      "##hly": 4674,
      "pomalu": 4675,
      "neú": 4676,
      "plu": 4677,
      "vf": 4678,
      "Hu": 4679,
      "schvá": 4680,
      "##ktiv": 4681,
      "docela": 4682,
      "pořad": 4683,
      "##řem": 4684,
      "tajem": 4685,
      "##rné": 4686,
      "hrom": 4687,
      "zajišť": 4688,
      "kampa": 4689,
      "##zky": 4690,
      "##tečné": 4691,
      "27": 4692,
      "2012": 4693,
      "##vým": 4694,
      "##ont": 4695,
      "tabu": 4696,
      "tělo": 4697,
      "kat": 4698,
      "##pečí": 4699,
      "výzkum": 4700,
      "listo": 4701,
      "exper": 4702,
      "nen": 4703,
      "##krom": 4704,
      "##ps": 4705,
      "##telná": 4706,
      "snadno": 4707,
      "##vosti": 4708,
      "##ster": 4709,
      "##las": 4710,
      "kombina": 4711,
      "pohybu": 4712,
      "odvo": 4713,
      "Kom": 4714,
      "##vení": 4715,
      "Větš": 4716,
      "##něji": 4717,
      "najednou": 4718,
      "##niční": 4719,
      "dolarů": 4720,
      "používá": 4721,
      "zásob": 4722,
      "říci": 4723,
      "##adla": 4724,
      "připad": 4725,
      "cesty": 4726,
      "čtená": 4727,
      "##klu": 4728,
      "##čná": 4729,
      "tru": 4730,
      "##ED": 4731,
      "##cházel": 4732,
      "sprav": 4733,
      "cuk": 4734,
      "zvýšení": 4735,
      "##ďte": 4736,
      "##ložit": 4737,
      "##lena": 4738,
      "##dky": 4739,
      "prote": 4740,
      "občas": 4741,
      "Ga": 4742,
      "##ET": 4743,
      "úva": 4744,
      "obr": 4745,
      "nas": 4746,
      "nedosta": 4747,
      "##ložení": 4748,
      "##enosti": 4749,
      "še": 4750,
      "vláda": 4751,
      "druž": 4752,
      "podobně": 4753,
      "##ujete": 4754,
      "##soci": 4755,
      "##gan": 4756,
      "odpověd": 4757,
      "úsp": 4758,
      "příro": 4759,
      "##slov": 4760,
      "nal": 4761,
      "New": 4762,
      "klíč": 4763,
      "##ml": 4764,
      "vrcho": 4765,
      "##žím": 4766,
      "napad": 4767,
      "jasné": 4768,
      "zved": 4769,
      "naprosto": 4770,
      "##řka": 4771,
      "nápad": 4772,
      "##mění": 4773,
      "poví": 4774,
      "aniž": 4775,
      "70": 4776,
      "##řením": 4777,
      "velkých": 4778,
      "procenta": 4779,
      "##dl": 4780,
      "dodá": 4781,
      "##nci": 4782,
      "prodá": 4783,
      "##hot": 4784,
      "prohlí": 4785,
      "atd": 4786,
      "Evropské": 4787,
      "##slí": 4788,
      "dny": 4789,
      "Mil": 4790,
      "##jších": 4791,
      "pozdě": 4792,
      "##stále": 4793,
      "výbor": 4794,
      "plně": 4795,
      "zpracování": 4796,
      "vytá": 4797,
      "##otu": 4798,
      "muži": 4799,
      "##ks": 4800,
      "smysl": 4801,
      "péče": 4802,
      "Jenže": 4803,
      "##tickou": 4804,
      "lou": 4805,
      "uvaž": 4806,
      "Vši": 4807,
      "ukon": 4808,
      "přines": 4809,
      "##fr": 4810,
      "Šk": 4811,
      "těla": 4812,
      "jednom": 4813,
      "povrch": 4814,
      "nať": 4815,
      "domácí": 4816,
      "nějakou": 4817,
      "Nes": 4818,
      "vysí": 4819,
      "měsíců": 4820,
      "##nutím": 4821,
      "sítě": 4822,
      "banky": 4823,
      "##čené": 4824,
      "naň": 4825,
      "##čk": 4826,
      "možno": 4827,
      "značky": 4828,
      "odrů": 4829,
      "Hor": 4830,
      "zdrojů": 4831,
      "##lt": 4832,
      "zaměstna": 4833,
      "současně": 4834,
      "vystav": 4835,
      "aplikace": 4836,
      "##jní": 4837,
      "##aticky": 4838,
      "Bude": 4839,
      "##žky": 4840,
      "##zeň": 4841,
      "Man": 4842,
      "mini": 4843,
      "##cování": 4844,
      "ly": 4845,
      "ruka": 4846,
      "pán": 4847,
      "Op": 4848,
      "bio": 4849,
      "problem": 4850,
      "přeno": 4851,
      "##tev": 4852,
      "odhad": 4853,
      "pěk": 4854,
      "##fe": 4855,
      "Měl": 4856,
      "zan": 4857,
      "uvol": 4858,
      "inform": 4859,
      "želez": 4860,
      "var": 4861,
      "Takže": 4862,
      "Pat": 4863,
      "nekon": 4864,
      "osobní": 4865,
      "##logické": 4866,
      "smlouvy": 4867,
      "dostat": 4868,
      "##avíc": 4869,
      "##átor": 4870,
      "spokoj": 4871,
      "zakáz": 4872,
      "nezbyt": 4873,
      "vzduchu": 4874,
      "##dám": 4875,
      "dolů": 4876,
      "##něte": 4877,
      "skupin": 4878,
      "##oe": 4879,
      "Uni": 4880,
      "Pi": 4881,
      "spočí": 4882,
      "##mará": 4883,
      "léta": 4884,
      "převá": 4885,
      "##port": 4886,
      "##jích": 4887,
      "Ny": 4888,
      "oddělení": 4889,
      "národní": 4890,
      "najde": 4891,
      "neg": 4892,
      "##nily": 4893,
      "oblast": 4894,
      "prostředky": 4895,
      "obsa": 4896,
      "193": 4897,
      "Ir": 4898,
      "téma": 4899,
      "##zační": 4900,
      "tera": 4901,
      "rozu": 4902,
      "##růz": 4903,
      "Stu": 4904,
      "podmínek": 4905,
      "fyzi": 4906,
      "řez": 4907,
      "##rají": 4908,
      "poslou": 4909,
      "Právě": 4910,
      "filo": 4911,
      "##isla": 4912,
      "individu": 4913,
      "neví": 4914,
      "díl": 4915,
      "brzy": 4916,
      "##kuje": 4917,
      "pojišťov": 4918,
      "spoluprac": 4919,
      "##chal": 4920,
      "nesta": 4921,
      "konzu": 4922,
      "ste": 4923,
      "hlí": 4924,
      "reprez": 4925,
      "Stra": 4926,
      "českého": 4927,
      "začíná": 4928,
      "odstra": 4929,
      "##ise": 4930,
      "zabý": 4931,
      "muze": 4932,
      "komp": 4933,
      "duše": 4934,
      "adres": 4935,
      "Zatímco": 4936,
      "45": 4937,
      "##ýma": 4938,
      "též": 4939,
      "spotřebi": 4940,
      "hně": 4941,
      "##tora": 4942,
      "##ýt": 4943,
      "využít": 4944,
      "##teratu": 4945,
      "##lové": 4946,
      "náhra": 4947,
      "Rob": 4948,
      "pozornost": 4949,
      "stroj": 4950,
      "ptá": 4951,
      "nejvíce": 4952,
      "Jež": 4953,
      "aspoň": 4954,
      "emi": 4955,
      "Hod": 4956,
      "##rb": 4957,
      "Dav": 4958,
      "celého": 4959,
      "##uper": 4960,
      "tř": 4961,
      "##nácti": 4962,
      "zavá": 4963,
      "Každý": 4964,
      "Tom": 4965,
      "poško": 4966,
      "##teční": 4967,
      "žádo": 4968,
      "##kázala": 4969,
      "dlouhodob": 4970,
      "##exist": 4971,
      "dochází": 4972,
      "##KA": 4973,
      "##bách": 4974,
      "podniku": 4975,
      "komise": 4976,
      "zpátky": 4977,
      "dveří": 4978,
      "dia": 4979,
      "kní": 4980,
      "Země": 4981,
      "ST": 4982,
      "strate": 4983,
      "##odní": 4984,
      "##hledá": 4985,
      "Ke": 4986,
      "2000": 4987,
      "dům": 4988,
      "tvář": 4989,
      "vidí": 4990,
      "##jším": 4991,
      "dát": 4992,
      "snížení": 4993,
      "hrd": 4994,
      "otec": 4995,
      "ostatních": 4996,
      "muset": 4997,
      "vydá": 4998,
      "NA": 4999,
      "##pres": 5000,
      "řetě": 5001,
      "##žením": 5002,
      "##dka": 5003,
      "##hlédl": 5004,
      "##vůr": 5005,
      "ač": 5006,
      "Může": 5007,
      "proved": 5008,
      "##vedl": 5009,
      "zbra": 5010,
      "Něm": 5011,
      "armá": 5012,
      "##000": 5013,
      "Prů": 5014,
      "knihy": 5015,
      "##tah": 5016,
      "zru": 5017,
      "##gin": 5018,
      "Svět": 5019,
      "Navíc": 5020,
      "každého": 5021,
      "##míná": 5022,
      "srovnání": 5023,
      "ošet": 5024,
      "##ii": 5025,
      "nemají": 5026,
      "##nky": 5027,
      "možností": 5028,
      "Jaro": 5029,
      "##mav": 5030,
      "rychlost": 5031,
      "##rovná": 5032,
      "našem": 5033,
      "zrovna": 5034,
      "logi": 5035,
      "##ere": 5036,
      "Prahy": 5037,
      "miliardy": 5038,
      "takto": 5039,
      "starší": 5040,
      "##ováni": 5041,
      "zápas": 5042,
      "zkušenosti": 5043,
      "pokr": 5044,
      "zákazníků": 5045,
      "řá": 5046,
      "##znamená": 5047,
      "##rních": 5048,
      "##hají": 5049,
      "##leb": 5050,
      "stranu": 5051,
      "##řuje": 5052,
      "##ktivní": 5053,
      "##ďar": 5054,
      "zdůraz": 5055,
      "potřeba": 5056,
      "PRO": 5057,
      "spol": 5058,
      "vnitřní": 5059,
      "společně": 5060,
      "##EM": 5061,
      "nalé": 5062,
      "výrobce": 5063,
      "Vol": 5064,
      "vojá": 5065,
      "praxi": 5066,
      "Car": 5067,
      "věde": 5068,
      "určité": 5069,
      "tímto": 5070,
      "svat": 5071,
      "jejího": 5072,
      "soukrom": 5073,
      "zemědělské": 5074,
      "zb": 5075,
      "konf": 5076,
      "noc": 5077,
      "spor": 5078,
      "dla": 5079,
      "##ingu": 5080,
      "31": 5081,
      "##rátit": 5082,
      "##mal": 5083,
      "dalším": 5084,
      "přátel": 5085,
      "##ftwar": 5086,
      "##zal": 5087,
      "podp": 5088,
      "##ůh": 5089,
      "předtím": 5090,
      "dní": 5091,
      "dot": 5092,
      "##rové": 5093,
      "Kra": 5094,
      "soused": 5095,
      "moderní": 5096,
      "##řování": 5097,
      "##děj": 5098,
      "sbí": 5099,
      "##hnu": 5100,
      "##lob": 5101,
      "##jat": 5102,
      "Mas": 5103,
      "Ben": 5104,
      "Con": 5105,
      "##jev": 5106,
      "##vést": 5107,
      "zdraví": 5108,
      "##leží": 5109,
      "##cházet": 5110,
      "Har": 5111,
      "číslo": 5112,
      "kó": 5113,
      "příč": 5114,
      "mikro": 5115,
      "##skyt": 5116,
      "prakticky": 5117,
      "půj": 5118,
      "vyb": 5119,
      "skutečnost": 5120,
      "nos": 5121,
      "uka": 5122,
      "skvě": 5123,
      "výjim": 5124,
      "##die": 5125,
      "##ng": 5126,
      "##chov": 5127,
      "otázku": 5128,
      "##tách": 5129,
      "ped": 5130,
      "##sledek": 5131,
      "budete": 5132,
      "Lí": 5133,
      "Ste": 5134,
      "úspěš": 5135,
      "##hých": 5136,
      "##řily": 5137,
      "systémy": 5138,
      "amp": 5139,
      "##mos": 5140,
      "Poz": 5141,
      "##zené": 5142,
      "##tat": 5143,
      "ný": 5144,
      "cestě": 5145,
      "bývá": 5146,
      "cílem": 5147,
      "profesi": 5148,
      "Fo": 5149,
      "##ckým": 5150,
      "války": 5151,
      "##znamu": 5152,
      "nemohl": 5153,
      "##átní": 5154,
      "úřed": 5155,
      "Hav": 5156,
      "pracovat": 5157,
      "tvrdí": 5158,
      "mění": 5159,
      "lev": 5160,
      "vhodné": 5161,
      "loni": 5162,
      "reag": 5163,
      "##dalo": 5164,
      "dem": 5165,
      "rozhodně": 5166,
      "počítač": 5167,
      "##itou": 5168,
      "propa": 5169,
      "##lární": 5170,
      "milió": 5171,
      "##nt": 5172,
      "zahrnu": 5173,
      "##poz": 5174,
      "##svět": 5175,
      "námi": 5176,
      "reál": 5177,
      "síť": 5178,
      "##ws": 5179,
      "podzi": 5180,
      "SN": 5181,
      "Hra": 5182,
      "nijak": 5183,
      "2009": 5184,
      "okamžitě": 5185,
      "otázky": 5186,
      "mezinárodní": 5187,
      "##lovat": 5188,
      "výhod": 5189,
      "zůstává": 5190,
      "ministr": 5191,
      "##tují": 5192,
      "jel": 5193,
      "požadavky": 5194,
      "##ovaným": 5195,
      "Musí": 5196,
      "##čnost": 5197,
      "##one": 5198,
      "hude": 5199,
      "charakter": 5200,
      "mr": 5201,
      "##ceme": 5202,
      "metod": 5203,
      "SV": 5204,
      "musíme": 5205,
      "##obec": 5206,
      "Josef": 5207,
      "##ble": 5208,
      "mysle": 5209,
      "##nová": 5210,
      "plod": 5211,
      "vs": 5212,
      "##rgu": 5213,
      "##mila": 5214,
      "město": 5215,
      "symbo": 5216,
      "##produ": 5217,
      "rodiny": 5218,
      "##slech": 5219,
      "##OM": 5220,
      "signá": 5221,
      "##AL": 5222,
      "mluví": 5223,
      "##stvím": 5224,
      "uměle": 5225,
      "počátku": 5226,
      "šel": 5227,
      "Zde": 5228,
      "##zím": 5229,
      "očima": 5230,
      "deta": 5231,
      "##git": 5232,
      "nadále": 5233,
      "##éru": 5234,
      "konkrétní": 5235,
      "najít": 5236,
      "Star": 5237,
      "mimořád": 5238,
      "Martin": 5239,
      "slouží": 5240,
      "mohu": 5241,
      "čeká": 5242,
      "of": 5243,
      "##hc": 5244,
      "##vlá": 5245,
      "bankov": 5246,
      "##vané": 5247,
      "##par": 5248,
      "##mar": 5249,
      "##rávně": 5250,
      "##kovým": 5251,
      "hlavy": 5252,
      "##stau": 5253,
      "rozum": 5254,
      "um": 5255,
      "mléka": 5256,
      "##onstru": 5257,
      "vzhledem": 5258,
      "podstatě": 5259,
      "##jit": 5260,
      "##land": 5261,
      "##stili": 5262,
      "Všechny": 5263,
      "sle": 5264,
      "Například": 5265,
      "projev": 5266,
      "kamará": 5267,
      "vaz": 5268,
      "##kými": 5269,
      "195": 5270,
      "stabili": 5271,
      "##cion": 5272,
      "vybí": 5273,
      "byť": 5274,
      "avšak": 5275,
      "##cin": 5276,
      "šlo": 5277,
      "##roti": 5278,
      "##odí": 5279,
      "nikoli": 5280,
      "spojení": 5281,
      "procesu": 5282,
      "nesou": 5283,
      "##lela": 5284,
      "literatu": 5285,
      "##řený": 5286,
      "##inami": 5287,
      "Základ": 5288,
      "kola": 5289,
      "pravdu": 5290,
      "##čtí": 5291,
      "Tam": 5292,
      "##nicí": 5293,
      "##lím": 5294,
      "web": 5295,
      "původní": 5296,
      "et": 5297,
      "dosah": 5298,
      "vyrob": 5299,
      "malý": 5300,
      "přijde": 5301,
      "divá": 5302,
      "Českosloven": 5303,
      "brat": 5304,
      "prospě": 5305,
      "##AD": 5306,
      "##avy": 5307,
      "potí": 5308,
      "##smus": 5309,
      "nákladů": 5310,
      "poc": 5311,
      "důvodů": 5312,
      "mohly": 5313,
      "věděl": 5314,
      "vych": 5315,
      "svému": 5316,
      "2013": 5317,
      "poněkud": 5318,
      "využívá": 5319,
      "##nové": 5320,
      "jé": 5321,
      "##IC": 5322,
      "úlo": 5323,
      "dobrý": 5324,
      "mého": 5325,
      "politiky": 5326,
      "nahra": 5327,
      "komplex": 5328,
      "Dr": 5329,
      "##rala": 5330,
      "rozdě": 5331,
      "obo": 5332,
      "námě": 5333,
      "prostředků": 5334,
      "hře": 5335,
      "dle": 5336,
      "brit": 5337,
      "hot": 5338,
      "Nová": 5339,
      "##hlu": 5340,
      "ukáz": 5341,
      "##třeb": 5342,
      "desig": 5343,
      "##zda": 5344,
      "##cát": 5345,
      "##čnou": 5346,
      "živ": 5347,
      "vedoucí": 5348,
      "zabez": 5349,
      "##ladu": 5350,
      "##oucí": 5351,
      "##ckém": 5352,
      "Zd": 5353,
      "Rá": 5354,
      "##car": 5355,
      "ša": 5356,
      "světlo": 5357,
      "##koná": 5358,
      "zlat": 5359,
      "pojištění": 5360,
      "tí": 5361,
      "##brž": 5362,
      "provedení": 5363,
      "Mus": 5364,
      "všeho": 5365,
      "##kan": 5366,
      "obchodu": 5367,
      "použít": 5368,
      "##stém": 5369,
      "##pie": 5370,
      "zvířat": 5371,
      "architek": 5372,
      "Podob": 5373,
      "uvádí": 5374,
      "dokáže": 5375,
      "##lid": 5376,
      "##jme": 5377,
      "vlasy": 5378,
      "metrů": 5379,
      "##stem": 5380,
      "výrobu": 5381,
      "##řena": 5382,
      "potřeby": 5383,
      "Per": 5384,
      "Hy": 5385,
      "pry": 5386,
      "##mene": 5387,
      "hry": 5388,
      "úno": 5389,
      "orgán": 5390,
      "Ře": 5391,
      "zes": 5392,
      "sdru": 5393,
      "velká": 5394,
      "HD": 5395,
      "existuje": 5396,
      "Pla": 5397,
      "žlu": 5398,
      "dlouhé": 5399,
      "Mám": 5400,
      "síly": 5401,
      "vyrábě": 5402,
      "spu": 5403,
      "schů": 5404,
      "mani": 5405,
      "##etr": 5406,
      "Fa": 5407,
      "vrst": 5408,
      "jem": 5409,
      "dokud": 5410,
      "ran": 5411,
      "##hoda": 5412,
      "##jedná": 5413,
      "##klid": 5414,
      "##EK": 5415,
      "zastup": 5416,
      "nohy": 5417,
      "sez": 5418,
      "klo": 5419,
      "hodnocení": 5420,
      "nebezpeč": 5421,
      "##paněl": 5422,
      "přibližně": 5423,
      "##savad": 5424,
      "##měry": 5425,
      "ole": 5426,
      "##ýn": 5427,
      "##slední": 5428,
      "##nete": 5429,
      "speciální": 5430,
      "##při": 5431,
      "vědět": 5432,
      "napě": 5433,
      "Ce": 5434,
      "neustále": 5435,
      "klid": 5436,
      "onemocnění": 5437,
      "ulici": 5438,
      "PR": 5439,
      "Stejně": 5440,
      "##cené": 5441,
      "jediný": 5442,
      "zúčast": 5443,
      "pát": 5444,
      "fede": 5445,
      "distribu": 5446,
      "jejích": 5447,
      "politické": 5448,
      "##níkem": 5449,
      "##torů": 5450,
      "##lým": 5451,
      "##stin": 5452,
      "vypadá": 5453,
      "##neme": 5454,
      "kvalitní": 5455,
      "##NA": 5456,
      "srp": 5457,
      "zla": 5458,
      "aku": 5459,
      "vývoje": 5460,
      "##počet": 5461,
      "svoji": 5462,
      "##mněl": 5463,
      "rece": 5464,
      "##střed": 5465,
      "##nět": 5466,
      "##rami": 5467,
      "nechtě": 5468,
      "círk": 5469,
      "##jen": 5470,
      "29": 5471,
      "úroveň": 5472,
      "rozhodu": 5473,
      "chlad": 5474,
      "##lík": 5475,
      "##bylo": 5476,
      "##mati": 5477,
      "Společnost": 5478,
      "vystou": 5479,
      "zvlád": 5480,
      "##říž": 5481,
      "SL": 5482,
      "radost": 5483,
      "pne": 5484,
      "ofici": 5485,
      "##nají": 5486,
      "##pel": 5487,
      "redak": 5488,
      "smu": 5489,
      "chtějí": 5490,
      "mysli": 5491,
      "Wil": 5492,
      "postavení": 5493,
      "##lice": 5494,
      "verze": 5495,
      "##též": 5496,
      "stati": 5497,
      "problémů": 5498,
      "##zdí": 5499,
      "prvních": 5500,
      "dodává": 5501,
      "každém": 5502,
      "Kla": 5503,
      "ministerstva": 5504,
      "bran": 5505,
      "ově": 5506,
      "dvacet": 5507,
      "##skup": 5508,
      "osoby": 5509,
      "průmyslu": 5510,
      "##lát": 5511,
      "doj": 5512,
      "##lová": 5513,
      "##zované": 5514,
      "stala": 5515,
      "systémů": 5516,
      "doh": 5517,
      "##OD": 5518,
      "plynu": 5519,
      "nýbrž": 5520,
      "míry": 5521,
      "příspě": 5522,
      "rak": 5523,
      "městě": 5524,
      "minulosti": 5525,
      "znak": 5526,
      "##bem": 5527,
      "plánu": 5528,
      "souhla": 5529,
      "##ation": 5530,
      "##red": 5531,
      "výz": 5532,
      "##rku": 5533,
      "##myš": 5534,
      "##ovaní": 5535,
      "dává": 5536,
      "zadní": 5537,
      "udr": 5538,
      "##IS": 5539,
      "##ňující": 5540,
      "naj": 5541,
      "konec": 5542,
      "nákup": 5543,
      "mluvit": 5544,
      "##stři": 5545,
      "##chou": 5546,
      "dnešní": 5547,
      "##sm": 5548,
      "he": 5549,
      "##lili": 5550,
      "##ES": 5551,
      "##vního": 5552,
      "poste": 5553,
      "zah": 5554,
      "##leh": 5555,
      "##UD": 5556,
      "priv": 5557,
      "##hala": 5558,
      "klad": 5559,
      "částe": 5560,
      "For": 5561,
      "Krá": 5562,
      "##lynu": 5563,
      "Lé": 5564,
      "technologií": 5565,
      "měsíce": 5566,
      "celém": 5567,
      "úro": 5568,
      "myslím": 5569,
      "dávno": 5570,
      "##čítá": 5571,
      "Ča": 5572,
      "států": 5573,
      "úsmě": 5574,
      "nejdří": 5575,
      "králov": 5576,
      "##ovin": 5577,
      "rozp": 5578,
      "dostane": 5579,
      "Kde": 5580,
      "##zování": 5581,
      "izo": 5582,
      "cestou": 5583,
      "##tik": 5584,
      "skli": 5585,
      "konstrukce": 5586,
      "##ley": 5587,
      "poro": 5588,
      "##taci": 5589,
      "generace": 5590,
      "komunikace": 5591,
      "##tít": 5592,
      "##nó": 5593,
      "disple": 5594,
      "taková": 5595,
      "Václav": 5596,
      "spat": 5597,
      "pacientů": 5598,
      "##bel": 5599,
      "##spi": 5600,
      "takového": 5601,
      "listopadu": 5602,
      "veletr": 5603,
      "privati": 5604,
      "##denti": 5605,
      "zni": 5606,
      "zdroje": 5607,
      "předseda": 5608,
      "napl": 5609,
      "leží": 5610,
      "Por": 5611,
      "nejčast": 5612,
      "Auto": 5613,
      "##éra": 5614,
      "ovo": 5615,
      "##gram": 5616,
      "diag": 5617,
      "##chý": 5618,
      "rady": 5619,
      "##rovnání": 5620,
      "stolu": 5621,
      "zo": 5622,
      "##nku": 5623,
      "##kor": 5624,
      "matka": 5625,
      "##stanov": 5626,
      "pravda": 5627,
      "Ban": 5628,
      "fyz": 5629,
      "podniků": 5630,
      "neexist": 5631,
      "Sto": 5632,
      "pen": 5633,
      "##vce": 5634,
      "jednotlivé": 5635,
      "##žuje": 5636,
      "zbav": 5637,
      "uvnitř": 5638,
      "okna": 5639,
      "##ktoru": 5640,
      "##vedení": 5641,
      "miliard": 5642,
      "vlh": 5643,
      "soudu": 5644,
      "Toto": 5645,
      "kvality": 5646,
      "nábožen": 5647,
      "dvaná": 5648,
      "dé": 5649,
      "##násob": 5650,
      "výstup": 5651,
      "##nii": 5652,
      "##fikace": 5653,
      "staré": 5654,
      "##razí": 5655,
      "Ter": 5656,
      "##řeny": 5657,
      "##stní": 5658,
      "zdi": 5659,
      "Ved": 5660,
      "druhého": 5661,
      "majetku": 5662,
      "##čt": 5663,
      "cvi": 5664,
      "On": 5665,
      "dnů": 5666,
      "vylou": 5667,
      "Bi": 5668,
      "##čeb": 5669,
      "vyře": 5670,
      "##zev": 5671,
      "Her": 5672,
      "##ovacích": 5673,
      "##nali": 5674,
      "zahraniční": 5675,
      "##leg": 5676,
      "akt": 5677,
      "důvodu": 5678,
      "Potom": 5679,
      "##AM": 5680,
      "##můž": 5681,
      "##lému": 5682,
      "krok": 5683,
      "##bilní": 5684,
      "kontra": 5685,
      "přízni": 5686,
      "jejíž": 5687,
      "digit": 5688,
      "setkání": 5689,
      "takovou": 5690,
      "##orem": 5691,
      "Bru": 5692,
      "zaměstnanců": 5693,
      "##isto": 5694,
      "softwar": 5695,
      "Brně": 5696,
      "osla": 5697,
      "zvláště": 5698,
      "schopnost": 5699,
      "##adi": 5700,
      "##telu": 5701,
      "účet": 5702,
      "Myslím": 5703,
      "##pci": 5704,
      "##loží": 5705,
      "integ": 5706,
      "##har": 5707,
      "otázka": 5708,
      "podnikatel": 5709,
      "kov": 5710,
      "##vot": 5711,
      "##ista": 5712,
      "##lce": 5713,
      "činí": 5714,
      "zájmu": 5715,
      "shro": 5716,
      "restau": 5717,
      "##sťan": 5718,
      "##kování": 5719,
      "Všichni": 5720,
      "##ase": 5721,
      "svaz": 5722,
      "##adlo": 5723,
      "servis": 5724,
      "##aným": 5725,
      "##dilo": 5726,
      "##adě": 5727,
      "jasně": 5728,
      "Vyso": 5729,
      "pohod": 5730,
      "váš": 5731,
      "vrátil": 5732,
      "##řená": 5733,
      "techniky": 5734,
      "##šeni": 5735,
      "Tomá": 5736,
      "##rovi": 5737,
      "##bora": 5738,
      "##ilu": 5739,
      "##kát": 5740,
      "##gres": 5741,
      "šťast": 5742,
      "místnosti": 5743,
      "stačí": 5744,
      "##nově": 5745,
      "vzniku": 5746,
      "##odpově": 5747,
      "##ini": 5748,
      "##čných": 5749,
      "trval": 5750,
      "##anci": 5751,
      "##bů": 5752,
      "žádná": 5753,
      "##ela": 5754,
      "##sné": 5755,
      "poly": 5756,
      "##odob": 5757,
      "##lv": 5758,
      "pracuje": 5759,
      "denně": 5760,
      "potravin": 5761,
      "strach": 5762,
      "##žených": 5763,
      "Vlast": 5764,
      "okres": 5765,
      "čerst": 5766,
      "soutěže": 5767,
      "##hodně": 5768,
      "neroz": 5769,
      "inte": 5770,
      "Jana": 5771,
      "pokro": 5772,
      "výrobků": 5773,
      "rostou": 5774,
      "port": 5775,
      "nástup": 5776,
      "rozsá": 5777,
      "přeprav": 5778,
      "Jestliže": 5779,
      "vím": 5780,
      "IP": 5781,
      "##ickými": 5782,
      "OK": 5783,
      "##ložil": 5784,
      "##lín": 5785,
      "##př": 5786,
      "místní": 5787,
      "##žád": 5788,
      "sho": 5789,
      "auta": 5790,
      "##ovka": 5791,
      "ohledu": 5792,
      "vzpomín": 5793,
      "transp": 5794,
      "mul": 5795,
      "dnech": 5796,
      "##poví": 5797,
      "500": 5798,
      "výš": 5799,
      "Spoj": 5800,
      "štěstí": 5801,
      "Dop": 5802,
      "problemati": 5803,
      "skupina": 5804,
      "Přit": 5805,
      "##sáti": 5806,
      "nejvý": 5807,
      "##důležit": 5808,
      "SK": 5809,
      "druhů": 5810,
      "##lenou": 5811,
      "musím": 5812,
      "##lépe": 5813,
      "##vodu": 5814,
      "plné": 5815,
      "monit": 5816,
      "2008": 5817,
      "zách": 5818,
      "vysoko": 5819,
      "##telných": 5820,
      "ročně": 5821,
      "soubor": 5822,
      "zaří": 5823,
      "začne": 5824,
      "##onec": 5825,
      "obsahuje": 5826,
      "##ejte": 5827,
      "Franti": 5828,
      "##říme": 5829,
      "##logii": 5830,
      "zdrav": 5831,
      "kdysi": 5832,
      "Ur": 5833,
      "##dající": 5834,
      "##zech": 5835,
      "vnit": 5836,
      "192": 5837,
      "očí": 5838,
      "nah": 5839,
      "stanovi": 5840,
      "obce": 5841,
      "lidem": 5842,
      "Pavel": 5843,
      "celkové": 5844,
      "##vó": 5845,
      "napětí": 5846,
      "soukro": 5847,
      "rodiče": 5848,
      "legisla": 5849,
      "##slá": 5850,
      "##ves": 5851,
      "údaje": 5852,
      "každou": 5853,
      "prací": 5854,
      "balí": 5855,
      "mezinárod": 5856,
      "##ert": 5857,
      "říkal": 5858,
      "IV": 5859,
      "průzku": 5860,
      "Alex": 5861,
      "##kvi": 5862,
      "oboru": 5863,
      "Tra": 5864,
      "##bat": 5865,
      "##šela": 5866,
      "Nav": 5867,
      "hez": 5868,
      "séri": 5869,
      "Slu": 5870,
      "##nický": 5871,
      "hno": 5872,
      "zelen": 5873,
      "poptá": 5874,
      "Kou": 5875,
      "##šu": 5876,
      "životního": 5877,
      "Fir": 5878,
      "získa": 5879,
      "##lii": 5880,
      "##běr": 5881,
      "Gu": 5882,
      "koncent": 5883,
      "děje": 5884,
      "##livý": 5885,
      "top": 5886,
      "skří": 5887,
      "mono": 5888,
      "revolu": 5889,
      "##lar": 5890,
      "taj": 5891,
      "zprávy": 5892,
      "uspořá": 5893,
      "##kládat": 5894,
      "##něných": 5895,
      "materiál": 5896,
      "škod": 5897,
      "požá": 5898,
      "poch": 5899,
      "přím": 5900,
      "##tec": 5901,
      "##pky": 5902,
      "český": 5903,
      "návštěvní": 5904,
      "jakým": 5905,
      "okamžiku": 5906,
      "proz": 5907,
      "Dlou": 5908,
      "##oz": 5909,
      "konstat": 5910,
      "##dows": 5911,
      "důstoj": 5912,
      "##lený": 5913,
      "okru": 5914,
      "Com": 5915,
      "##tily": 5916,
      "materiálu": 5917,
      "Euro": 5918,
      "Jí": 5919,
      "##stický": 5920,
      "##ovatelů": 5921,
      "##dějí": 5922,
      "nejméně": 5923,
      "SP": 5924,
      "úpl": 5925,
      "opo": 5926,
      "##liko": 5927,
      "##mout": 5928,
      "##fy": 5929,
      "těžké": 5930,
      "##rej": 5931,
      "Podí": 5932,
      "hodnot": 5933,
      "bla": 5934,
      "Pá": 5935,
      "##ell": 5936,
      "ej": 5937,
      "##fikov": 5938,
      "nalez": 5939,
      "##nímu": 5940,
      "##átkem": 5941,
      "autobu": 5942,
      "státy": 5943,
      "##huje": 5944,
      "stavby": 5945,
      "##raž": 5946,
      "současnosti": 5947,
      "nicméně": 5948,
      "odol": 5949,
      "##OL": 5950,
      "##rám": 5951,
      "škole": 5952,
      "mag": 5953,
      "Vzhledem": 5954,
      "##stávají": 5955,
      "polí": 5956,
      "strojů": 5957,
      "##zin": 5958,
      "##nin": 5959,
      "dohod": 5960,
      "zře": 5961,
      "Ov": 5962,
      "##šený": 5963,
      "Čá": 5964,
      "prvního": 5965,
      "##bri": 5966,
      "Pu": 5967,
      "získal": 5968,
      "##jednodu": 5969,
      "pochyb": 5970,
      "Ká": 5971,
      "Morav": 5972,
      "policie": 5973,
      "##nala": 5974,
      "Jeden": 5975,
      "mír": 5976,
      "produktů": 5977,
      "##ratu": 5978,
      "Rakou": 5979,
      "##čily": 5980,
      "Angli": 5981,
      "##bře": 5982,
      "Nor": 5983,
      "orgá": 5984,
      "vysokou": 5985,
      "dosavad": 5986,
      "pravděpodobně": 5987,
      "191": 5988,
      "vez": 5989,
      "cesta": 5990,
      "pane": 5991,
      "schod": 5992,
      "druhu": 5993,
      "##dáme": 5994,
      "##nec": 5995,
      "dřív": 5996,
      "Sam": 5997,
      "##byl": 5998,
      "bás": 5999,
      "##tilo": 6000,
      "Během": 6001,
      "##předu": 6002,
      "##cvi": 6003,
      "##EC": 6004,
      "důsledku": 6005,
      "delší": 6006,
      "Žád": 6007,
      "průmysl": 6008,
      "zachy": 6009,
      "##dle": 6010,
      "Německu": 6011,
      "##pili": 6012,
      "vzdělávání": 6013,
      "veřejné": 6014,
      "##OP": 6015,
      "oni": 6016,
      "##lomou": 6017,
      "malých": 6018,
      "##lekt": 6019,
      "pacient": 6020,
      "dod": 6021,
      "porost": 6022,
      "tmav": 6023,
      "Nemo": 6024,
      "##stických": 6025,
      "zřej": 6026,
      "##čkách": 6027,
      "porad": 6028,
      "hmo": 6029,
      "neře": 6030,
      "bet": 6031,
      "směru": 6032,
      "jaká": 6033,
      "bys": 6034,
      "##áv": 6035,
      "gen": 6036,
      "automat": 6037,
      "Sed": 6038,
      "##lala": 6039,
      "ana": 6040,
      "hlavním": 6041,
      "polici": 6042,
      "##bl": 6043,
      "Snad": 6044,
      "přináší": 6045,
      "##aku": 6046,
      "přemýš": 6047,
      "těžko": 6048,
      "##ane": 6049,
      "výhra": 6050,
      "velko": 6051,
      "průměru": 6052,
      "blá": 6053,
      "##štěstí": 6054,
      "spolupráce": 6055,
      "nezná": 6056,
      "osa": 6057,
      "jar": 6058,
      "tlačít": 6059,
      "odv": 6060,
      "##lejší": 6061,
      "světové": 6062,
      "dosáhnout": 6063,
      "##vují": 6064,
      "dek": 6065,
      "pal": 6066,
      "Nyní": 6067,
      "##žnost": 6068,
      "oblíb": 6069,
      "názoru": 6070,
      "Windows": 6071,
      "hospoda": 6072,
      "kapito": 6073,
      "Mer": 6074,
      "růstu": 6075,
      "rozli": 6076,
      "zavo": 6077,
      "##zt": 6078,
      "doba": 6079,
      "##ité": 6080,
      "zam": 6081,
      "knih": 6082,
      "ustanov": 6083,
      "dojem": 6084,
      "fakul": 6085,
      "vážně": 6086,
      "vychází": 6087,
      "Inter": 6088,
      "druhy": 6089,
      "ono": 6090,
      "stává": 6091,
      "##vakrát": 6092,
      "průmys": 6093,
      "zatí": 6094,
      "uprostřed": 6095,
      "##tají": 6096,
      "žádnou": 6097,
      "voda": 6098,
      "poznat": 6099,
      "##ovatele": 6100,
      "ochranu": 6101,
      "ev": 6102,
      "Jednou": 6103,
      "hekt": 6104,
      "##sech": 6105,
      "altern": 6106,
      "##ňky": 6107,
      "užit": 6108,
      "rozví": 6109,
      "36": 6110,
      "Char": 6111,
      "lidské": 6112,
      "druhém": 6113,
      "##avá": 6114,
      "cz": 6115,
      "32": 6116,
      "##zka": 6117,
      "Minister": 6118,
      "troj": 6119,
      "jo": 6120,
      "atmos": 6121,
      "##lením": 6122,
      "Pri": 6123,
      "mý": 6124,
      "svěd": 6125,
      "hranice": 6126,
      "opa": 6127,
      "nejde": 6128,
      "raději": 6129,
      "zvlášt": 6130,
      "primá": 6131,
      "##lym": 6132,
      "oč": 6133,
      "věd": 6134,
      "světla": 6135,
      "##stál": 6136,
      "hří": 6137,
      "ředitele": 6138,
      "##tex": 6139,
      "##ovaně": 6140,
      "beze": 6141,
      "polovině": 6142,
      "pam": 6143,
      "Vladi": 6144,
      "zveřej": 6145,
      "zří": 6146,
      "Tou": 6147,
      "sklá": 6148,
      "kandi": 6149,
      "##wa": 6150,
      "mužů": 6151,
      "##ňů": 6152,
      "##čela": 6153,
      "nájem": 6154,
      "hum": 6155,
      "The": 6156,
      "ODS": 6157,
      "##klí": 6158,
      "Poli": 6159,
      "##tiky": 6160,
      "čel": 6161,
      "elektrá": 6162,
      "řečeno": 6163,
      "musela": 6164,
      "pokou": 6165,
      "sestav": 6166,
      "měsíc": 6167,
      "smrt": 6168,
      "##astro": 6169,
      "John": 6170,
      "zauj": 6171,
      "ben": 6172,
      "##zoval": 6173,
      "chybě": 6174,
      "##au": 6175,
      "vytvořit": 6176,
      "specif": 6177,
      "podobné": 6178,
      "##čnosti": 6179,
      "domác": 6180,
      "podez": 6181,
      "všude": 6182,
      "##stev": 6183,
      "odpovídá": 6184,
      "##nka": 6185,
      "směř": 6186,
      "##óny": 6187,
      "zbyt": 6188,
      "Don": 6189,
      "##ením": 6190,
      "padesát": 6191,
      "##nějšího": 6192,
      "Oba": 6193,
      "základních": 6194,
      "úřadu": 6195,
      "##seli": 6196,
      "čase": 6197,
      "podpory": 6198,
      "300": 6199,
      "chtěla": 6200,
      "##dlí": 6201,
      "analy": 6202,
      "výzkumu": 6203,
      "##šili": 6204,
      "Sla": 6205,
      "romá": 6206,
      "Výsled": 6207,
      "udělal": 6208,
      "##zující": 6209,
      "##větší": 6210,
      "oproti": 6211,
      "hrát": 6212,
      "##skop": 6213,
      "person": 6214,
      "vědomí": 6215,
      "##tení": 6216,
      "stane": 6217,
      "##aném": 6218,
      "##boo": 6219,
      "přizpůsob": 6220,
      "##EZ": 6221,
      "šet": 6222,
      "Hol": 6223,
      "##mov": 6224,
      "bur": 6225,
      "##pání": 6226,
      "##stné": 6227,
      "nepat": 6228,
      "místech": 6229,
      "bezp": 6230,
      "domní": 6231,
      "##chodem": 6232,
      "##ránit": 6233,
      "klient": 6234,
      "##cel": 6235,
      "Lond": 6236,
      "stavební": 6237,
      "částí": 6238,
      "těle": 6239,
      "dřevě": 6240,
      "ekonomické": 6241,
      "prohlásil": 6242,
      "domě": 6243,
      "osmi": 6244,
      "text": 6245,
      "##pětí": 6246,
      "Britá": 6247,
      "Bro": 6248,
      "bram": 6249,
      "obecně": 6250,
      "1992": 6251,
      "##něný": 6252,
      "##mála": 6253,
      "form": 6254,
      "oddě": 6255,
      "museli": 6256,
      "##telnou": 6257,
      "pořádku": 6258,
      "##lic": 6259,
      "vyprávě": 6260,
      "jiným": 6261,
      "hypo": 6262,
      "##leni": 6263,
      "##véd": 6264,
      "slá": 6265,
      "##důležitější": 6266,
      "pohá": 6267,
      "mra": 6268,
      "odpověď": 6269,
      "vyslov": 6270,
      "##hodné": 6271,
      "surov": 6272,
      "studie": 6273,
      "jisté": 6274,
      "nebyly": 6275,
      "##kalo": 6276,
      "##feren": 6277,
      "přišla": 6278,
      "##vaný": 6279,
      "##vilo": 6280,
      "##DA": 6281,
      "ukazuje": 6282,
      "##čků": 6283,
      "paměti": 6284,
      "##tika": 6285,
      "##minist": 6286,
      "##ang": 6287,
      "vytváře": 6288,
      "##umati": 6289,
      "##nického": 6290,
      "představit": 6291,
      "takových": 6292,
      "nevím": 6293,
      "zeptal": 6294,
      "##rna": 6295,
      "Zdá": 6296,
      "hř": 6297,
      "vozu": 6298,
      "dopo": 6299,
      "Nový": 6300,
      "##řin": 6301,
      "pryč": 6302,
      "Nakonec": 6303,
      "míru": 6304,
      "zpravidla": 6305,
      "povr": 6306,
      "ovlád": 6307,
      "utr": 6308,
      "venkov": 6309,
      "##šší": 6310,
      "jek": 6311,
      "jednak": 6312,
      "OH": 6313,
      "ital": 6314,
      "nedá": 6315,
      "členů": 6316,
      "##AS": 6317,
      "filmu": 6318,
      "##drží": 6319,
      "dro": 6320,
      "##čený": 6321,
      "přední": 6322,
      "žít": 6323,
      "##stanou": 6324,
      "nechce": 6325,
      "##arů": 6326,
      "Rom": 6327,
      "návrhu": 6328,
      "##chách": 6329,
      "oprávně": 6330,
      "hodnotu": 6331,
      "##něk": 6332,
      "pozici": 6333,
      "pohla": 6334,
      "přednost": 6335,
      "mamin": 6336,
      "evid": 6337,
      "někoho": 6338,
      "přehled": 6339,
      "osud": 6340,
      "##íte": 6341,
      "zpě": 6342,
      "kvalitu": 6343,
      "##ráz": 6344,
      "##éry": 6345,
      "jiná": 6346,
      "předná": 6347,
      "poplat": 6348,
      "obnov": 6349,
      "Japon": 6350,
      "krize": 6351,
      "##nicích": 6352,
      "Ed": 6353,
      "závaz": 6354,
      "vstou": 6355,
      "##ovce": 6356,
      "ledna": 6357,
      "díla": 6358,
      "vztahy": 6359,
      "##nická": 6360,
      "##NO": 6361,
      "šp": 6362,
      "chvíle": 6363,
      "pochopitel": 6364,
      "ou": 6365,
      "předchozí": 6366,
      "poš": 6367,
      "Bud": 6368,
      "neměla": 6369,
      "##šuje": 6370,
      "vyvolá": 6371,
      "podmínkách": 6372,
      "##loval": 6373,
      "argu": 6374,
      "line": 6375,
      "##tud": 6376,
      "potě": 6377,
      "Tá": 6378,
      "sezná": 6379,
      "modelu": 6380,
      "##tisk": 6381,
      "##moř": 6382,
      "Mon": 6383,
      "Nové": 6384,
      "##vede": 6385,
      "kapacit": 6386,
      "způ": 6387,
      "tentokrát": 6388,
      "řídí": 6389,
      "rezer": 6390,
      "##toři": 6391,
      "##tním": 6392,
      "svoje": 6393,
      "cu": 6394,
      "##kne": 6395,
      "kultury": 6396,
      "##lia": 6397,
      "##bory": 6398,
      "řetěz": 6399,
      "Brno": 6400,
      "##terý": 6401,
      "tepel": 6402,
      "čeho": 6403,
      "výsledků": 6404,
      "bav": 6405,
      "##kol": 6406,
      "všim": 6407,
      "funkcí": 6408,
      "jediné": 6409,
      "##šině": 6410,
      "prvky": 6411,
      "Fe": 6412,
      "##rí": 6413,
      "osvět": 6414,
      "Součas": 6415,
      "malá": 6416,
      "šla": 6417,
      "produkt": 6418,
      "ministra": 6419,
      "##ša": 6420,
      "##rního": 6421,
      "vodou": 6422,
      "letošního": 6423,
      "dodrž": 6424,
      "##nor": 6425,
      "##tku": 6426,
      "Dom": 6427,
      "sexu": 6428,
      "milionu": 6429,
      "dané": 6430,
      "rekonstru": 6431,
      "hodnota": 6432,
      "rozhodl": 6433,
      "pokles": 6434,
      "navští": 6435,
      "nejlépe": 6436,
      "##řených": 6437,
      "bohužel": 6438,
      "##tivy": 6439,
      "##menty": 6440,
      "Přes": 6441,
      "##asi": 6442,
      "##žný": 6443,
      "masa": 6444,
      "##hde": 6445,
      "##zejí": 6446,
      "vlastnosti": 6447,
      "konkuren": 6448,
      "zařa": 6449,
      "pravidla": 6450,
      "tv": 6451,
      "##stvu": 6452,
      "##adva": 6453,
      "vzal": 6454,
      "odpor": 6455,
      "tisíce": 6456,
      "odmí": 6457,
      "##spíš": 6458,
      "##lační": 6459,
      "##ki": 6460,
      "výno": 6461,
      "##ess": 6462,
      "začít": 6463,
      "takhle": 6464,
      "prodeje": 6465,
      "##stro": 6466,
      "##konce": 6467,
      "česko": 6468,
      "napsal": 6469,
      "55": 6470,
      "##ůvod": 6471,
      "##vej": 6472,
      "##myslel": 6473,
      "##armo": 6474,
      "začali": 6475,
      "nachází": 6476,
      "slad": 6477,
      "někteří": 6478,
      "produkty": 6479,
      "##tos": 6480,
      "##lné": 6481,
      "##kazy": 6482,
      "aktivní": 6483,
      "##vách": 6484,
      "lete": 6485,
      "změn": 6486,
      "internetu": 6487,
      "##star": 6488,
      "##ča": 6489,
      "Česku": 6490,
      "dostatečně": 6491,
      "Han": 6492,
      "projektů": 6493,
      "apli": 6494,
      "učitel": 6495,
      "jezd": 6496,
      "sociali": 6497,
      "Bí": 6498,
      "vůz": 6499,
      "nemůž": 6500,
      "##stali": 6501,
      "špatně": 6502,
      "ap": 6503,
      "centra": 6504,
      "cíle": 6505,
      "Ad": 6506,
      "předá": 6507,
      "ruky": 6508,
      "Kam": 6509,
      "##davatel": 6510,
      "super": 6511,
      "varian": 6512,
      "Jas": 6513,
      "##ung": 6514,
      "doktor": 6515,
      "Pí": 6516,
      "##vl": 6517,
      "Val": 6518,
      "cer": 6519,
      "pobo": 6520,
      "##čov": 6521,
      "obyčej": 6522,
      "##až": 6523,
      "150": 6524,
      "absolu": 6525,
      "příležitost": 6526,
      "##kající": 6527,
      "zrc": 6528,
      "Tady": 6529,
      "Většina": 6530,
      "nedostat": 6531,
      "inici": 6532,
      "alkoho": 6533,
      "Některé": 6534,
      "jimi": 6535,
      "##čká": 6536,
      "Sna": 6537,
      "přihlá": 6538,
      "zaznamen": 6539,
      "posou": 6540,
      "fondu": 6541,
      "Hel": 6542,
      "strana": 6543,
      "veřejnosti": 6544,
      "##čkami": 6545,
      "setká": 6546,
      "ulož": 6547,
      "stanice": 6548,
      "graf": 6549,
      "vydání": 6550,
      "2007": 6551,
      "aj": 6552,
      "##sím": 6553,
      "tomuto": 6554,
      "okolo": 6555,
      "dynami": 6556,
      "##letý": 6557,
      "uskuteč": 6558,
      "##rn": 6559,
      "novým": 6560,
      "##div": 6561,
      "##dělí": 6562,
      "seku": 6563,
      "příbě": 6564,
      "rozši": 6565,
      "dojde": 6566,
      "##pem": 6567,
      "odmě": 6568,
      "udělá": 6569,
      "##mál": 6570,
      "všechna": 6571,
      "##idlo": 6572,
      "pedag": 6573,
      "daně": 6574,
      "##sili": 6575,
      "bodů": 6576,
      "zaru": 6577,
      "plochy": 6578,
      "##kyně": 6579,
      "velkým": 6580,
      "Itá": 6581,
      "douf": 6582,
      "velikosti": 6583,
      "riziko": 6584,
      "třídy": 6585,
      "##ěl": 6586,
      "obliče": 6587,
      "účel": 6588,
      "Dále": 6589,
      "Evro": 6590,
      "##leno": 6591,
      "##šný": 6592,
      "##IL": 6593,
      "nebezpečí": 6594,
      "kritéri": 6595,
      "Zač": 6596,
      "doved": 6597,
      "##rových": 6598,
      "Af": 6599,
      "slab": 6600,
      "Jar": 6601,
      "úspor": 6602,
      "prev": 6603,
      "paramet": 6604,
      "chcete": 6605,
      "tebe": 6606,
      "Ostat": 6607,
      "konzer": 6608,
      "##rand": 6609,
      "##ňte": 6610,
      "eur": 6611,
      "##avé": 6612,
      "maximální": 6613,
      "nechat": 6614,
      "##lená": 6615,
      "jader": 6616,
      "nechal": 6617,
      "pokoj": 6618,
      "eu": 6619,
      "##ery": 6620,
      "##stiky": 6621,
      "přechod": 6622,
      "Ky": 6623,
      "všeobec": 6624,
      "vze": 6625,
      "náhle": 6626,
      "potřebuje": 6627,
      "vypo": 6628,
      "cizí": 6629,
      "předem": 6630,
      "##koval": 6631,
      "##OT": 6632,
      "soustav": 6633,
      "Již": 6634,
      "investice": 6635,
      "oblastech": 6636,
      "Nikdy": 6637,
      "##enější": 6638,
      "správy": 6639,
      "zim": 6640,
      "ZD": 6641,
      "##che": 6642,
      "poměr": 6643,
      "vyvá": 6644,
      "Přitom": 6645,
      "odvá": 6646,
      "##tvr": 6647,
      "výda": 6648,
      "nejprve": 6649,
      "zet": 6650,
      "žije": 6651,
      "koncem": 6652,
      "##řeno": 6653,
      "omezení": 6654,
      "desít": 6655,
      "pořá": 6656,
      "##struktu": 6657,
      "knihov": 6658,
      "výsledek": 6659,
      "konkurence": 6660,
      "sledu": 6661,
      "Ať": 6662,
      "lok": 6663,
      "bři": 6664,
      "Samozřejmě": 6665,
      "##bami": 6666,
      "výrobky": 6667,
      "Lin": 6668,
      "podél": 6669,
      "budovy": 6670,
      "zajistit": 6671,
      "hraje": 6672,
      "##hým": 6673,
      "Mal": 6674,
      "režimu": 6675,
      "##rka": 6676,
      "podniky": 6677,
      "slunce": 6678,
      "péči": 6679,
      "##čané": 6680,
      "aktivity": 6681,
      "##lách": 6682,
      "vozi": 6683,
      "##gií": 6684,
      "zvě": 6685,
      "##dách": 6686,
      "organis": 6687,
      "vybud": 6688,
      "zisk": 6689,
      "##IV": 6690,
      "##rově": 6691,
      "##časí": 6692,
      "emo": 6693,
      "##žívá": 6694,
      "##vaných": 6695,
      "zdr": 6696,
      "Ph": 6697,
      "propu": 6698,
      "manipu": 6699,
      "šed": 6700,
      "živoči": 6701,
      "##desáti": 6702,
      "##žis": 6703,
      "SF": 6704,
      "plast": 6705,
      "##ss": 6706,
      "dvakrát": 6707,
      "identi": 6708,
      "mladí": 6709,
      "povinnost": 6710,
      "křesťan": 6711,
      "##hnou": 6712,
      "33": 6713,
      "zavr": 6714,
      "##hrn": 6715,
      "dých": 6716,
      "##pozice": 6717,
      "##top": 6718,
      "##oriz": 6719,
      "##cro": 6720,
      "ilu": 6721,
      "##něním": 6722,
      "vyme": 6723,
      "Ab": 6724,
      "Zoe": 6725,
      "tvůr": 6726,
      "vystup": 6727,
      "ráda": 6728,
      "##žovat": 6729,
      "divo": 6730,
      "duchu": 6731,
      "následující": 6732,
      "##želi": 6733,
      "##tám": 6734,
      "Zav": 6735,
      "##řice": 6736,
      "kus": 6737,
      "generál": 6738,
      "čemu": 6739,
      "sedmi": 6740,
      "tuzem": 6741,
      "něhož": 6742,
      "podep": 6743,
      "telef": 6744,
      "uch": 6745,
      "##šly": 6746,
      "##cov": 6747,
      "dopravy": 6748,
      "##inace": 6749,
      "neh": 6750,
      "nevz": 6751,
      "výběr": 6752,
      "agentury": 6753,
      "čele": 6754,
      "Rych": 6755,
      "##mentá": 6756,
      "duch": 6757,
      "přije": 6758,
      "##čtě": 6759,
      "slune": 6760,
      "drží": 6761,
      "pracovníků": 6762,
      "Velké": 6763,
      "posta": 6764,
      "##nikající": 6765,
      "##asy": 6766,
      "pokoje": 6767,
      "Chy": 6768,
      "Hlavní": 6769,
      "Des": 6770,
      "SS": 6771,
      "nejmen": 6772,
      "##stalo": 6773,
      "najdete": 6774,
      "##čného": 6775,
      "##tního": 6776,
      "jakož": 6777,
      "tváře": 6778,
      "vzduch": 6779,
      "hlavě": 6780,
      "nahoru": 6781,
      "##nuje": 6782,
      "At": 6783,
      "##zat": 6784,
      "lidmi": 6785,
      "změnu": 6786,
      "evropské": 6787,
      "##máž": 6788,
      "##entem": 6789,
      "všemi": 6790,
      "##uli": 6791,
      "prezidenta": 6792,
      "literá": 6793,
      "jízd": 6794,
      "##uju": 6795,
      "Kan": 6796,
      "spá": 6797,
      "##kladatel": 6798,
      "vyjad": 6799,
      "bal": 6800,
      "chi": 6801,
      "##oh": 6802,
      "##měl": 6803,
      "zastou": 6804,
      "soustře": 6805,
      "##nese": 6806,
      "##zny": 6807,
      "neda": 6808,
      "dostala": 6809,
      "spon": 6810,
      "##kázalo": 6811,
      "##kovém": 6812,
      "pozitivní": 6813,
      "rozpočtu": 6814,
      "san": 6815,
      "většinu": 6816,
      "osu": 6817,
      "##AV": 6818,
      "##nostní": 6819,
      "funk": 6820,
      "##cové": 6821,
      "podnikání": 6822,
      "sdí": 6823,
      "starý": 6824,
      "zdravotnictví": 6825,
      "rý": 6826,
      "meta": 6827,
      "tváří": 6828,
      "server": 6829,
      "ekolog": 6830,
      "##boj": 6831,
      "ministerstvo": 6832,
      "zouf": 6833,
      "chuť": 6834,
      "Karel": 6835,
      "látky": 6836,
      "objemu": 6837,
      "Slov": 6838,
      "moře": 6839,
      "##lový": 6840,
      "třech": 6841,
      "měření": 6842,
      "zůstal": 6843,
      "ochran": 6844,
      "Yor": 6845,
      "rokem": 6846,
      "Wal": 6847,
      "kari": 6848,
      "nemocnice": 6849,
      "Naopak": 6850,
      "chvil": 6851,
      "ochrany": 6852,
      "nedávno": 6853,
      "Vždyť": 6854,
      "vej": 6855,
      "pozná": 6856,
      "řešit": 6857,
      "##vajících": 6858,
      "##org": 6859,
      "Praž": 6860,
      "##zvem": 6861,
      "dala": 6862,
      "vodu": 6863,
      "##leku": 6864,
      "října": 6865,
      "zám": 6866,
      "chybí": 6867,
      "spal": 6868,
      "##stického": 6869,
      "rozvoje": 6870,
      "odvět": 6871,
      "něž": 6872,
      "zeť": 6873,
      "##razit": 6874,
      "##dol": 6875,
      "Kaž": 6876,
      "##knout": 6877,
      "##nom": 6878,
      "##kace": 6879,
      "##AP": 6880,
      "managem": 6881,
      "značně": 6882,
      "##jas": 6883,
      "bezpečnosti": 6884,
      "pon": 6885,
      "##mili": 6886,
      "##šeli": 6887,
      "šir": 6888,
      "května": 6889,
      "Ač": 6890,
      "dodal": 6891,
      "##lič": 6892,
      "##mlou": 6893,
      "evropských": 6894,
      "Hlav": 6895,
      "##tina": 6896,
      "původně": 6897,
      "##sař": 6898,
      "jména": 6899,
      "nebudou": 6900,
      "##entace": 6901,
      "hledat": 6902,
      "oblastí": 6903,
      "nejbli": 6904,
      "Qu": 6905,
      "efektiv": 6906,
      "##cena": 6907,
      "ští": 6908,
      "vytr": 6909,
      "těles": 6910,
      "verzi": 6911,
      "nástroje": 6912,
      "##eném": 6913,
      "##kad": 6914,
      "##lympi": 6915,
      "Eko": 6916,
      "nejrůz": 6917,
      "##něna": 6918,
      "hnutí": 6919,
      "##zřej": 6920,
      "budoucnosti": 6921,
      "mó": 6922,
      "##lací": 6923,
      "infek": 6924,
      "kterými": 6925,
      "multi": 6926,
      "lokali": 6927,
      "##ken": 6928,
      "podzim": 6929,
      "Medi": 6930,
      "chtěli": 6931,
      "##rojem": 6932,
      "nabídky": 6933,
      "Svo": 6934,
      "náměstí": 6935,
      "mak": 6936,
      "sociálních": 6937,
      "skla": 6938,
      "Sá": 6939,
      "kres": 6940,
      "##žily": 6941,
      "společné": 6942,
      "objevil": 6943,
      "nastavení": 6944,
      "proná": 6945,
      "2006": 6946,
      "##nostmi": 6947,
      "filozo": 6948,
      "využit": 6949,
      "##ill": 6950,
      "hodinu": 6951,
      "Lidé": 6952,
      "##ident": 6953,
      "chem": 6954,
      "zásadní": 6955,
      "##tinu": 6956,
      "##bky": 6957,
      "pit": 6958,
      "##ts": 6959,
      "##avi": 6960,
      "pracovi": 6961,
      "##čkem": 6962,
      "##brid": 6963,
      "zvlášť": 6964,
      "##tné": 6965,
      "##lují": 6966,
      "června": 6967,
      "Prob": 6968,
      "##ovaném": 6969,
      "##gr": 6970,
      "přesu": 6971,
      "hospodářství": 6972,
      "mírně": 6973,
      "##ché": 6974,
      "typy": 6975,
      "nese": 6976,
      "refor": 6977,
      "maso": 6978,
      "druhá": 6979,
      "ju": 6980,
      "##des": 6981,
      "2004": 6982,
      "##chom": 6983,
      "tradiční": 6984,
      "intenzi": 6985,
      "abyste": 6986,
      "dalšího": 6987,
      "funguje": 6988,
      "Or": 6989,
      "výt": 6990,
      "správně": 6991,
      "histori": 6992,
      "kot": 6993,
      "Naše": 6994,
      "úspěch": 6995,
      "##pan": 6996,
      "Bůh": 6997,
      "řádu": 6998,
      "atmosfé": 6999,
      "veškeré": 7000,
      "zodpově": 7001,
      "vrátit": 7002,
      "##kladů": 7003,
      "představitel": 7004,
      "malí": 7005,
      "El": 7006,
      "středu": 7007,
      "Bla": 7008,
      "Os": 7009,
      "kilometrů": 7010,
      "sedí": 7011,
      "extr": 7012,
      "vrace": 7013,
      "názvem": 7014,
      "americké": 7015,
      "sel": 7016,
      "textu": 7017,
      "oku": 7018,
      "odsou": 7019,
      "Den": 7020,
      "oslov": 7021,
      "##stická": 7022,
      "rozsahu": 7023,
      "letošní": 7024,
      "materiálů": 7025,
      "##tive": 7026,
      "výjime": 7027,
      "##stěh": 7028,
      "##ovku": 7029,
      "bílé": 7030,
      "##čena": 7031,
      "##tion": 7032,
      "dole": 7033,
      "aktuální": 7034,
      "válce": 7035,
      "##ben": 7036,
      "##alizace": 7037,
      "německé": 7038,
      "závaž": 7039,
      "IT": 7040,
      "kuku": 7041,
      "zástupce": 7042,
      "Wi": 7043,
      "vaši": 7044,
      "Zna": 7045,
      "modely": 7046,
      "##fle": 7047,
      "glob": 7048,
      "kterému": 7049,
      "##leté": 7050,
      "jednotky": 7051,
      "údajů": 7052,
      "metody": 7053,
      "##ker": 7054,
      "televize": 7055,
      "TV": 7056,
      "San": 7057,
      "Kor": 7058,
      "frek": 7059,
      "dílo": 7060,
      "##zou": 7061,
      "Bel": 7062,
      "trené": 7063,
      "seg": 7064,
      "##gh": 7065,
      "##lovou": 7066,
      "pravo": 7067,
      "respek": 7068,
      "počítače": 7069,
      "podiv": 7070,
      "##rovol": 7071,
      "týká": 7072,
      "Maďar": 7073,
      "veče": 7074,
      "ód": 7075,
      "kulturní": 7076,
      "Stře": 7077,
      "krou": 7078,
      "##cházející": 7079,
      "fó": 7080,
      "vir": 7081,
      "nutno": 7082,
      "bolest": 7083,
      "ul": 7084,
      "jinou": 7085,
      "vzác": 7086,
      "Třeba": 7087,
      "Někdy": 7088,
      "bak": 7089,
      "##10": 7090,
      "formou": 7091,
      "následně": 7092,
      "praxe": 7093,
      "seri": 7094,
      "týmu": 7095,
      "finančních": 7096,
      "##80": 7097,
      "vozidla": 7098,
      "zdroj": 7099,
      "stejný": 7100,
      "šede": 7101,
      "ble": 7102,
      "##hové": 7103,
      "vypla": 7104,
      "##tickým": 7105,
      "vlastním": 7106,
      "saz": 7107,
      "1990": 7108,
      "##výcar": 7109,
      "##děje": 7110,
      "natá": 7111,
      "hol": 7112,
      "zaved": 7113,
      "vyžaduje": 7114,
      "financí": 7115,
      "Exist": 7116,
      "##já": 7117,
      "skrý": 7118,
      "dubna": 7119,
      "dobrou": 7120,
      "##ujícím": 7121,
      "vyví": 7122,
      "region": 7123,
      "##tka": 7124,
      "zased": 7125,
      "##značně": 7126,
      "75": 7127,
      "Jenom": 7128,
      "##rnu": 7129,
      "Místo": 7130,
      "pneumati": 7131,
      "##bere": 7132,
      "chci": 7133,
      "Olomou": 7134,
      "PŘ": 7135,
      "##reg": 7136,
      "plyn": 7137,
      "Mc": 7138,
      "Tý": 7139,
      "##haj": 7140,
      "minimální": 7141,
      "nepříjem": 7142,
      "##OVÁ": 7143,
      "##eda": 7144,
      "kategorie": 7145,
      "##énu": 7146,
      "vozidel": 7147,
      "případů": 7148,
      "povz": 7149,
      "zabí": 7150,
      "brambor": 7151,
      "změnit": 7152,
      "příbu": 7153,
      "sovět": 7154,
      "##zů": 7155,
      "probíhá": 7156,
      "zpí": 7157,
      "##bila": 7158,
      "Ci": 7159,
      "##pisu": 7160,
      "prsty": 7161,
      "##žku": 7162,
      "působení": 7163,
      "fron": 7164,
      "naro": 7165,
      "ses": 7166,
      "vztahů": 7167,
      "ký": 7168,
      "##orit": 7169,
      "experi": 7170,
      "cíl": 7171,
      "MS": 7172,
      "přís": 7173,
      "Iv": 7174,
      "jménem": 7175,
      "inteli": 7176,
      "učin": 7177,
      "NE": 7178,
      "1991": 7179,
      "černé": 7180,
      "souladu": 7181,
      "##menout": 7182,
      "Kli": 7183,
      "Met": 7184,
      "řeč": 7185,
      "projekty": 7186,
      "1993": 7187,
      "##žilo": 7188,
      "administ": 7189,
      "technické": 7190,
      "územ": 7191,
      "součást": 7192,
      "##ovatelé": 7193,
      "nejčastěji": 7194,
      "důraz": 7195,
      "##kupu": 7196,
      "běžné": 7197,
      "přichází": 7198,
      "Neu": 7199,
      "##novi": 7200,
      "Představ": 7201,
      "povrchu": 7202,
      "plate": 7203,
      "##žena": 7204,
      "##jezdu": 7205,
      "And": 7206,
      "sítí": 7207,
      "zdálo": 7208,
      "##staly": 7209,
      "pana": 7210,
      "are": 7211,
      "vozí": 7212,
      "Sk": 7213,
      "jinde": 7214,
      "Nikdo": 7215,
      "##chat": 7216,
      "jednoduché": 7217,
      "nepod": 7218,
      "horší": 7219,
      "Ště": 7220,
      "##niku": 7221,
      "organizací": 7222,
      "##ročně": 7223,
      "##věři": 7224,
      "osvo": 7225,
      "zajištění": 7226,
      "relativně": 7227,
      "slovy": 7228,
      "##elů": 7229,
      "sotva": 7230,
      "Bohu": 7231,
      "##padě": 7232,
      "navá": 7233,
      "kraji": 7234,
      "obslu": 7235,
      "dítěte": 7236,
      "##sala": 7237,
      "poskytuje": 7238,
      "vyvinu": 7239,
      "##leka": 7240,
      "##ovému": 7241,
      "val": 7242,
      "##livost": 7243,
      "pracovních": 7244,
      "pokry": 7245,
      "snažil": 7246,
      "kolek": 7247,
      "##ologické": 7248,
      "výrobě": 7249,
      "##mie": 7250,
      "Jedná": 7251,
      "propad": 7252,
      "##ňa": 7253,
      "##bez": 7254,
      "##tání": 7255,
      "cig": 7256,
      "název": 7257,
      "úkol": 7258,
      "odpoledne": 7259,
      "dopravní": 7260,
      "asist": 7261,
      "##tný": 7262,
      "motoru": 7263,
      "bolesti": 7264,
      "##hyb": 7265,
      "Ježí": 7266,
      "poznám": 7267,
      "Ada": 7268,
      "svazu": 7269,
      "usil": 7270,
      "##dent": 7271,
      "zábav": 7272,
      "##bin": 7273,
      "formy": 7274,
      "##vice": 7275,
      "hotelu": 7276,
      "eli": 7277,
      "klou": 7278,
      "##něná": 7279,
      "##ris": 7280,
      "dovnitř": 7281,
      "Fer": 7282,
      "reprodu": 7283,
      "rychlosti": 7284,
      "západní": 7285,
      "objeví": 7286,
      "akcií": 7287,
      "##vence": 7288,
      "těsně": 7289,
      "zůstat": 7290,
      "##OB": 7291,
      "poslu": 7292,
      "##bení": 7293,
      "##nova": 7294,
      "##lených": 7295,
      "Rich": 7296,
      "vést": 7297,
      "##žená": 7298,
      "záru": 7299,
      "##šená": 7300,
      "používat": 7301,
      "každá": 7302,
      "Přestože": 7303,
      "net": 7304,
      "platit": 7305,
      "šam": 7306,
      "proh": 7307,
      "##škod": 7308,
      "Ser": 7309,
      "formě": 7310,
      "##žek": 7311,
      "##ujte": 7312,
      "##bali": 7313,
      "##ovito": 7314,
      "reg": 7315,
      "dodavatel": 7316,
      "Rov": 7317,
      "otce": 7318,
      "Všechno": 7319,
      "##pec": 7320,
      "##lon": 7321,
      "správné": 7322,
      "##arma": 7323,
      "maje": 7324,
      "podstatně": 7325,
      "##pek": 7326,
      "přestože": 7327,
      "##ym": 7328,
      "stůl": 7329,
      "##rii": 7330,
      "látek": 7331,
      "počasí": 7332,
      "##rný": 7333,
      "vyplývá": 7334,
      "okamžik": 7335,
      "David": 7336,
      "Ovšem": 7337,
      "tat": 7338,
      "##ženo": 7339,
      "končí": 7340,
      "##kom": 7341,
      "schopen": 7342,
      "školství": 7343,
      "vysoce": 7344,
      "##livá": 7345,
      "DV": 7346,
      "asoci": 7347,
      "lehce": 7348,
      "interi": 7349,
      "vzít": 7350,
      "##ravě": 7351,
      "pozice": 7352,
      "moment": 7353,
      "mluvčí": 7354,
      "zkra": 7355,
      "Jist": 7356,
      "##AK": 7357,
      "elektř": 7358,
      "klasi": 7359,
      "dalšími": 7360,
      "naje": 7361,
      "Mosk": 7362,
      "ZV": 7363,
      "převážně": 7364,
      "nejdůležitější": 7365,
      "##padlo": 7366,
      "úsil": 7367,
      "vlastních": 7368,
      "neji": 7369,
      "čímž": 7370,
      "stránky": 7371,
      "##alou": 7372,
      "##odě": 7373,
      "cítí": 7374,
      "bytu": 7375,
      "ustanovení": 7376,
      "Gra": 7377,
      "republika": 7378,
      "##kop": 7379,
      "##kazu": 7380,
      "pokračovat": 7381,
      "olej": 7382,
      "uhlí": 7383,
      "příběh": 7384,
      "dodáv": 7385,
      "video": 7386,
      "##kej": 7387,
      "##int": 7388,
      "##šilo": 7389,
      "Ot": 7390,
      "přání": 7391,
      "##ónu": 7392,
      "##fikaci": 7393,
      "Pl": 7394,
      "výži": 7395,
      "nárůst": 7396,
      "Té": 7397,
      "sest": 7398,
      "##dku": 7399,
      "touto": 7400,
      "nit": 7401,
      "34": 7402,
      "rozv": 7403,
      "2005": 7404,
      "pozd": 7405,
      "čo": 7406,
      "ocit": 7407,
      "pás": 7408,
      "##domí": 7409,
      "sledovat": 7410,
      "přírod": 7411,
      "Škoda": 7412,
      "vozů": 7413,
      "police": 7414,
      "Nicméně": 7415,
      "##tost": 7416,
      "silně": 7417,
      "##hned": 7418,
      "mechanis": 7419,
      "##emie": 7420,
      "budoucí": 7421,
      "##čeho": 7422,
      "Vedle": 7423,
      "zahraničních": 7424,
      "Cent": 7425,
      "##íš": 7426,
      "dědi": 7427,
      "ren": 7428,
      "##ráv": 7429,
      "Sn": 7430,
      "tlak": 7431,
      "##vejte": 7432,
      "##set": 7433,
      "##cuje": 7434,
      "##řady": 7435,
      "##líme": 7436,
      "doporuč": 7437,
      "výu": 7438,
      "lib": 7439,
      "zajímavé": 7440,
      "reakce": 7441,
      "IS": 7442,
      "Tohle": 7443,
      "##hrad": 7444,
      "děl": 7445,
      "hledá": 7446,
      "##ile": 7447,
      "##stran": 7448,
      "##ván": 7449,
      "krmi": 7450,
      "Tomáš": 7451,
      "jád": 7452,
      "vle": 7453,
      "dlouhodobě": 7454,
      "gu": 7455,
      "peri": 7456,
      "kandidá": 7457,
      "začalo": 7458,
      "hranici": 7459,
      "Rozhod": 7460,
      "lam": 7461,
      "##rový": 7462,
      "vína": 7463,
      "trpě": 7464,
      "##rním": 7465,
      "dvaceti": 7466,
      "včas": 7467,
      "Jack": 7468,
      "vykoná": 7469,
      "nějaká": 7470,
      "obor": 7471,
      "začaly": 7472,
      "##zl": 7473,
      "##bet": 7474,
      "českém": 7475,
      "##matu": 7476,
      "dar": 7477,
      "našel": 7478,
      "##schop": 7479,
      "##dia": 7480,
      "vysoký": 7481,
      "1989": 7482,
      "##slava": 7483,
      "barvy": 7484,
      "2014": 7485,
      "Vů": 7486,
      "##ňoval": 7487,
      "kombin": 7488,
      "úž": 7489,
      "března": 7490,
      "sý": 7491,
      "systémem": 7492,
      "vyd": 7493,
      "absolv": 7494,
      "dveř": 7495,
      "dobrá": 7496,
      "##čte": 7497,
      "prodlou": 7498,
      "##plá": 7499,
      "##poli": 7500,
      "kanceláře": 7501,
      "MP": 7502,
      "sis": 7503,
      "forma": 7504,
      "##enými": 7505,
      "roste": 7506,
      "##vadel": 7507,
      "##žije": 7508,
      "slib": 7509,
      "##těla": 7510,
      "##ěn": 7511,
      "pravidelně": 7512,
      "východní": 7513,
      "400": 7514,
      "krabi": 7515,
      "klidně": 7516,
      "vin": 7517,
      "spad": 7518,
      "nemohou": 7519,
      "dno": 7520,
      "##ečné": 7521,
      "částečně": 7522,
      "hov": 7523,
      "šlech": 7524,
      "##tiku": 7525,
      "Člově": 7526,
      "společného": 7527,
      "aplikací": 7528,
      "měk": 7529,
      "důchod": 7530,
      "##čník": 7531,
      "žeb": 7532,
      "##pokoj": 7533,
      "##kraj": 7534,
      "komory": 7535,
      "##díž": 7536,
      "sportov": 7537,
      "##jšího": 7538,
      "rizika": 7539,
      "norm": 7540,
      "příz": 7541,
      "##pala": 7542,
      "fin": 7543,
      "kláves": 7544,
      "musíte": 7545,
      "teorie": 7546,
      "koneč": 7547,
      "bit": 7548,
      "pevně": 7549,
      "##ash": 7550,
      "##ologie": 7551,
      "Největší": 7552,
      "una": 7553,
      "financování": 7554,
      "mnohé": 7555,
      "##kolik": 7556,
      "vysoká": 7557,
      "diplo": 7558,
      "CD": 7559,
      "infra": 7560,
      "##běra": 7561,
      "##zkou": 7562,
      "přispě": 7563,
      "Než": 7564,
      "37": 7565,
      "##torem": 7566,
      "dalo": 7567,
      "##žít": 7568,
      "Stav": 7569,
      "##štěné": 7570,
      "přenos": 7571,
      "##luvil": 7572,
      "otevře": 7573,
      "způsobu": 7574,
      "zaměstnanci": 7575,
      "##mlu": 7576,
      "vymě": 7577,
      "tok": 7578,
      "prim": 7579,
      "dneš": 7580,
      "jedinou": 7581,
      "píše": 7582,
      "obil": 7583,
      "Dva": 7584,
      "spočívá": 7585,
      "##we": 7586,
      "Dne": 7587,
      "dostateč": 7588,
      "Zároveň": 7589,
      "Tur": 7590,
      "Sil": 7591,
      "rukama": 7592,
      "neměli": 7593,
      "##mání": 7594,
      "termín": 7595,
      "##kaly": 7596,
      "##ami": 7597,
      "##žování": 7598,
      "##xy": 7599,
      "ryb": 7600,
      "výrobní": 7601,
      "lásky": 7602,
      "koně": 7603,
      "přehrá": 7604,
      "slyšet": 7605,
      "zvíře": 7606,
      "##fil": 7607,
      "Miro": 7608,
      "doty": 7609,
      "červen": 7610,
      "liší": 7611,
      "časem": 7612,
      "##30": 7613,
      "Chce": 7614,
      "parlamentu": 7615,
      "produkci": 7616,
      "přiblí": 7617,
      "tvar": 7618,
      "nepřá": 7619,
      "Jakmile": 7620,
      "atra": 7621,
      "souvise": 7622,
      "aktivit": 7623,
      "##had": 7624,
      "náprav": 7625,
      "bru": 7626,
      "natolik": 7627,
      "##bar": 7628,
      "cigar": 7629,
      "##dav": 7630,
      "##xus": 7631,
      "Měla": 7632,
      "##klé": 7633,
      "tová": 7634,
      "Poslední": 7635,
      "dozvě": 7636,
      "fanta": 7637,
      "obvi": 7638,
      "##broj": 7639,
      "namí": 7640,
      "oceně": 7641,
      "uměl": 7642,
      "##váním": 7643,
      "sílu": 7644,
      "nebe": 7645,
      "skry": 7646,
      "zlepšení": 7647,
      "nádher": 7648,
      "Ver": 7649,
      "##tré": 7650,
      "změně": 7651,
      "OSN": 7652,
      "Dra": 7653,
      "veřejných": 7654,
      "tehde": 7655,
      "písem": 7656,
      "##vami": 7657,
      "Ostra": 7658,
      "spán": 7659,
      "note": 7660,
      "překáž": 7661,
      "##oden": 7662,
      "pěsti": 7663,
      "fond": 7664,
      "##nesl": 7665,
      "Proje": 7666,
      "Zvlá": 7667,
      "##los": 7668,
      "koncep": 7669,
      "řem": 7670,
      "koho": 7671,
      "rou": 7672,
      "seznam": 7673,
      "doprov": 7674,
      "##ženou": 7675,
      "motiv": 7676,
      "oble": 7677,
      "Tele": 7678,
      "vlastního": 7679,
      "##mět": 7680,
      "Důležit": 7681,
      "##spod": 7682,
      "##nář": 7683,
      "interpr": 7684,
      "zm": 7685,
      "myšlenky": 7686,
      "fas": 7687,
      "nevý": 7688,
      "neop": 7689,
      "programy": 7690,
      "Ústav": 7691,
      "##zela": 7692,
      "##bude": 7693,
      "##čitě": 7694,
      "odkud": 7695,
      "krve": 7696,
      "osvěd": 7697,
      "2001": 7698,
      "hmotnost": 7699,
      "strav": 7700,
      "##ban": 7701,
      "##dio": 7702,
      "##th": 7703,
      "##sé": 7704,
      "bratr": 7705,
      "vyhodno": 7706,
      "Velmi": 7707,
      "niž": 7708,
      "##čování": 7709,
      "obcí": 7710,
      "##mím": 7711,
      "váleč": 7712,
      "pek": 7713,
      "shromáž": 7714,
      "eta": 7715,
      "leti": 7716,
      "myšlení": 7717,
      "loď": 7718,
      "vyšetření": 7719,
      "##čným": 7720,
      "vytvoření": 7721,
      "vysvětluje": 7722,
      "##ža": 7723,
      "tvrd": 7724,
      "##šeně": 7725,
      "##žitel": 7726,
      "komunikaci": 7727,
      "vrátí": 7728,
      "Spe": 7729,
      "potřebné": 7730,
      "Mor": 7731,
      "detail": 7732,
      "vysky": 7733,
      "historii": 7734,
      "##lor": 7735,
      "zřejmé": 7736,
      "napří": 7737,
      "##vech": 7738,
      "lží": 7739,
      "uzná": 7740,
      "zje": 7741,
      "##lám": 7742,
      "nemám": 7743,
      "ža": 7744,
      "počítá": 7745,
      "250": 7746,
      "##vie": 7747,
      "zástupci": 7748,
      "##řenou": 7749,
      "Zu": 7750,
      "pohle": 7751,
      "čísla": 7752,
      "shod": 7753,
      "šanci": 7754,
      "##itivně": 7755,
      "šo": 7756,
      "##maz": 7757,
      "existují": 7758,
      "##rátor": 7759,
      "rozto": 7760,
      "##ovice": 7761,
      "##IM": 7762,
      "rozšíření": 7763,
      "pražské": 7764,
      "##vale": 7765,
      "##esel": 7766,
      "##hlédnout": 7767,
      "zní": 7768,
      "##ove": 7769,
      "certi": 7770,
      "pamat": 7771,
      "zl": 7772,
      "úpravy": 7773,
      "minimálně": 7774,
      "vývoji": 7775,
      "fázi": 7776,
      "skupi": 7777,
      "znal": 7778,
      "##átka": 7779,
      "krátce": 7780,
      "En": 7781,
      "##leli": 7782,
      "##leny": 7783,
      "jdou": 7784,
      "##kař": 7785,
      "dokázal": 7786,
      "automaticky": 7787,
      "kompon": 7788,
      "##inále": 7789,
      "sal": 7790,
      "pokoji": 7791,
      "údrž": 7792,
      "##nickou": 7793,
      "KU": 7794,
      "##IA": 7795,
      "banka": 7796,
      "piv": 7797,
      "poraden": 7798,
      "pul": 7799,
      "##šího": 7800,
      "představen": 7801,
      "zpravoda": 7802,
      "ae": 7803,
      "věří": 7804,
      "prvků": 7805,
      "##formace": 7806,
      "krev": 7807,
      "fotografie": 7808,
      "##lovi": 7809,
      "stará": 7810,
      "##díl": 7811,
      "nikoliv": 7812,
      "Tři": 7813,
      "chceme": 7814,
      "považuje": 7815,
      "ekonomiky": 7816,
      "Francie": 7817,
      "posil": 7818,
      "zemědělských": 7819,
      "zvyšuje": 7820,
      "řeči": 7821,
      "přítel": 7822,
      "##rce": 7823,
      "mechani": 7824,
      "výboru": 7825,
      "##běhl": 7826,
      "##menu": 7827,
      "vítězství": 7828,
      "##před": 7829,
      "spolehli": 7830,
      "stejnou": 7831,
      "chyb": 7832,
      "Dor": 7833,
      "##zájem": 7834,
      "##štěn": 7835,
      "aplikaci": 7836,
      "malou": 7837,
      "ženu": 7838,
      "zákazníky": 7839,
      "##pilo": 7840,
      "obchodních": 7841,
      "##blo": 7842,
      "##nicky": 7843,
      "zkušenost": 7844,
      "nejvíc": 7845,
      "jemu": 7846,
      "##čními": 7847,
      "##ota": 7848,
      "starost": 7849,
      "značné": 7850,
      "##line": 7851,
      "obvod": 7852,
      "schopnosti": 7853,
      "doplň": 7854,
      "##zrael": 7855,
      "##zala": 7856,
      "cítil": 7857,
      "Paří": 7858,
      "zaměstnání": 7859,
      "zvuk": 7860,
      "##mel": 7861,
      "trvá": 7862,
      "2003": 7863,
      "##atické": 7864,
      "Čech": 7865,
      "imu": 7866,
      "##romady": 7867,
      "Obě": 7868,
      "japon": 7869,
      "##likož": 7870,
      "farmá": 7871,
      "##zovaných": 7872,
      "##krátka": 7873,
      "Národní": 7874,
      "monitor": 7875,
      "##bytek": 7876,
      "festi": 7877,
      "Král": 7878,
      "koní": 7879,
      "intelig": 7880,
      "výběru": 7881,
      "sek": 7882,
      "##niky": 7883,
      "tisku": 7884,
      "##zdob": 7885,
      "firmě": 7886,
      "zastá": 7887,
      "používají": 7888,
      "normální": 7889,
      "##meny": 7890,
      "origin": 7891,
      "##tové": 7892,
      "žil": 7893,
      "trž": 7894,
      "voleb": 7895,
      "zhor": 7896,
      "rovnou": 7897,
      "##ruje": 7898,
      "Sku": 7899,
      "##stý": 7900,
      "poznamen": 7901,
      "##mon": 7902,
      "zabezpe": 7903,
      "##pol": 7904,
      "190": 7905,
      "většině": 7906,
      "včer": 7907,
      "fu": 7908,
      "ústavu": 7909,
      "##slova": 7910,
      "hudební": 7911,
      "činností": 7912,
      "##cími": 7913,
      "svob": 7914,
      "##FR": 7915,
      "vyhledá": 7916,
      "Více": 7917,
      "televizní": 7918,
      "cosi": 7919,
      "připomín": 7920,
      "##níkům": 7921,
      "jakého": 7922,
      "civili": 7923,
      "ovládání": 7924,
      "sor": 7925,
      "Jedna": 7926,
      "nohou": 7927,
      "programů": 7928,
      "##dělil": 7929,
      "orient": 7930,
      "chro": 7931,
      "Nabí": 7932,
      "spoustu": 7933,
      "jednat": 7934,
      "1994": 7935,
      "##kladem": 7936,
      "vdě": 7937,
      "alternati": 7938,
      "miliónů": 7939,
      "##ep": 7940,
      "Slovensku": 7941,
      "##strá": 7942,
      "##kán": 7943,
      "Bor": 7944,
      "stu": 7945,
      "ostatně": 7946,
      "horní": 7947,
      "palu": 7948,
      "kt": 7949,
      "dostali": 7950,
      "závěru": 7951,
      "Základní": 7952,
      "ží": 7953,
      "pohybuje": 7954,
      "sdružení": 7955,
      "##bek": 7956,
      "odborné": 7957,
      "##GI": 7958,
      "velkého": 7959,
      "kroky": 7960,
      "Londý": 7961,
      "nástroj": 7962,
      "##štím": 7963,
      "ada": 7964,
      "ukázal": 7965,
      "log": 7966,
      "##mes": 7967,
      "obrazu": 7968,
      "38": 7969,
      "vyčer": 7970,
      "##muje": 7971,
      "bl": 7972,
      "##roval": 7973,
      "nemovito": 7974,
      "zvět": 7975,
      "2002": 7976,
      "Tho": 7977,
      "klubu": 7978,
      "##ktory": 7979,
      "ulice": 7980,
      "Španěl": 7981,
      "##čená": 7982,
      "odvětví": 7983,
      "tudíž": 7984,
      "##desátých": 7985,
      "tiše": 7986,
      "dosti": 7987,
      "##sedy": 7988,
      "obličej": 7989,
      "##avou": 7990,
      "##ovek": 7991,
      "známé": 7992,
      "mld": 7993,
      "ohledem": 7994,
      "chud": 7995,
      "vodě": 7996,
      "##žíme": 7997,
      "pravé": 7998,
      "Jaké": 7999,
      "We": 8000,
      "##seda": 8001,
      "##žnosti": 8002,
      "nosi": 8003,
      "vrch": 8004,
      "##slou": 8005,
      "překon": 8006,
      "Nepo": 8007,
      "##činy": 8008,
      "ber": 8009,
      "##chodech": 8010,
      "vybavení": 8011,
      "##tes": 8012,
      "nabídku": 8013,
      "volby": 8014,
      "televiz": 8015,
      "##tyři": 8016,
      "##mum": 8017,
      "omy": 8018,
      "##chla": 8019,
      "ed": 8020,
      "častěji": 8021,
      "student": 8022,
      "posledním": 8023,
      "Mimo": 8024,
      "Někteří": 8025,
      "Zí": 8026,
      "##eš": 8027,
      "Max": 8028,
      "##klop": 8029,
      "pozoru": 8030,
      "zkušeností": 8031,
      "fotbal": 8032,
      "stála": 8033,
      "IN": 8034,
      "##átů": 8035,
      "dodnes": 8036,
      "42": 8037,
      "pes": 8038,
      "chodí": 8039,
      "fotograf": 8040,
      "##vize": 8041,
      "uvi": 8042,
      "##cá": 8043,
      "vyprac": 8044,
      "##nikají": 8045,
      "##roji": 8046,
      "vzdělání": 8047,
      "profesion": 8048,
      "CO": 8049,
      "černo": 8050,
      "##kázali": 8051,
      "tvaru": 8052,
      "ostrov": 8053,
      "##PS": 8054,
      "spě": 8055,
      "hlavních": 8056,
      "##UDr": 8057,
      "diagnosti": 8058,
      "##šte": 8059,
      "##zený": 8060,
      "velikost": 8061,
      "umožní": 8062,
      "vzrost": 8063,
      "##ovanými": 8064,
      "az": 8065,
      "vnější": 8066,
      "negativní": 8067,
      "kousek": 8068,
      "kd": 8069,
      "pečlivě": 8070,
      "podívat": 8071,
      "Jsme": 8072,
      "Pě": 8073,
      "##nula": 8074,
      "stranou": 8075,
      "##řitel": 8076,
      "advo": 8077,
      "Micha": 8078,
      "řekne": 8079,
      "##ted": 8080,
      "uvid": 8081,
      "komer": 8082,
      "##kot": 8083,
      "probu": 8084,
      "##fie": 8085,
      "##olf": 8086,
      "příležitosti": 8087,
      "stávající": 8088,
      "pacienta": 8089,
      "Geor": 8090,
      "##mám": 8091,
      "devět": 8092,
      "vyzkou": 8093,
      "materiály": 8094,
      "##US": 8095,
      "Cla": 8096,
      "pád": 8097,
      "připoj": 8098,
      "rakou": 8099,
      "chlap": 8100,
      "porovnání": 8101,
      "##řovat": 8102,
      "##vz": 8103,
      "Čím": 8104,
      "slí": 8105,
      "úča": 8106,
      "pokus": 8107,
      "majitel": 8108,
      "výrobců": 8109,
      "##rab": 8110,
      "ol": 8111,
      "konference": 8112,
      "Cena": 8113,
      "reprezent": 8114,
      "vzniká": 8115,
      "růž": 8116,
      "domov": 8117,
      "Avšak": 8118,
      "##kované": 8119,
      "Fin": 8120,
      "pohon": 8121,
      "Zn": 8122,
      "léčby": 8123,
      "##tury": 8124,
      "##kář": 8125,
      "##ovést": 8126,
      "##vateli": 8127,
      "Ap": 8128,
      "Systém": 8129,
      "##řeně": 8130,
      "podpora": 8131,
      "titul": 8132,
      "choro": 8133,
      "konfli": 8134,
      "Aut": 8135,
      "prově": 8136,
      "Hon": 8137,
      "##avý": 8138,
      "budoucnost": 8139,
      "srpna": 8140,
      "Lou": 8141,
      "změna": 8142,
      "mrav": 8143,
      "výjimkou": 8144,
      "jednoduše": 8145,
      "##městna": 8146,
      "##rant": 8147,
      "##zdě": 8148,
      "##ens": 8149,
      "dlouhou": 8150,
      "předpokládá": 8151,
      "##každ": 8152,
      "##orií": 8153,
      "##60": 8154,
      "##čn": 8155,
      "tren": 8156,
      "Mé": 8157,
      "kontrolu": 8158,
      "Sp": 8159,
      "##tán": 8160,
      "rovno": 8161,
      "##stání": 8162,
      "skr": 8163,
      "##ismu": 8164,
      "dobrovol": 8165,
      "medicí": 8166,
      "##žích": 8167,
      "##cený": 8168,
      "generální": 8169,
      "energii": 8170,
      "ušet": 8171,
      "inspi": 8172,
      "pracoval": 8173,
      "jídel": 8174,
      "role": 8175,
      "úsilí": 8176,
      "PC": 8177,
      "we": 8178,
      "několikrát": 8179,
      "zjednodu": 8180,
      "líst": 8181,
      "##jením": 8182,
      "poky": 8183,
      "oteví": 8184,
      "silné": 8185,
      "##jela": 8186,
      "##kují": 8187,
      "jazyk": 8188,
      "těmi": 8189,
      "el": 8190,
      "určitou": 8191,
      "koleg": 8192,
      "občanů": 8193,
      "##něno": 8194,
      "kategorii": 8195,
      "dostává": 8196,
      "máš": 8197,
      "##šťast": 8198,
      "nasa": 8199,
      "SM": 8200,
      "ZŠ": 8201,
      "údajně": 8202,
      "minulého": 8203,
      "Rus": 8204,
      "jediná": 8205,
      "##rační": 8206,
      "provádě": 8207,
      "názory": 8208,
      "Bou": 8209,
      "CS": 8210,
      "Gene": 8211,
      "Indi": 8212,
      "##zených": 8213,
      "inžený": 8214,
      "uzaví": 8215,
      "##PA": 8216,
      "hovoří": 8217,
      "seděl": 8218,
      "dokonale": 8219,
      "lak": 8220,
      "mých": 8221,
      "zastupitel": 8222,
      "čekat": 8223,
      "zdo": 8224,
      "##klou": 8225,
      "závěr": 8226,
      "podvo": 8227,
      "extrém": 8228,
      "míře": 8229,
      "Máme": 8230,
      "důkaz": 8231,
      "##votní": 8232,
      "smlouvu": 8233,
      "židov": 8234,
      "##rární": 8235,
      "způsoby": 8236,
      "soupe": 8237,
      "řa": 8238,
      "##rativní": 8239,
      "Afri": 8240,
      "člověku": 8241,
      "jednoznačně": 8242,
      "dvoji": 8243,
      "##hna": 8244,
      "OV": 8245,
      "naf": 8246,
      "proud": 8247,
      "Marie": 8248,
      "členy": 8249,
      "Německa": 8250,
      "ihned": 8251,
      "zkla": 8252,
      "čtr": 8253,
      "sobotu": 8254,
      "65": 8255,
      "Čas": 8256,
      "Dy": 8257,
      "špič": 8258,
      "zjistit": 8259,
      "mladých": 8260,
      "Změ": 8261,
      "Poku": 8262,
      "Dokonce": 8263,
      "##ovává": 8264,
      "úrovně": 8265,
      "dojít": 8266,
      "##tip": 8267,
      "kniha": 8268,
      "biop": 8269,
      "očích": 8270,
      "##isty": 8271,
      "Problém": 8272,
      "hrozí": 8273,
      "##prová": 8274,
      "Foto": 8275,
      "nepřed": 8276,
      "přístupu": 8277,
      "##jeli": 8278,
      "hnoji": 8279,
      "pšeni": 8280,
      "věnovat": 8281,
      "Lá": 8282,
      "ČT": 8283,
      "vytváří": 8284,
      "odpověděl": 8285,
      "##HO": 8286,
      "soutěž": 8287,
      "vylep": 8288,
      "##jo": 8289,
      "poří": 8290,
      "##tice": 8291,
      "##wer": 8292,
      "skupině": 8293,
      "získala": 8294,
      "body": 8295,
      "##enáct": 8296,
      "trend": 8297,
      "neděli": 8298,
      "Obec": 8299,
      "babi": 8300,
      "výroba": 8301,
      "starých": 8302,
      "kompli": 8303,
      "Teprve": 8304,
      "##tivu": 8305,
      "obá": 8306,
      "brně": 8307,
      "přispí": 8308,
      "CZ": 8309,
      "##vla": 8310,
      "škola": 8311,
      "přijít": 8312,
      "nece": 8313,
      "teploty": 8314,
      "##zena": 8315,
      "naznač": 8316,
      "výpově": 8317,
      "hoř": 8318,
      "ploch": 8319,
      "##dex": 8320,
      "tmo": 8321,
      "dlouh": 8322,
      "Meziná": 8323,
      "Cha": 8324,
      "olympi": 8325,
      "nejspíš": 8326,
      "července": 8327,
      "zajíma": 8328,
      "osobně": 8329,
      "polovinu": 8330,
      "oběma": 8331,
      "##sadit": 8332,
      "KB": 8333,
      "chtít": 8334,
      "vozy": 8335,
      "prosím": 8336,
      "opě": 8337,
      "nízké": 8338,
      "požád": 8339,
      "nemohla": 8340,
      "##rušení": 8341,
      "##gar": 8342,
      "##hodě": 8343,
      "centrum": 8344,
      "mj": 8345,
      "lékaře": 8346,
      "průvod": 8347,
      "##latit": 8348,
      "vteř": 8349,
      "jestliže": 8350,
      "zábě": 8351,
      "##šejí": 8352,
      "nejdříve": 8353,
      "##itím": 8354,
      "státního": 8355,
      "##logicky": 8356,
      "robo": 8357,
      "##kovy": 8358,
      "##nera": 8359,
      "Proti": 8360,
      "##encí": 8361,
      "Pot": 8362,
      "##anů": 8363,
      "plnění": 8364,
      "strategie": 8365,
      "kampaň": 8366,
      "pochopitelně": 8367,
      "div": 8368,
      "##vest": 8369,
      "stylu": 8370,
      "##ovně": 8371,
      "120": 8372,
      "##tici": 8373,
      "##bytu": 8374,
      "##hlédla": 8375,
      "Čechách": 8376,
      "prospěch": 8377,
      "Len": 8378,
      "AS": 8379,
      "host": 8380,
      "zaslou": 8381,
      "paliva": 8382,
      "##rot": 8383,
      "##cházela": 8384,
      "nesly": 8385,
      "##šených": 8386,
      "##ovacího": 8387,
      "##sin": 8388,
      "##valu": 8389,
      "##čo": 8390,
      "zprostřed": 8391,
      "##odo": 8392,
      "novo": 8393,
      "jest": 8394,
      "##luvit": 8395,
      "myslel": 8396,
      "##dině": 8397,
      "informační": 8398,
      "vydal": 8399,
      "##proti": 8400,
      "##covat": 8401,
      "půjde": 8402,
      "##zn": 8403,
      "televizi": 8404,
      "##mun": 8405,
      "jinými": 8406,
      "nepochyb": 8407,
      "zbytek": 8408,
      "noha": 8409,
      "##lant": 8410,
      "bed": 8411,
      "##RÁ": 8412,
      "##štěm": 8413,
      "##zdory": 8414,
      "USB": 8415,
      "##šná": 8416,
      "zamí": 8417,
      "vyrov": 8418,
      "propoj": 8419,
      "dog": 8420,
      "lodi": 8421,
      "44": 8422,
      "##jmu": 8423,
      "ticho": 8424,
      "povinnosti": 8425,
      "úvahu": 8426,
      "režis": 8427,
      "##pul": 8428,
      "kontroly": 8429,
      "##hůru": 8430,
      "vstupu": 8431,
      "pohledem": 8432,
      "##kázat": 8433,
      "srovná": 8434,
      "Dani": 8435,
      "Cor": 8436,
      "obrat": 8437,
      "##cházelo": 8438,
      "pojist": 8439,
      "agentura": 8440,
      "##razu": 8441,
      "libe": 8442,
      "lékaři": 8443,
      "děv": 8444,
      "stupně": 8445,
      "využívat": 8446,
      "vznikla": 8447,
      "m2": 8448,
      "##dělal": 8449,
      "##čům": 8450,
      "náhodou": 8451,
      "##dec": 8452,
      "Řekl": 8453,
      "poloviny": 8454,
      "dvanáct": 8455,
      "##NI": 8456,
      "##číme": 8457,
      "zobraz": 8458,
      "náměst": 8459,
      "##KY": 8460,
      "Lze": 8461,
      "##želo": 8462,
      "zdarma": 8463,
      "knihu": 8464,
      "existence": 8465,
      "##ling": 8466,
      "cca": 8467,
      "reklamy": 8468,
      "KV": 8469,
      "byzny": 8470,
      "půdě": 8471,
      "tká": 8472,
      "divadel": 8473,
      "##lev": 8474,
      "souvisí": 8475,
      "##sahuje": 8476,
      "firmu": 8477,
      "kraje": 8478,
      "posto": 8479,
      "patrně": 8480,
      "krku": 8481,
      "##éma": 8482,
      "vzbu": 8483,
      "viděla": 8484,
      "cibu": 8485,
      "##SD": 8486,
      "##kola": 8487,
      "vším": 8488,
      "##devším": 8489,
      "##hali": 8490,
      "pedagog": 8491,
      "třicet": 8492,
      "##terie": 8493,
      "dohromady": 8494,
      "tepla": 8495,
      "nezapo": 8496,
      "doplně": 8497,
      "bíl": 8498,
      "Státní": 8499,
      "ster": 8500,
      "noční": 8501,
      "ztráty": 8502,
      "##techni": 8503,
      "vodní": 8504,
      "##eli": 8505,
      "organiz": 8506,
      "##tiny": 8507,
      "zaháj": 8508,
      "##zvlá": 8509,
      "uvedené": 8510,
      "paměť": 8511,
      "šedesát": 8512,
      "zuby": 8513,
      "##rátil": 8514,
      "##rované": 8515,
      "lesk": 8516,
      "bezprostřed": 8517,
      "noviná": 8518,
      "chov": 8519,
      "společenství": 8520,
      "##inem": 8521,
      "oži": 8522,
      "poci": 8523,
      "bro": 8524,
      "vedl": 8525,
      "zůstane": 8526,
      "zaměstnance": 8527,
      "Ši": 8528,
      "netr": 8529,
      "nějakého": 8530,
      "Mag": 8531,
      "Firma": 8532,
      "označení": 8533,
      "původu": 8534,
      "CH": 8535,
      "##áž": 8536,
      "##ENÍ": 8537,
      "##šin": 8538,
      "##měrů": 8539,
      "česká": 8540,
      "mine": 8541,
      "sin": 8542,
      "venku": 8543,
      "lhů": 8544,
      "##álem": 8545,
      "představují": 8546,
      "##bert": 8547,
      "##byla": 8548,
      "technolog": 8549,
      "##šenou": 8550,
      "historie": 8551,
      "koste": 8552,
      "sná": 8553,
      "Fre": 8554,
      "##dři": 8555,
      "kontrol": 8556,
      "##něny": 8557,
      "##chl": 8558,
      "zk": 8559,
      "moderni": 8560,
      "1995": 8561,
      "zvýšit": 8562,
      "Jel": 8563,
      "##kládání": 8564,
      "kapac": 8565,
      "budeš": 8566,
      "##jíme": 8567,
      "##lohy": 8568,
      "instituce": 8569,
      "mistrov": 8570,
      "českosloven": 8571,
      "zasá": 8572,
      "dělal": 8573,
      "Mari": 8574,
      "doslova": 8575,
      "úžas": 8576,
      "##duje": 8577,
      "problému": 8578,
      "řed": 8579,
      "Vzpo": 8580,
      "ps": 8581,
      "takovém": 8582,
      "události": 8583,
      "##jíc": 8584,
      "##šíme": 8585,
      "komfor": 8586,
      "##ňí": 8587,
      "listy": 8588,
      "Nel": 8589,
      "stěny": 8590,
      "teore": 8591,
      "oleje": 8592,
      "##jské": 8593,
      "zůstala": 8594,
      "Otá": 8595,
      "##rovou": 8596,
      "politických": 8597,
      "majetek": 8598,
      "Vlá": 8599,
      "Kop": 8600,
      "závislosti": 8601,
      "perspek": 8602,
      "Ost": 8603,
      "##mace": 8604,
      "výnos": 8605,
      "profesor": 8606,
      "##TI": 8607,
      "##kátní": 8608,
      "kůže": 8609,
      "chiru": 8610,
      "##pará": 8611,
      "Cho": 8612,
      "samozřej": 8613,
      "dohody": 8614,
      "úse": 8615,
      "sportovní": 8616,
      "překro": 8617,
      "Stan": 8618,
      "##grafie": 8619,
      "zahrnuje": 8620,
      "##ality": 8621,
      "článku": 8622,
      "##isté": 8623,
      "dotace": 8624,
      "vysokých": 8625,
      "horiz": 8626,
      "út": 8627,
      "starosti": 8628,
      "##míru": 8629,
      "##sadil": 8630,
      "vydě": 8631,
      "kvalita": 8632,
      "##žných": 8633,
      "dějin": 8634,
      "dali": 8635,
      "##entaci": 8636,
      "##óz": 8637,
      "##anými": 8638,
      "inspek": 8639,
      "letošním": 8640,
      "bli": 8641,
      "lek": 8642,
      "třemi": 8643,
      "zneu": 8644,
      "##jede": 8645,
      "zákoníku": 8646,
      "lidských": 8647,
      "centrální": 8648,
      "ceně": 8649,
      "připomí": 8650,
      "zdaleka": 8651,
      "pono": 8652,
      "##děly": 8653,
      "přímé": 8654,
      "Člověk": 8655,
      "psát": 8656,
      "##rozen": 8657,
      "##dací": 8658,
      "patnáct": 8659,
      "známo": 8660,
      "sklí": 8661,
      "##OZ": 8662,
      "##ženy": 8663,
      "koupit": 8664,
      "hmotnosti": 8665,
      "Há": 8666,
      "Jedním": 8667,
      "Jinak": 8668,
      "Let": 8669,
      "harmo": 8670,
      "##šle": 8671,
      "konferenci": 8672,
      "##berg": 8673,
      "okolností": 8674,
      "##are": 8675,
      "nechtěl": 8676,
      "navrh": 8677,
      "Václa": 8678,
      "##stoupit": 8679,
      "léči": 8680,
      "úspěšně": 8681,
      "maximálně": 8682,
      "skupinu": 8683,
      "##stika": 8684,
      "mechan": 8685,
      "AN": 8686,
      "uvě": 8687,
      "formá": 8688,
      "většiny": 8689,
      "mů": 8690,
      "ideální": 8691,
      "syna": 8692,
      "slyšel": 8693,
      "ukaza": 8694,
      "zákonem": 8695,
      "Zeměděl": 8696,
      "dou": 8697,
      "oblé": 8698,
      "##adil": 8699,
      "týdnů": 8700,
      "přen": 8701,
      "Tech": 8702,
      "úvod": 8703,
      "sval": 8704,
      "Prac": 8705,
      "záležitost": 8706,
      "očekávat": 8707,
      "##ňá": 8708,
      "##mec": 8709,
      "Francii": 8710,
      "široké": 8711,
      "určen": 8712,
      "čtver": 8713,
      "##livých": 8714,
      "výrobci": 8715,
      "##ckými": 8716,
      "##bur": 8717,
      "##oty": 8718,
      "podání": 8719,
      "dostatek": 8720,
      "otevřel": 8721,
      "odehrá": 8722,
      "demon": 8723,
      "##ujícího": 8724,
      "Ivan": 8725,
      "podíval": 8726,
      "musejí": 8727,
      "papír": 8728,
      "psychi": 8729,
      "šťá": 8730,
      "Oe": 8731,
      "##ění": 8732,
      "stadi": 8733,
      "koali": 8734,
      "tlaku": 8735,
      "bank": 8736,
      "agres": 8737,
      "39": 8738,
      "státních": 8739,
      "respekt": 8740,
      "##dné": 8741,
      "##VA": 8742,
      "Gi": 8743,
      "hotel": 8744,
      "IX": 8745,
      "nef": 8746,
      "##not": 8747,
      "##pína": 8748,
      "##etro": 8749,
      "Často": 8750,
      "Doc": 8751,
      "létě": 8752,
      "žal": 8753,
      "##lis": 8754,
      "##lového": 8755,
      "strom": 8756,
      "potla": 8757,
      "hes": 8758,
      "ucha": 8759,
      "vyšetř": 8760,
      "zločin": 8761,
      "Německo": 8762,
      "sleč": 8763,
      "rostliny": 8764,
      "významné": 8765,
      "telefonu": 8766,
      "plný": 8767,
      "neut": 8768,
      "týdny": 8769,
      "nehod": 8770,
      "Bal": 8771,
      "##nuté": 8772,
      "efekt": 8773,
      "##aj": 8774,
      "typů": 8775,
      "přená": 8776,
      "##moci": 8777,
      "##řeného": 8778,
      "matem": 8779,
      "dusí": 8780,
      "prosince": 8781,
      "kamer": 8782,
      "kompet": 8783,
      "Hen": 8784,
      "čekal": 8785,
      "ŽP": 8786,
      "montá": 8787,
      "osoba": 8788,
      "48": 8789,
      "exter": 8790,
      "poznání": 8791,
      "##tura": 8792,
      "##UT": 8793,
      "##mena": 8794,
      "ryt": 8795,
      "Anto": 8796,
      "státech": 8797,
      "nahrá": 8798,
      "rodina": 8799,
      "nikoho": 8800,
      "##vati": 8801,
      "##dejte": 8802,
      "službu": 8803,
      "prohlášení": 8804,
      "##sticky": 8805,
      "las": 8806,
      "##onář": 8807,
      "mobilní": 8808,
      "##lova": 8809,
      "uji": 8810,
      "matky": 8811,
      "##krý": 8812,
      "členové": 8813,
      "Vr": 8814,
      "##nam": 8815,
      "dlouhá": 8816,
      "hli": 8817,
      "vypu": 8818,
      "ničem": 8819,
      "##řes": 8820,
      "##zkum": 8821,
      "podmí": 8822,
      "sev": 8823,
      "tal": 8824,
      "armády": 8825,
      "##každé": 8826,
      "Fak": 8827,
      "##sor": 8828,
      "pěkně": 8829,
      "zemřel": 8830,
      "Men": 8831,
      "přístav": 8832,
      "vzhůru": 8833,
      "dosažení": 8834,
      "zaklá": 8835,
      "##počátku": 8836,
      "##vál": 8837,
      "veřejnost": 8838,
      "imp": 8839,
      "pojetí": 8840,
      "Tro": 8841,
      "dětmi": 8842,
      "Podobně": 8843,
      "František": 8844,
      "potíže": 8845,
      "##itní": 8846,
      "lži": 8847,
      "##vač": 8848,
      "kapitál": 8849,
      "mnohdy": 8850,
      "Micro": 8851,
      "##ženého": 8852,
      "##něme": 8853,
      "com": 8854,
      "pok": 8855,
      "jediným": 8856,
      "##ktem": 8857,
      "prot": 8858,
      "záměr": 8859,
      "nále": 8860,
      "Var": 8861,
      "sé": 8862,
      "schopni": 8863,
      "druhým": 8864,
      "sektoru": 8865,
      "##cháme": 8866,
      "středo": 8867,
      "##ham": 8868,
      "udržet": 8869,
      "##žely": 8870,
      "předpisů": 8871,
      "proběh": 8872,
      "Zákon": 8873,
      "Col": 8874,
      "nedostatek": 8875,
      "rozhodování": 8876,
      "přijíma": 8877,
      "##ráží": 8878,
      "desky": 8879,
      "palá": 8880,
      "hlasit": 8881,
      "krav": 8882,
      "Prof": 8883,
      "DP": 8884,
      "každoden": 8885,
      "integra": 8886,
      "Nedo": 8887,
      "deva": 8888,
      "komod": 8889,
      "##vet": 8890,
      "cyklu": 8891,
      "bezpečnostní": 8892,
      "##řední": 8893,
      "čín": 8894,
      "jih": 8895,
      "dech": 8896,
      "krátké": 8897,
      "propo": 8898,
      "vidím": 8899,
      "zprávu": 8900,
      "##ózy": 8901,
      "likvi": 8902,
      "1997": 8903,
      "návrat": 8904,
      "připojení": 8905,
      "KS": 8906,
      "##stupň": 8907,
      "nakrá": 8908,
      "noviny": 8909,
      "Eli": 8910,
      "neuvěři": 8911,
      "##uješ": 8912,
      "zbý": 8913,
      "sekun": 8914,
      "##ložila": 8915,
      "února": 8916,
      "smys": 8917,
      "mladé": 8918,
      "gale": 8919,
      "planet": 8920,
      "rychlostí": 8921,
      "##rok": 8922,
      "labora": 8923,
      "ovoce": 8924,
      "pobře": 8925,
      "čes": 8926,
      "tváři": 8927,
      "Vid": 8928,
      "vítě": 8929,
      "##padl": 8930,
      "situa": 8931,
      "blíží": 8932,
      "start": 8933,
      "##noucí": 8934,
      "tenkrát": 8935,
      "##ID": 8936,
      "##ovol": 8937,
      "intele": 8938,
      "Brit": 8939,
      "klientů": 8940,
      "uplynu": 8941,
      "sorti": 8942,
      "hydra": 8943,
      "Otev": 8944,
      "pilo": 8945,
      "procesů": 8946,
      "orgány": 8947,
      "Petra": 8948,
      "plí": 8949,
      "negati": 8950,
      "tol": 8951,
      "zvířata": 8952,
      "iP": 8953,
      "vyznač": 8954,
      "usmí": 8955,
      "uživatelů": 8956,
      "##rus": 8957,
      "##hlaš": 8958,
      "karty": 8959,
      "##řte": 8960,
      "politika": 8961,
      "jakoby": 8962,
      "rozliš": 8963,
      "##ismus": 8964,
      "##žka": 8965,
      "Postup": 8966,
      "bom": 8967,
      "Chtěl": 8968,
      "Můž": 8969,
      "Pre": 8970,
      "toč": 8971,
      "só": 8972,
      "doprová": 8973,
      "##mentů": 8974,
      "inova": 8975,
      "Zku": 8976,
      "##telným": 8977,
      "##tář": 8978,
      "dveřmi": 8979,
      "smluv": 8980,
      "##rová": 8981,
      "kob": 8982,
      "Jaroslav": 8983,
      "##rig": 8984,
      "nechy": 8985,
      "hlavního": 8986,
      "zastavil": 8987,
      "pěstování": 8988,
      "Spojených": 8989,
      "desítky": 8990,
      "##niny": 8991,
      "provádí": 8992,
      "navi": 8993,
      "existenci": 8994,
      "takt": 8995,
      "hon": 8996,
      "voli": 8997,
      "##II": 8998,
      "##atoli": 8999,
      "##bio": 9000,
      "##ich": 9001,
      "zakou": 9002,
      "důklad": 9003,
      "uspořádání": 9004,
      "Byli": 9005,
      "Milo": 9006,
      "přišli": 9007,
      "##atr": 9008,
      "Poté": 9009,
      "##sli": 9010,
      "zajišťuje": 9011,
      "blízko": 9012,
      "objedná": 9013,
      "##žu": 9014,
      "##běhla": 9015,
      "oka": 9016,
      "Cílem": 9017,
      "Svat": 9018,
      "jez": 9019,
      "dok": 9020,
      "veřejného": 9021,
      "ročníku": 9022,
      "##tří": 9023,
      "detek": 9024,
      "Sim": 9025,
      "Nevím": 9026,
      "DOS": 9027,
      "##hám": 9028,
      "spotřeby": 9029,
      "##seň": 9030,
      "##hodil": 9031,
      "Tran": 9032,
      "vyč": 9033,
      "ukaz": 9034,
      "pero": 9035,
      "kontex": 9036,
      "Žid": 9037,
      "modelů": 9038,
      "sluch": 9039,
      "Př": 9040,
      "kles": 9041,
      "infrastruktu": 9042,
      "vit": 9043,
      "poměru": 9044,
      "vis": 9045,
      "##žují": 9046,
      "odpovídající": 9047,
      "vybrat": 9048,
      "loňského": 9049,
      "klidu": 9050,
      "hyper": 9051,
      "Dalším": 9052,
      "Blu": 9053,
      "připomíná": 9054,
      "běžně": 9055,
      "používání": 9056,
      "vidi": 9057,
      "hudby": 9058,
      "Tedy": 9059,
      "rozhovoru": 9060,
      "organiza": 9061,
      "UK": 9062,
      "sledování": 9063,
      "sfé": 9064,
      "každo": 9065,
      "Švéd": 9066,
      "mláde": 9067,
      "šat": 9068,
      "##istů": 9069,
      "maj": 9070,
      "klep": 9071,
      "zjistil": 9072,
      "##lích": 9073,
      "postele": 9074,
      "Kni": 9075,
      "denní": 9076,
      "ostatními": 9077,
      "hodnotě": 9078,
      "Sever": 9079,
      "režim": 9080,
      "##áme": 9081,
      "zavedení": 9082,
      "##bla": 9083,
      "vládní": 9084,
      "nástrojů": 9085,
      "##ici": 9086,
      "Bur": 9087,
      "##jila": 9088,
      "psych": 9089,
      "Jedin": 9090,
      "##rového": 9091,
      "zpráva": 9092,
      "##třebu": 9093,
      "teku": 9094,
      "psycholog": 9095,
      "##book": 9096,
      "##íc": 9097,
      "##vostí": 9098,
      "odešel": 9099,
      "##40": 9100,
      "orgánů": 9101,
      "JE": 9102,
      "Můj": 9103,
      "lůž": 9104,
      "nezbytné": 9105,
      "zrych": 9106,
      "lož": 9107,
      "poškození": 9108,
      "parametry": 9109,
      "největším": 9110,
      "vždyť": 9111,
      "školní": 9112,
      "##cená": 9113,
      "Ham": 9114,
      "VŠE": 9115,
      "##vedla": 9116,
      "Ven": 9117,
      "urych": 9118,
      "##stickou": 9119,
      "Zak": 9120,
      "1999": 9121,
      "Chu": 9122,
      "řím": 9123,
      "GB": 9124,
      "##jímat": 9125,
      "rozhra": 9126,
      "požadavků": 9127,
      "##tosti": 9128,
      "nepoda": 9129,
      "##zeny": 9130,
      "Něco": 9131,
      "divadla": 9132,
      "##čených": 9133,
      "hledání": 9134,
      "mladý": 9135,
      "Prov": 9136,
      "zařad": 9137,
      "jednotek": 9138,
      "##parát": 9139,
      "kombinaci": 9140,
      "KD": 9141,
      "##kly": 9142,
      "naděje": 9143,
      "hospodářské": 9144,
      "##vrat": 9145,
      "##čném": 9146,
      "provést": 9147,
      "centru": 9148,
      "jiho": 9149,
      "snížit": 9150,
      "vyhov": 9151,
      "spotřeba": 9152,
      "LN": 9153,
      "dosavadní": 9154,
      "##řích": 9155,
      "odstav": 9156,
      "##padla": 9157,
      "##pri": 9158,
      "srde": 9159,
      "klasické": 9160,
      "tlou": 9161,
      "nabídce": 9162,
      "600": 9163,
      "vaší": 9164,
      "zaměstná": 9165,
      "rodičů": 9166,
      "Nejvyšší": 9167,
      "zatá": 9168,
      "pomáhá": 9169,
      "zákony": 9170,
      "##zozem": 9171,
      "trén": 9172,
      "kř": 9173,
      "předvá": 9174,
      "napá": 9175,
      "skal": 9176,
      "záleží": 9177,
      "Klu": 9178,
      "rozdíly": 9179,
      "papíru": 9180,
      "##tami": 9181,
      "##cházeli": 9182,
      "prst": 9183,
      "efektivní": 9184,
      "takovým": 9185,
      "krm": 9186,
      "kancelář": 9187,
      "##dli": 9188,
      "##goslá": 9189,
      "zjišť": 9190,
      "rána": 9191,
      "##kovými": 9192,
      "přírody": 9193,
      "Plze": 9194,
      "##neš": 9195,
      "kvalit": 9196,
      "nařízení": 9197,
      "regionu": 9198,
      "##ničky": 9199,
      "rozhodla": 9200,
      "operace": 9201,
      "##dace": 9202,
      "expor": 9203,
      "OU": 9204,
      "katastro": 9205,
      "lat": 9206,
      "otázkou": 9207,
      "očekává": 9208,
      "##čeni": 9209,
      "upřím": 9210,
      "oken": 9211,
      "mladší": 9212,
      "těmto": 9213,
      "Zas": 9214,
      "##ící": 9215,
      "##dicí": 9216,
      "jakých": 9217,
      "Fu": 9218,
      "hlava": 9219,
      "##wo": 9220,
      "nimiž": 9221,
      "III": 9222,
      "##čují": 9223,
      "Český": 9224,
      "Krist": 9225,
      "modu": 9226,
      "světle": 9227,
      "stvo": 9228,
      "Mla": 9229,
      "prezent": 9230,
      "soli": 9231,
      "##tt": 9232,
      "blu": 9233,
      "promí": 9234,
      "##hách": 9235,
      "##até": 9236,
      "Goog": 9237,
      "Stále": 9238,
      "##pid": 9239,
      "ošetř": 9240,
      "symp": 9241,
      "samotné": 9242,
      "příjmů": 9243,
      "tož": 9244,
      "##endá": 9245,
      "napadlo": 9246,
      "41": 9247,
      "obavy": 9248,
      "láh": 9249,
      "tržní": 9250,
      "Prez": 9251,
      "##dělo": 9252,
      "##kládal": 9253,
      "##razila": 9254,
      "PRA": 9255,
      "##šena": 9256,
      "něčem": 9257,
      "výkonem": 9258,
      "tenhle": 9259,
      "instru": 9260,
      "intenz": 9261,
      "##avu": 9262,
      "takz": 9263,
      "Vladimír": 9264,
      "dětem": 9265,
      "adap": 9266,
      "nároky": 9267,
      "##pisy": 9268,
      "hybrid": 9269,
      "lah": 9270,
      "vysvětlit": 9271,
      "lékařů": 9272,
      "##tečná": 9273,
      "##líč": 9274,
      "snadné": 9275,
      "termí": 9276,
      "OÚ": 9277,
      "řidiče": 9278,
      "tis": 9279,
      "##ovkou": 9280,
      "##SI": 9281,
      "problémem": 9282,
      "virtu": 9283,
      "Plzeň": 9284,
      "##ktorů": 9285,
      "##rálního": 9286,
      "malo": 9287,
      "dřeva": 9288,
      "Důvod": 9289,
      "disci": 9290,
      "##ární": 9291,
      "stres": 9292,
      "Řím": 9293,
      "##roup": 9294,
      "fondů": 9295,
      "##luví": 9296,
      "struktury": 9297,
      "déle": 9298,
      "tab": 9299,
      "naří": 9300,
      "minulý": 9301,
      "##iss": 9302,
      "abys": 9303,
      "Muž": 9304,
      "stovky": 9305,
      "##vát": 9306,
      "##pán": 9307,
      "zaned": 9308,
      "##zce": 9309,
      "Sprá": 9310,
      "##šim": 9311,
      "spojené": 9312,
      "##ceně": 9313,
      "přiv": 9314,
      "Byly": 9315,
      "přijetí": 9316,
      "Žá": 9317,
      "znění": 9318,
      "studia": 9319,
      "uvedených": 9320,
      "vlastnictví": 9321,
      "##inaci": 9322,
      "##tivních": 9323,
      "zjistí": 9324,
      "nakladatel": 9325,
      "měsících": 9326,
      "##tvo": 9327,
      "stránkách": 9328,
      "realiz": 9329,
      "zvedl": 9330,
      "jenže": 9331,
      "třídě": 9332,
      "zhodno": 9333,
      "Vl": 9334,
      "zpří": 9335,
      "špatné": 9336,
      "navzájem": 9337,
      "##mrz": 9338,
      "##kul": 9339,
      "##vel": 9340,
      "fig": 9341,
      "kusů": 9342,
      "##ďme": 9343,
      "vynikající": 9344,
      "učení": 9345,
      "výhradně": 9346,
      "najevo": 9347,
      "Cest": 9348,
      "muzi": 9349,
      "usnad": 9350,
      "metoda": 9351,
      "nevěděl": 9352,
      "veletrhu": 9353,
      "##ťá": 9354,
      "##zeno": 9355,
      "##mann": 9356,
      "opravd": 9357,
      "tel": 9358,
      "uklid": 9359,
      "pozadí": 9360,
      "dosáhl": 9361,
      "##sků": 9362,
      "##pustil": 9363,
      "##reen": 9364,
      "proudu": 9365,
      "kno": 9366,
      "##pii": 9367,
      "CR": 9368,
      "##ski": 9369,
      "upr": 9370,
      "myslet": 9371,
      "akcí": 9372,
      "##áš": 9373,
      "rychlé": 9374,
      "##inka": 9375,
      "strateg": 9376,
      "kvě": 9377,
      "##loze": 9378,
      "1000": 9379,
      "tó": 9380,
      "věděla": 9381,
      "moleku": 9382,
      "##isi": 9383,
      "limit": 9384,
      "##pka": 9385,
      "standardní": 9386,
      "váno": 9387,
      "pořádně": 9388,
      "mail": 9389,
      "##rich": 9390,
      "zaká": 9391,
      "jakmile": 9392,
      "##ele": 9393,
      "námoř": 9394,
      "trav": 9395,
      "##oni": 9396,
      "had": 9397,
      "##tací": 9398,
      "Tehdy": 9399,
      "ohled": 9400,
      "toň": 9401,
      "proc": 9402,
      "##ink": 9403,
      "případy": 9404,
      "dokument": 9405,
      "tiská": 9406,
      "údo": 9407,
      "Předpo": 9408,
      "povolení": 9409,
      "IQ": 9410,
      "překvapi": 9411,
      "totéž": 9412,
      "nejbližší": 9413,
      "##xí": 9414,
      "##boli": 9415,
      "vítr": 9416,
      "Původ": 9417,
      "souhlas": 9418,
      "silný": 9419,
      "Lud": 9420,
      "##zie": 9421,
      "Bene": 9422,
      "přítomnost": 9423,
      "dosahuje": 9424,
      "1996": 9425,
      "vrací": 9426,
      "odborníků": 9427,
      "Nov": 9428,
      "víte": 9429,
      "rozsah": 9430,
      "výbav": 9431,
      "parku": 9432,
      "##řují": 9433,
      "pale": 9434,
      "##šá": 9435,
      "Sem": 9436,
      "víme": 9437,
      "univerzity": 9438,
      "zkuše": 9439,
      "knize": 9440,
      "##TE": 9441,
      "dispon": 9442,
      "zmizel": 9443,
      "jaře": 9444,
      "bul": 9445,
      "počítat": 9446,
      "luxus": 9447,
      "##rub": 9448,
      "znát": 9449,
      "##ést": 9450,
      "##lom": 9451,
      "vzadu": 9452,
      "Dan": 9453,
      "Elekt": 9454,
      "##bice": 9455,
      "beton": 9456,
      "nazý": 9457,
      "rodině": 9458,
      "investic": 9459,
      "zájmy": 9460,
      "##šily": 9461,
      "pokračuje": 9462,
      "##iště": 9463,
      "##leji": 9464,
      "and": 9465,
      "85": 9466,
      "##řez": 9467,
      "Rod": 9468,
      "Czech": 9469,
      "spodní": 9470,
      "akcie": 9471,
      "řeky": 9472,
      "seznamu": 9473,
      "čtení": 9474,
      "zelené": 9475,
      "stromy": 9476,
      "tma": 9477,
      "žalo": 9478,
      "populace": 9479,
      "talí": 9480,
      "hudeb": 9481,
      "##řeni": 9482,
      "##70": 9483,
      "Spolu": 9484,
      "optimali": 9485,
      "vámi": 9486,
      "Tomu": 9487,
      "1998": 9488,
      "přírodní": 9489,
      "##mocí": 9490,
      "nejhor": 9491,
      "hygi": 9492,
      "nebyli": 9493,
      "významně": 9494,
      "nejsem": 9495,
      "vyšel": 9496,
      "Tem": 9497,
      "odě": 9498,
      "##cher": 9499,
      "porod": 9500,
      "domy": 9501,
      "##vanou": 9502,
      "plemen": 9503,
      "ochot": 9504,
      "##lepší": 9505,
      "radik": 9506,
      "##tickém": 9507,
      "##trá": 9508,
      "uplatnění": 9509,
      "Bohužel": 9510,
      "Ly": 9511,
      "respektive": 9512,
      "vyspě": 9513,
      "zkon": 9514,
      "začá": 9515,
      "příbuz": 9516,
      "##žeh": 9517,
      "řidič": 9518,
      "##ub": 9519,
      "epi": 9520,
      "neexistuje": 9521,
      "umožňují": 9522,
      "jiném": 9523,
      "různými": 9524,
      "vůle": 9525,
      "##kládají": 9526,
      "stole": 9527,
      "Zel": 9528,
      "okraj": 9529,
      "rozhovor": 9530,
      "měnit": 9531,
      "prud": 9532,
      "odva": 9533,
      "Bon": 9534,
      "komo": 9535,
      "rada": 9536,
      "vsak": 9537,
      "##SR": 9538,
      "Net": 9539,
      "##lilo": 9540,
      "jídlo": 9541,
      "##aliz": 9542,
      "Výrob": 9543,
      "kuchyně": 9544,
      "kteře": 9545,
      "řeší": 9546,
      "klub": 9547,
      "nabídka": 9548,
      "dlouhý": 9549,
      "baz": 9550,
      "obrábě": 9551,
      "šaty": 9552,
      "Prostě": 9553,
      "rovnová": 9554,
      "seminá": 9555,
      "fra": 9556,
      "51": 9557,
      "##promi": 9558,
      "##jícími": 9559,
      "výhody": 9560,
      "dokáž": 9561,
      "individuální": 9562,
      "Dvo": 9563,
      "##vizi": 9564,
      "##nict": 9565,
      "Aleš": 9566,
      "##tan": 9567,
      "43": 9568,
      "snižuje": 9569,
      "##ózní": 9570,
      "Org": 9571,
      "týdne": 9572,
[...]
