[PAD]
[CLS]
[SEP]
[UNK]
[MASK]
!
"
#
$
%
&
'
(
)
*
+
,
-
.
/
0
1
2
3
4
5
6
7
8
9
:
;
<
=
>
?
@
A
B
C
D
E
F
G
H
I
J
K
L
M
N
O
P
Q
R
S
T
U
V
W
X
Y
Z
[
\
]
^
_
`
a
b
c
d
e
f
g
h
i
j
k
l
m
n
o
p
q
r
s
t
u
v
w
x
y
z
{
|
}
~
¡
£
¤
¦
§
¨
©
«
¬
®
¯
°
±
²
³
´
µ
¶
·
¸
¹
º
»
¼
½
¾
¿
À
Á
Â
Ã
Ä
Å
Æ
Ç
È
É
Ê
Ë
Í
Î
Ï
Ñ
Ó
Ô
Ö
×
Ø
Ú
Ü
Ý
ß
à
á
â
ã
ä
å
æ
ç
è
é
ê
ë
ì
í
î
ï
ñ
ò
ó
ô
õ
ö
÷
ø
ù
ú
û
ü
ý
þ
ÿ
Ā
ā
Ă
ă
Ą
ą
Ć
ć
Č
č
Ď
ď
Đ
đ
Ē
ē
ė
Ę
ę
Ě
ě
ğ
ġ
Ģ
ģ
ħ
ī
į
İ
ı
Ķ
ķ
Ĺ
ĺ
Ļ
ļ
Ľ
ľ
ŀ
Ł
ł
Ń
ń
Ņ
ņ
Ň
ň
ō
Ő
ő
Œ
œ
Ŕ
ŕ
Ř
ř
Ś
ś
Ş
ş
Š
š
Ţ
ţ
Ť
ť
ū
Ů
ů
Ű
ű
ų
ŷ
Ÿ
Ź
ź
Ż
ż
Ž
ž
ſ
ƒ
ǎ
ǫ
Ǻ
ȩ
ɫ
ʻ
ʼ
ʽ
ʾ
˃
ˆ
ˇ
ˉ
ˊ
˘
˚
˛
˝
̅
̓
̕
̦
̶
̹
΄
Α
Β
Γ
Δ
Ε
Η
Ι
Κ
Λ
Μ
Ν
Ο
Π
Ρ
Σ
Τ
Υ
Φ
Χ
Ψ
Ω
ά
έ
ή
α
β
γ
δ
ε
ζ
η
θ
ι
κ
λ
μ
ν
ξ
ο
π
ρ
ς
σ
τ
υ
φ
χ
ψ
ω
ό
ϑ
ϕ
Ϭ
І
А
В
Д
М
Н
О
П
Р
С
Т
Ш
Ю
Я
а
б
в
д
е
ж
з
и
й
к
л
м
н
о
п
р
с
т
у
х
ц
ч
ш
ъ
ы
ь
ю
я
і
ї
ј
ҫ
ׁ
ב
ה
ו
י
ל
ש
٭
ả
ẹ
ẽ
ề
ỉ
ἀ
ἁ
ἄ
ἐ
Ἐ
ἴ
ὄ
ὐ
ὤ
ὦ
ὲ
ὶ
ὸ
ὺ
ῶ
‒
–
—
―
‘
’
‚
‛
“
”
„
‟
†
‡
•
․
…
‰
′
″
‹
›
⁄
₂
€
⃰
ℓ
™
⅓
⅔
←
↑
→
↓
↔
⇒
∀
∂
∅
∆
∏
∑
−
∕
∗
∙
√
∞
∪
∫
∼
≅
≈
≠
≡
≤
≥
⊙
⋅
⎭
⎮
⎯
─
■
□
▪
►
◆
◊
○
●
☼
♀
♂
♣
♥
♦
♭
♯
✓
⟶
〈
汪
盾
矛
覚
鋆
ﬁ
（
）
##y
##t
##o
##ó
##í
##š
##l
##a
##s
##n
##ě
##Y
##d
##h
##v
##e
##k
##é
##m
##u
##j
##i
##r
##Z
##c
##p
##á
##ž
##f
##č
##ý
##Í
##g
##z
##Š
##Ě
##ř
##w
##A
##ů
##C
##b
##L
##K
##ň
##I
##Č
##M
##E
##Ž
##O
##N
##S
##T
##R
##Ó
##U
##P
##H
##V
##Ť
##ď
##F
##Ň
##Q
##Ď
##B
##ť
##3
##q
##ú
##D
##É
##X
##x
##Ý
##Á
##J
##W
##1
##Ú
##9
##8
##Ů
##Ř
##ę
##0
##è
##7
##5
##G
##ä
##2
##ö
##Ü
##4
##ü
##ß
##6
##ê
##ç
##å
##È
##Ö
##ë
##Ø
##ľ
##ł
##ô
##œ
##â
##ś
##î
##ń
##đ
##ĺ
##ű
##Ä
##ć
##Ł
##ş
##ā
##ø
##ī
##ã
##ū
##Ź
##ï
##ñ
##ă
##ő
##¯
##à
##®
##ē
##ά
##ε
##ι
##°
##φ
##Ć
##б
##д
##Ĺ
##Ą
##ù
##ŕ
##ţ
##õ
##´
##×
##ʾ
##ą
##Â
##Ż
##ˇ
##µ
##ż
##ʻ
##Ľ
##→
##Ŕ
##α
##¼
##Ô
##Ţ
##€
##Ë
##ź
##ξ
##Î
##Å
##ʼ
##ˆ
##Đ
##ų
##ò
##ъ
##Ş
##û
##©
##ğ
##æ
##Ê
##и
##н
##ч
##я
##м
##ы
##ļ
##ὐ
##κ
##Н
##Σ
##Ñ
##Ç
##Ű
##β
##Ő
##ɫ
##Ń
##ν
##π
##η
##δ
##έ
##σ
##ω
##™
##−
##±
##ņ
##ÿ
##Υ
##Ρ
##Ι
##Ο
##Ν
##Ę
##ķ
##ẹ
##¸
##∅
##τ
##ı
##Ś
##ō
##ς
##γ
##ὸ
##ﬁ
##÷
##ģ
##Δ
##ǎ
##¨
##ė
##ο
##▪
##☼
##в
##а
##ј
##ц
##р
##с
##к
##≥
##⎯
##ї
##т
##е
##О
##Р
##Д
##ь
##λ
##μ
##ρ
##Ă
##ħ
##ϑ
##↓
##̶
##Ï
##θ
##ή
##ῶ
##Ψ
##ὲ
##ȩ
##ʽ
##ŀ
##ŷ
##∞
##ì
##л
##Ļ
##Ģ
##Ÿ
##Β
##Ε
##Τ
##Α
##ὺ
##Ņ
##о
##ш
##і
##υ
##ὤ
##̕
##Φ
##İ
##º
##ǫ
##Ω
##ό
##ề
##≤
##ả
##●
##п
##й
##ℓ
##Χ
##Η
##ˉ
##ю
##С
##Т
##у
##♂
##À
##ỉ
##∆
##Ã
##з
##х
##χ
##ὶ
##ו
##į
##st
##ní
##ov
##ch
##en
##ou
##la
##ro
##le
po
##ra
##te
##li
na
ne
se
##ho
##ře
je
##em
##ak
##ně
##ce
##in
do
##at
##lo
##no
##sk
##an
##it
pro
##al
##or
za
##rá
##ří
st
##ku
##ni
##de
##on
##jí
##ých
##je
vy
##od
##ři
to
##ka
##ci
##ti
##né
##ky
by
##er
##to
##ad
##ší
pře
##cí
##mi
##po
##el
##na
##va
ro
##dy
ob
##vě
##il
že
##ter
##ck
##ar
##ko
##et
js
##sti
od
##mě
##ná
##lu
##mu
##ru
##av
##lá
##dě
##ého
ná
##tě
##ová
##vo
ve
pod
vý
##by
##ek
jak
##me
##ze
##vá
zá
##že
##ob
tak
pr
při
##ál
##ým
##ed
##ví
##še
##tu
kter
##ji
ně
##ez
mo
pří
##mo
si
##ém
##ta
##ním
##du
##ova
ko
##ím
##ne
roz
##ly
##bo
te
##nou
##nu
##as
mě
jed
##ové
##is
##ká
##nost
##rav
ch
##tí
##ních
##da
##uje
##ný
##tel
před
##ny
##di
##es
##lí
ale
##ist
sv
##ma
##dá
jako
##do
##ty
spo
mu
kon
in
jsem
bu
nej
vě
ni
sp
##mí
##kla
##čí
##men
##ovat
##id
##ží
##ské
vz
Po
##ště
##led
##ick
re
ka
##bu
##up
##če
##lov
##át
##ků
##pad
sou
##vní
##ční
##lou
##nosti
##kon
##jící
ho
ji
kdy
##hod
##stav
##ve
##rov
nebo
co
##vy
##jší
##tá
##my
mi
op
##sp
##ry
##ri
##kou
jsou
##hu
##bě
##za
ma
mí
##ných
##ent
##ování
##ba
které
má
##sta
Ne
##kov
##ád
##vi
##či
##se
##ži
##sí
##op
le
Na
pra
##má
##zi
##lé
jen
##žit
ze
##dí
##am
kte
##sa
##ního
##sob
##si
prá
tě
Je
vš
aby
##oru
##zí
jeho
##len
##bí
zp
##vět
##re
##oval
##stup
##klad
##jem
##om
##sto
který
##00
vše
##kt
##ově
##ovan
##pe
##leč
##ali
dě
##pu
ví
už
bý
##ené
vel
byl
##ran
##ec
##lem
##řed
##su
##ům
##chá
##ální
tu
pou
Pro
##hy
##ými
pa
##zna
##ste
nap
##ám
19
##stí
##ha
##vr
##gi
##ství
hla
vo
##inu
##ného
než
pot
##kem
##dou
zem
##zu
ži
##ši
##sled
poz
bez
##ena
tr
až
##vod
jedno
ří
##so
cel
nep
##ůže
##liv
když
li
##rů
##val
hod
##last
di
##iny
##lat
bude
To
##alší
##ovo
sy
mez
jin
##nější
##ati
všech
##děl
##eno
také
##prav
##jich
ty
př
společ
pů
##ut
##ir
##ina
prost
té
##cké
##rát
##ových
jsme
##raz
##pa
de
sa
bylo
stá
být
mož
##stat
proto
dů
##vu
která
##cích
moh
##ská
##čně
však
byla
dru
##mé
##ový
##zení
##ských
zd
##tní
##nit
##chod
jejich
če
##itu
##ského
##ský
##hle
##ují
jí
##ným
dí
či
##co
sk
##rob
dob
další
tom
let
toho
##ké
ani
ru
##ená
ten
##koli
##sky
##řej
##há
##for
něk
ku
bo
##ovi
##ct
ještě
##pi
##fi
stra
##est
zv
##gra
lid
ak
##bi
vlast
##hra
něj
pak
sku
své
živo
může
ní
přes
##kud
##be
##vat
##un
##sy
no
##tek
mezi
##sku
##ani
mno
##cky
sta
tře
##čit
nad
##tr
##chu
dá
##pr
její
prů
##eny
Če
lé
ta
##ším
##iná
vá
nez
nás
my
##ět
není
kom
Jak
##tej
##tem
vět
##pl
ex
##čas
podle
Za
##nout
zna
##šení
##rg
Do
##ený
vi
##chy
ry
##hla
##ory
##vně
##rod
ře
##eme
kde
ke
##dr
##žd
prac
##cho
##vou
##ření
##tom
##rop
tím
Vy
##ické
##ast
##bli
##ností
##ců
Pod
##mys
au
##sla
##stá
druh
prav
##ovou
##ení
##zy
poli
##teč
20
##eně
##ovala
##pí
##ček
ov
##aly
##měr
St
##vali
Mo
Ale
slu
##ané
##kr
ti
syst
##ska
čá
min
##ového
případ
##sá
##vé
##sko
##spě
sto
zač
čas
##hled
##ud
##lož
dne
##ném
##án
##lení
Kdy
##čet
so
##zd
již
##bor
svě
##sou
lo
stav
kr
##kra
##chni
##hl
fir
##ůsob
ur
##ady
##im
an
Ro
země
##kaz
čer
##ved
##ených
Pra
##um
proje
##tick
##del
##chop
stej
##ner
##hem
tedy
##ala
##ing
pov
odp
vů
##ech
pat
##žení
Ma
##ej
roce
##nění
##log
##vrop
řek
##ver
os
rů
##pis
##vají
tam
roku
zat
budou
##čky
tomu
##ležit
##čení
cí
200
By
##emi
##lep
sm
##vis
##šť
##mín
Tak
vod
##roj
##edi
##tiv
představ
pla
měl
Ně
##let
úč
##ol
každ
##pra
Ve
pá
samo
bě
##ující
nabí
nes
prob
musí
##ori
##ana
Při
##lní
##tech
nich
##rní
nemo
dlou
##stou
##stě
##rat
protože
sí
nějak
In
##us
##lad
obje
##eni
první
##roz
vyu
tý
rozhod
##lém
proti
rod
##eb
##lád
##tele
##mů
##ily
##teri
velmi
##ovali
##vání
zamě
několi
více
mal
##ene
neby
kteří
změ
svět
su
potře
Ch
##ovní
ško
byly
##čka
kli
##šel
du
##tře
ja
##stli
##ždy
##lově
##vý
nic
mili
##skou
##nika
##ký
rych
způsob
##té
par
nedo
##nad
##cha
neu
nik
org
Když
##van
##bou
##ktu
##ato
sil
fun
zí
stát
##ůj
##ence
dva
##forma
##nání
pe
##logi
spolu
Ko
##zku
##rou
stan
žád
##tor
##rost
hra
bych
##nice
těch
us
tra
##ému
Co
##řit
Ka
Zá
##enou
Od
##nov
cest
Pře
mají
##ští
hodno
SE
nám
##děla
něco
vyš
da
##říklad
##žel
des
##tra
##čil
ele
##zem
##ník
rá
třeba
Mar
##šem
obchod
produ
va
vyso
##rt
Vý
##inan
##til
kou
pos
pě
jednot
##kce
Mi
##rom
##inou
##lit
##nik
osob
##oví
pomo
Nej
##liš
##mer
met
pl
##hou
podob
nepo
pouze
Jed
přede
minu
for
##čních
##stru
já
##ském
Te
##tů
##nem
##cen
Ob
výrob
vyt
##sem
ote
nov
##kové
systém
zákon
##stan
eko
##znam
##nutí
dokon
##iti
rad
##losti
zak
##ul
##pli
##ace
##ot
star
tři
##ard
krá
##řád
této
rov
asi
posled
zná
##ag
člově
tele
##lan
##nými
##ur
lze
##žad
##rně
##kách
Al
součas
pí
plá
##zor
Bo
zeměděl
##jed
##prá
An
##ované
201
##ání
čty
##voj
##den
##rch
##ity
##por
##vatel
##sle
up
##měř
##řad
obla
##ctví
10
řad
##tro
elekt
##race
čin
##ig
199
##hlá
nech
##řá
##zace
otá
##cent
##ost
##pla
##álně
##jeme
Ná
jim
chy
plo
informa
##lý
kra
##chází
což
vždy
mé
kvali
##sah
##ilo
někter
##vším
##dob
##enci
##pit
společnosti
##nil
slov
##čku
růz
nevy
##lik
sprá
##sl
##ge
sebe
ča
##dech
##nomi
##bav
##bra
právě
##řejmě
problém
##stal
##sed
##nat
Evrop
finan
zů
##cela
Kč
##jde
##publi
##št
den
dvě
cen
stře
sna
##isí
##bý
##cím
určit
době
komu
všechny
##lost
15
##cem
##rd
kterou
jist
##tivní
základ
například
stále
Jen
mít
míst
ra
##peč
##zná
##kro
##eň
podí
případě
##zá
vlastní
Ni
ba
##nick
##gen
progra
zdra
snad
spe
##žně
##bec
##nů
koru
minist
výkon
veli
bi
##pě
##ata
Ten
##ber
situ
##dět
##lů
použí
dr
##klá
##slu
##iv
##ňuje
##oda
zaměst
čt
##sad
jde
##ména
##mou
pan
##tiž
zahra
##man
skup
prv
měla
život
vys
čí
Pr
vr
##zo
##čer
##ev
řekl
##čá
kro
##vů
republi
##ických
tří
postup
##pat
Pa
zde
Pokud
ban
##cit
ode
kdo
provo
##met
##ář
hor
svou
dvou
něm
##jte
tento
##dání
mohou
především
několik
##ovým
##hlí
vlá
##níků
##vala
##pro
větš
##kle
uved
kolem
##sil
18
zej
##řil
##ment
Se
##stra
##ách
chtě
ved
práce
##pod
##der
totiž
speci
Ja
bud
##ari
on
jeden
ostat
člen
počí
Le
##ková
kni
sed
měsí
##věd
##mat
pop
##chno
##ůž
prostřed
uni
##nici
##ila
zda
výro
Jo
techni
nem
ČR
teď
##luv
##fek
inter
zatím
##rak
hle
tisí
##tické
##ších
##stu
Podle
ener
##nictví
ok
dobře
oh
dnes
nové
pu
##zv
12
##py
vol
lá
##ovatel
##žen
##káz
jste
nev
veřej
dál
##ple
vzta
##jení
nut
##rál
tro
##nan
##ede
skuteč
##ili
##obě
##onu
kan
umě
##kam
soci
chví
##ický
Bu
Ji
Mě
ci
##ré
la
pokud
##dělá
##sel
##lek
##stick
svého
rek
##fer
##cení
och
poč
##mož
##lav
##hlé
##ským
##letí
##byt
otev
zvý
##rán
##ován
stejně
podmín
svo
Ty
proce
tep
al
##min
Sa
bar
dis
##ie
Spo
##poru
##spo
korun
byli
vůbec
podni
##cháze
##ovaly
##sud
##vyš
tohoto
##rý
uz
##řízení
##enta
Před
##dek
sch
schop
##pon
##dní
##hr
##kl
působ
prof
část
připo
hosp
##nitř
organi
hy
##řen
##gu
ny
##hov
konce
lí
ce
často
využí
##ích
ekonomi
##drž
oko
posky
##ovací
připrav
vám
možné
fak
pohy
##rac
všechno
##ven
jedin
inve
##čné
Fran
nejen
zku
##tal
##dit
##krát
##rodní
##tečně
těchto
fil
##tím
Roz
##ovy
Kon
postav
jej
gene
fo
spí
ovšem
kla
nabíd
##teli
sní
##žití
##hů
lidí
##alo
žá
naše
jednotliv
##čního
význam
##roveň
##hé
man
místo
nikdy
svých
zaji
##ned
##mý
výraz
odbor
oblasti
leto
Já
ředi
odpově
zvlá
dosta
##roje
##děli
ot
##čem
##štění
oprav
##nic
autom
##šit
spoj
nebu
letech
##emo
##ovalo
Re
přit
##šet
jas
##víc
##jících
##ději
##čin
##novu
zejména
##itel
dom
##čan
obdob
pozor
požad
##kal
##álních
říká
těž
##nes
prez
neza
per
list
##lez
potřeb
Pří
##mená
##ředí
techno
moc
##jít
nemě
rok
##ga
##udi
30
##mysl
pracovní
mimo
nemá
služ
##per
ven
tvr
muž
kul
větší
oči
##dů
##uj
exist
##kci
jež
##žil
##hrá
vás
##jím
##zní
pova
##kých
br
##čen
##lech
smě
##hat
zákaz
pořád
mil
výsled
##šk
##xi
##stva
jiné
umož
důvod
##pá
prode
víc
##nal
Má
##dal
zdravo
##sně
mohl
Proto
##loven
##sů
ním
dve
##sát
sám
##opak
zcela
důležit
##kům
politi
zji
##kami
##net
vla
dokonce
trhu
České
aut
firmy
##alu
poji
Br
rám
úspě
tla
##obil
příliš
plat
##teg
##šlo
##plně
střed
otáz
##sty
##stech
##ovaných
tou
Ru
neb
obě
prov
##zen
##plika
tvá
##rem
původ
cent
ter
##šní
auto
náv
materi
Ta
Li
##stře
Ho
hu
téměř
Vá
mod
tomto
##orů
dra
Jan
set
zase
11
spotře
Pak
např
##ale
sko
svůj
##vaz
##gie
at
##ít
##ická
##vědo
##žší
##hnout
kdyby
##lin
mat
kam
vytvo
ri
##hledem
patří
kontro
Ag
##čním
abych
##hléd
##spoň
##ody
##era
##átku
##bní
##klady
vl
##ren
##tou
tvo
mas
zapo
polo
chce
umí
okam
##hdy
##važ
lidé
sice
dalších
naši
léka
oby
nemoc
druhé
16
ab
My
##vky
zel
hist
člověk
##zel
poslední
náro
přímo
zahrani
společnost
procent
každý
##ovém
ši
##vil
bí
Mu
vých
mar
ver
##čů
##logie
##ten
##tila
části
##ron
chvíli
Sou
prostředí
##ovaný
sobě
##cie
rozdí
##aný
##bá
##pozi
rychle
reali
##cký
uži
##ita
##kání
##krač
men
##br
##kli
##hli
kar
možnost
účin
řešení
##mp
##kat
##eč
takže
nyní
##čila
##ického
mode
##šeno
znovu
17
##koj
##zaci
##lil
práci
##dení
měli
##vající
##zřejmě
##nému
vál
led
blí
##znač
čtyři
##šla
lep
##eta
ar
##cet
##lých
Vel
opat
voj
paci
začí
souvis
poku
tyto
svým
##he
získ
dří
Vz
červ
##jet
studi
ome
##ito
res
nor
největ
zab
jestli
celé
mys
##onů
tisíc
##koliv
stud
##něž
Ví
systému
##stit
pom
##vor
14
ply
vypad
25
##kových
No
neo
US
##nak
##mot
vyp
cha
trochu
##poč
sem
##ována
13
myš
##prac
##rad
slou
##prve
##žní
opět
tady
##klo
zt
poskyt
##čeká
##žství
##dění
žen
jednou
hlu
stě
kultu
domá
##OV
##entů
vyj
podstat
##son
velké
##ckých
##ér
rámci
##zuje
##sahu
chod
bezpeč
##řel
pi
dost
##lace
mnoho
##řilo
##aných
zas
##vid
návr
str
##uk
obraz
##šti
Ba
##ca
proč
##álu
zařízení
čtvr
krát
sl
řízení
##EN
vyšší
zví
života
násled
pět
hospod
##aná
bá
bra
dovo
chla
##tý
##lán
##tně
##dat
jenom
vhod
tran
přece
Vě
##cti
##hledu
##ST
dítě
##RA
##hý
zprac
ml
##ort
##něl
##vad
vši
##ráž
doprav
dobu
Vše
jaké
ky
počíta
##rojů
##kovi
hlavní
##álním
##dává
##šen
Mez
považ
##rální
##aci
období
##ními
##nila
dále
##kám
polov
vrá
Něme
##nám
##ktů
několika
nimi
povin
##tin
##čast
##ket
##ovu
vysvět
cho
foto
přij
nav
děti
zaměstnan
přístup
##ledu
##pil
##telné
přitom
jednodu
zach
##žné
aplika
zh
##les
##čera
pár
##četně
##cou
můž
##mus
##idla
##ovány
##áz
zap
Kar
mlad
##ár
##ín
doby
##bil
světa
Něk
100
navíc
díky
evrop
možná
##ováním
##šky
sebou
slo
méně
stru
amer
##dil
obrá
televi
během
##alí
aktiv
psy
##ickou
##ckého
Jeho
všichni
##myslu
nejsou
předpo
##ěji
profes
##stvo
##él
vlastně
muse
prak
##esti
pokrač
konstru
##ák
úda
##kré
##pově
Lu
uli
straně
##stává
##zovat
obec
##go
##řů
něme
smlou
##zni
prová
##méně
##sek
##olog
Byl
##anou
ředitel
##cího
dlouho
vstup
Praha
##fon
##dala
##šek
ost
##álního
Jako
50
##níci
##ktor
##ější
zprá
##žila
rodi
Vi
##vůli
kap
typ
jedna
##ada
As
vznik
půl
##vol
##tak
##RO
Pet
včetně
sty
ochra
strany
##kva
množství
##bili
##ral
zkou
##ine
věci
správ
##nul
nepří
celý
taky
neboť
##aví
##jak
##kový
později
##tera
##dně
klu
##mít
bod
les
příslu
##kým
mana
##dáv
##káza
##art
pohyb
kapit
AD
##rání
##inci
Ti
vedle
hned
elektro
##fin
gra
AV
tre
sla
es
AP
škol
stro
##níky
poh
šk
někdo
staveb
zi
něho
##čel
agen
tradi
závě
ček
zákona
ší
##kup
efek
rizi
Nem
##hor
takové
vzá
##fika
##bod
AC
vzdu
##nos
##jů
##valo
tzv
tex
prezid
##řila
požadav
tá
zákla
Už
##ška
sr
hodin
##stane
smr
dat
občan
očeká
dosá
jazy
mus
potrav
soutě
konku
prostor
##ekt
nejlep
##ovaná
De
##nd
nebude
nikdo
zdá
para
kor
jinak
světě
minister
kole
kře
tuto
vývo
strán
odpoví
dáv
##kty
zlo
##sal
##stil
me
století
jedné
AU
Au
sled
náš
##osti
někdy
##jímav
potom
##gli
teplo
charak
jehož
níž
zkušeno
výzku
##dají
urč
komunika
sub
##běh
##ticky
por
##mil
způsobem
##šli
##form
voz
Tento
pochop
##tuje
##átky
počet
##níku
obsah
mlé
jmé
La
jsi
##her
svém
jednoho
hrá
Cel
##kali
nakon
##ály
part
součá
##idel
investi
nepři
hospodář
##řa
úrov
Dí
zájem
##fo
##žeb
čist
km
##zují
##ond
##ško
rovněž
##and
Sta
##nické
ha
srov
mám
stanov
##nami
nebyl
náklad
##ke
tato
Další
kaž
vliv
dře
##vám
pomocí
##bit
pode
##éri
ES
##ouf
##sit
vid
##kládá
kraj
níz
##mem
##řené
##desát
vybav
rostli
##ft
samozřejmě
Praze
##telé
en
nakonec
nichž
opravdu
můžete
##res
šest
##pou
##měrně
##koho
##hi
##ruš
##hodu
##spí
##dila
mluv
rozdíl
odh
informace
zároveň
fy
##podob
směr
##řím
přesvěd
návště
##dělení
pé
EU
##cé
kvůli
obvy
198
##žná
##livě
##zemí
##vit
##vem
nepře
nena
Du
zdravot
rekla
hlavně
české
##telem
##stitu
##lze
##ujeme
##lání
##mit
##ňují
##vním
So
nebylo
úplně
post
tehdy
znamená
##zet
stří
##rostřed
soud
některé
vyz
ad
mm
lepší
##kého
skon
Lo
nemu
spíše
##ativní
doku
záj
bře
přá
##alý
##cká
situace
obra
Ra
dov
čtyř
špat
##vím
##fa
největší
ři
##orie
##eníze
##atím
uči
vzdělá
##zích
##verz
arch
##luje
nást
stojí
výstav
bychom
Mí
roze
##ant
kri
##pení
ag
týd
nový
zásad
prodej
##odi
##grafi
kup
ruce
sva
pros
Di
různých
některých
vody
květ
cit
mon
základní
klí
##tit
býval
Pe
##kázal
konkré
Ku
##kala
##nce
akci
##lel
budouc
nemůže
mne
uvá
##klád
##dra
ště
trh
oz
naopak
vzni
ať
Prá
přin
zby
mně
##telů
papí
manžel
Tu
tém
ser
nových
místě
pohled
Bylo
Amer
##řské
##eti
naší
##lal
Aš
##mentu
Dob
navr
##xu
##ton
náz
toto
##cemi
##sté
tem
dět
ple
pru
zbo
indi
##ovými
komi
##děpodob
spoluprá
Sy
účast
Ex
málo
celou
motor
myšlen
prou
obou
##padu
##leko
fung
sly
##vních
mohla
##krá
zemí
ceny
##žá
##stické
trá
Dě
##AN
právní
leh
dosud
##ruba
##bal
provoz
vzd
města
##sť
vzpo
##var
agentu
##nách
rozší
##tivně
čím
##zer
zastav
##uji
úřad
nevě
měst
základě
vyh
dota
začal
večer
##gy
ide
pri
jmen
##šně
firem
##anis
##slav
##stala
##kcí
##rek
peníze
pracov
##celá
Ha
##cy
mělo
##pen
zav
jiných
VŠ
##ývá
vnitř
##pt
uspo
jednání
Kr
##šné
zmí
poj
##chyb
můžeme
ori
model
rez
ČS
přev
##nějších
Ju
VI
##valy
program
Ber
Kro
skutečně
mohli
jednotlivých
##ón
##slím
##ER
přesto
důsled
##hodno
měly
uzav
Min
deset
včera
struktu
vra
poho
##lej
zřejmě
Vo
nabízí
zástup
meziná
společen
##pře
mnohem
##hne
##gist
##kovou
stup
doporu
##ic
##čím
##šak
zemědělství
povo
nu
ztrá
##sat
##CH
##ceti
objem
##ickým
zvo
##tických
40
žádné
peně
##ony
##ečně
poda
##rk
většinou
ostatní
vytvá
##ely
jednu
poko
##ord
potvr
##ováno
vývoj
výbě
##edl
resp
ves
##šil
uvědo
##rych
##én
##diska
stand
věc
ovliv
dopl
podnika
nastav
##NÍ
##lého
ká
neod
sam
kři
##zra
##dali
současné
##zně
##stů
opak
hlad
internet
komb
pově
##ino
zemi
##ice
##káže
závis
pora
Sloven
kterým
##dru
získá
praž
přesně
pěti
##adu
průbě
her
##čkou
pravidel
času
zne
širo
vedou
člověka
Pan
autor
kg
##hal
##ok
alespoň
##jíma
##soby
nezá
milionů
tan
služeb
##šku
21
pev
napro
procen
pol
nutné
##ůl
probí
hodně
překva
skupiny
musel
22
posla
far
##couz
##skými
##žené
##měst
##jícím
##atu
##měru
zajímav
máme
finanční
##kladu
mou
nebez
věn
prohlá
všem
jiného
služby
léč
zr
##inách
reži
národ
hmot
##ju
zu
##lostí
úko
##níka
24
##war
##blí
předsed
Bě
kromě
Že
##mr
##vost
naz
příprav
##mýš
boj
##LA
znám
východ
situaci
stavu
demo
pocit
vyvo
##těz
##lie
##kry
##kres
osm
Sém
mech
mnoha
##čej
státní
firma
domů
##chů
regi
slova
spou
kateg
##rali
##vili
dobré
odpo
##štní
USA
##ia
##kového
Tato
zhruba
##ině
##cům
Není
závod
běž
##váme
srd
platí
okamži
##graf
prostě
##terá
##kají
Zatím
lu
##dla
konci
##řít
dělat
roky
##ore
nejlepší
udě
následu
řád
##čce
jich
##žili
problémy
nějaké
##nie
##kova
##eného
samot
plán
##pozici
chtěl
blíz
pozi
zra
##chem
obli
vždycky
##spek
rozhodnutí
fa
projekt
hru
zatímco
fran
##50
##pozor
red
##prvé
##vých
mlu
aktu
Proč
posu
##xim
##kově
třetí
energie
##boru
uděla
školy
partner
00
##itě
bole
posledních
První
##nictvím
##IN
hlas
##slo
Me
##vyšší
vzdál
zvu
výji
Va
malé
sedm
im
Pav
proces
řekla
##raci
rukou
kru
##ovaného
Hla
ústav
##oc
rád
Společ
##fé
dlouhod
poru
Zem
kří
cenu
velice
doda
nového
cena
##nějším
##niž
##éf
pís
tolik
##rovna
##znamen
sama
vari
kle
republiky
čem
předmě
ona
těm
vidět
##kosti
##lené
kab
cy
slož
##zdy
minut
##plo
vědo
##ler
vlád
ane
zlep
ut
typu
##aného
pozem
jejím
velký
Dá
##těl
fon
##tky
zad
kW
podpo
##hlas
pravděpodob
Byla
kancelá
##čeno
odst
opera
úz
##ja
němu
našich
uplat
šť
##lně
##opis
oba
daleko
příjem
ano
Mezi
opti
technologi
defin
Ze
##jednou
místa
##nech
vede
menší
zahá
jejichž
##vka
podpor
##end
popu
zvíř
##OS
jakou
západ
##ův
##enti
Jestli
komple
##ckou
zmi
194
zvyš
##řili
##smu
stani
##DS
jistě
Nez
smí
Bar
Kromě
letos
##pal
##čný
ozna
kre
tri
hlediska
Sb
##hlo
ramen
pokle
němž
univerz
svá
Jin
prý
Jsou
##ik
##vila
Čer
stál
kterých
novin
stí
Seb
příležit
přiz
##onální
##více
nelze
dy
dal
nějaký
##pas
ženy
##kém
vyšet
##aty
anti
##skem
výrazně
obyvatel
tvoří
##zací
průměr
##však
sociální
vlády
programu
##sme
sami
Dru
udá
nebyla
##kost
působí
##žený
##tický
He
Dů
##říz
založ
##vaná
pamě
##vější
pad
kry
došlo
posti
vůči
##nek
##og
VA
činnosti
##sloven
##hrnu
jaký
##telně
lidi
ned
##lila
chu
##jel
energe
sně
be
dopis
##cku
##teří
reak
##rech
60
Nik
##rozu
telefon
kilo
oce
##hody
medi
dětí
hlou
##nilo
Přesto
##tili
Tě
domu
území
publi
##jíž
##jedno
##moc
##teř
možnosti
státu
##zdu
dříve
pomoc
informací
##hro
##prava
dola
##padá
##pak
Ar
Ří
sá
##hn
##šením
deseti
automobil
##dce
vyjád
##bývá
Jose
Nap
##káž
##enty
Ani
konkur
náklady
##telný
##stoj
tur
##ovky
Jiří
tisk
##ají
úto
demokra
##orii
##álů
podporu
žádný
pas
podmínky
##OR
vyrá
dělá
neob
drob
23
lin
##žela
člán
mrt
nesp
takový
doz
jiný
paní
##ovanou
Tře
bohat
zpět
mla
republice
##ese
##elu
ge
skoro
##mně
196
prvním
spole
lety
přítom
Česko
abso
##cko
##itá
noci
jedná
Pou
Ještě
Cí
sním
funkce
trest
##kazuje
roční
titu
hlavu
byd
změny
žena
příj
akce
nižší
##ude
stal
cm
sli
disku
řadu
stop
tvor
projektu
Vět
##lec
Ri
Bez
##AT
##stava
fot
##něné
obchodní
zep
nechá
##žer
##rum
vešk
obrov
##čili
loň
sec
film
##náct
##etě
krás
nesmí
scé
am
archi
institu
uživatel
##mální
každé
##ary
##fici
opatření
Kdo
80
##AR
hr
sví
dveře
můj
součástí
data
Rad
dvěma
dlu
##odu
##akou
##žitě
hud
blo
kamen
hlavou
disk
##mali
Ing
Ned
minim
SEK
sport
úst
majet
##ardy
SEA
sym
Jde
klas
##chodu
##tace
syn
maxim
doma
maji
rodin
Čí
Be
názor
výsledky
Teď
Nic
##keting
dopad
řidi
zob
hlubo
##rie
##čích
ruku
OS
tun
##čít
zprav
SEŠ
##enu
SEČ
##pce
VP
leg
##íme
##any
Bra
různé
střední
##prez
##cházejí
II
##eri
##vého
##působ
řada
##žet
##LE
moci
dostal
princi
or
##ex
vzor
sig
využití
zboží
##vatele
##jícího
inf
pre
vypl
snaží
Ry
vyv
Evropě
Vla
určitě
postupně
Nebo
jednoduch
zvy
hro
tj
poně
##poj
VS
Vác
ztra
lit
##pů
Kdyby
Každ
obvykle
Stá
nač
prázd
výše
fi
vyhlá
##tala
příští
rela
českých
brá
##mení
slav
roli
udrž
##hodou
kost
trans
##lky
dispozici
zpo
přiroz
VB
chrá
##volu
##amat
čtvrt
lépe
py
Sch
hou
dop
psycho
výroby
podá
Ca
##nili
##dili
bezpečnost
nato
##leně
přísluš
prostřednictvím
##ff
formu
hroz
Par
##šené
Tr
poté
myslí
dvo
stou
dospě
tva
září
uvedl
vyžad
Si
někde
##sen
poměrně
vedení
##nej
kterém
čast
komuni
týden
##etu
##eru
##rny
Naď
dce
##livé
kontak
mot
uží
##str
pole
##dří
##stoupil
##kční
vzájem
moder
vybra
as
vztah
našeho
##čko
##out
invest
##kovat
kal
teprve
##líb
průběhu
##vidu
staro
znamen
##čuje
speciali
##jezd
##IT
hovo
mist
cestu
Také
##OU
vysoké
kterého
##saz
sklad
##zením
##dlo
buď
sklo
poprvé
vaše
upozor
fá
Mat
umožňuje
adr
nemusí
197
2010
kur
##stří
standard
pó
mobil
##entu
špi
francouz
druhý
##tická
Ev
zdů
převod
##ince
prod
Tím
odliš
##nemoc
opu
##alá
letoš
vním
otevř
odpad
Asi
neměl
Su
samostat
dvoj
půdy
inten
přípa
řady
hled
práva
##ance
činnost
##ger
organizace
regu
Pol
om
##anu
dokumen
##řela
##io
skutečnosti
parla
##vku
##ON
prostoru
mohlo
jenž
Stej
smyslu
budu
##eným
provozu
##sav
##ňovat
##ribu
novou
oc
Všech
##laci
Ano
začala
obtí
##tiva
jméno
kapa
##dé
uprav
představuje
úrovni
nim
histor
##dem
celkem
nema
růst
##sch
označ
mlá
mnou
použití
klá
kol
kolo
fakt
právo
##anta
spis
##ostí
##metrů
umístě
čet
##jně
smrti
přibli
věcí
důležité
chování
##bud
Lid
##fu
subje
med
umění
Vždy
žid
konečně
oto
nád
##tického
většina
Nad
Aby
druhou
šéf
##šťov
pomoci
##tva
Tyto
pali
ope
charakteri
##sní
stran
okol
ovlá
sever
důvě
hodnoty
konfer
kolik
budeme
předpis
zú
##pila
##vin
##razil
##pří
přišel
úprav
##adí
Možná
PO
omez
lékař
promě
##jetí
##vek
##ld
##zek
časopis
nová
práv
##tern
předcho
celo
jeh
hvě
rozvoj
sniž
záko
pomá
podla
Protože
stat
zemích
##uro
sti
SI
viděl
velkou
onemoc
udělat
nepro
stalo
podrob
hodiny
##lku
směrem
drá
nově
##něn
společností
věku
##teré
případně
složit
krit
svobod
stejné
##jímá
analý
souvislosti
byste
##čilo
del
šesti
jít
##nut
kriti
##cu
##hání
vešker
##razi
dél
##aru
přiná
Go
naho
##ovit
podíl
##lka
vide
anebo
jedním
test
##komu
##gii
##tla
počtu
SR
##ona
funkci
##ivní
pohledu
##mile
##enost
pěst
angli
mor
použit
##ilí
prezident
vyprá
zdě
##CE
popis
##alé
říct
vojen
##itivní
##čemž
Jejich
ohro
##ujících
vítěz
technologie
chá
rostlin
Petr
2011
##nské
fotografi
##ros
##sila
polož
barev
##vnitř
okra
ozná
provede
sen
Jsem
ků
##kři
Prav
Česká
svými
marketing
##rací
Ge
##šila
dub
nevi
produkce
životní
Jedno
apod
##qu
##cii
Její
##klada
Da
##stavě
nábo
divad
##ňování
##xe
Dnes
rozpoč
záležit
##mír
rozvo
##cka
vé
spolupráci
Win
##vak
okolí
##tali
životě
objev
prom
výkonu
Až
sloven
začátku
rozhov
##dná
Nak
##20
obsahu
Minist
nau
potřebu
tlu
Mno
příst
##smě
##ledne
odmít
Ameri
rádi
zahraničí
Díky
##dro
podařilo
26
získat
##lových
děla
ocho
##ickém
ga
##chi
stroje
návrh
##ací
abychom
##pravě
##gem
##hav
hlá
psa
napo
Evropy
sob
daň
##inář
příklad
potenci
##mb
jím
##ovět
Nech
premi
vztahu
úvě
dosa
řadě
##han
tým
viz
podobě
děj
##veřej
35
##entní
##mní
nejvyšší
tohle
##nických
ráno
nezávis
manažer
##lada
zvláštní
##plat
bou
strá
##SK
##os
peněz
28
há
##ety
##dej
##rky
##hužel
usku
Řek
peč
spíš
##růst
spl
nadá
celá
##hel
máte
##těž
90
podnik
Fi
přičemž
dist
##EL
##tních
výši
dostup
médi
vele
srdce
Samo
kuchy
byt
nedáv
##skému
##mech
##vací
zapla
##čením
výmě
případech
posí
zdravotní
unie
slovo
##deme
##stila
nená
ner
muže
dobr
moje
regist
říj
elektr
Ži
##oná
##hly
pomalu
neú
plu
vf
Hu
schvá
##ktiv
docela
pořad
##řem
tajem
##rné
hrom
zajišť
kampa
##zky
##tečné
27
2012
##vým
##ont
tabu
tělo
kat
##pečí
výzkum
listo
exper
nen
##krom
##ps
##telná
snadno
##vosti
##ster
##las
kombina
pohybu
odvo
Kom
##vení
Větš
##něji
najednou
##niční
dolarů
používá
zásob
říci
##adla
připad
cesty
čtená
##klu
##čná
tru
##ED
##cházel
sprav
cuk
zvýšení
##ďte
##ložit
##lena
##dky
prote
občas
Ga
##ET
úva
obr
nas
nedosta
##ložení
##enosti
še
vláda
druž
podobně
##ujete
##soci
##gan
odpověd
úsp
příro
##slov
nal
New
klíč
##ml
vrcho
##žím
napad
jasné
zved
naprosto
##řka
nápad
##mění
poví
aniž
70
##řením
velkých
procenta
##dl
dodá
##nci
prodá
##hot
prohlí
atd
Evropské
##slí
dny
Mil
##jších
pozdě
##stále
výbor
plně
zpracování
vytá
##otu
muži
##ks
smysl
péče
Jenže
##tickou
lou
uvaž
Vši
ukon
přines
##fr
Šk
těla
jednom
povrch
nať
domácí
nějakou
Nes
vysí
měsíců
##nutím
sítě
banky
##čené
naň
##čk
možno
značky
odrů
Hor
zdrojů
##lt
zaměstna
současně
vystav
aplikace
##jní
##aticky
Bude
##žky
##zeň
Man
mini
##cování
ly
ruka
pán
Op
bio
problem
přeno
##tev
odhad
pěk
##fe
Měl
zan
uvol
inform
želez
var
Takže
Pat
nekon
osobní
##logické
smlouvy
dostat
##avíc
##átor
spokoj
zakáz
nezbyt
vzduchu
##dám
dolů
##něte
skupin
##oe
Uni
Pi
spočí
##mará
léta
převá
##port
##jích
Ny
oddělení
národní
najde
neg
##nily
oblast
prostředky
obsa
193
Ir
téma
##zační
tera
rozu
##růz
Stu
podmínek
fyzi
řez
##rají
poslou
Právě
filo
##isla
individu
neví
díl
brzy
##kuje
pojišťov
spoluprac
##chal
nesta
konzu
ste
hlí
reprez
Stra
českého
začíná
odstra
##ise
zabý
muze
komp
duše
adres
Zatímco
45
##ýma
též
spotřebi
hně
##tora
##ýt
využít
##teratu
##lové
náhra
Rob
pozornost
stroj
ptá
nejvíce
Jež
aspoň
emi
Hod
##rb
Dav
celého
##uper
tř
##nácti
zavá
Každý
Tom
poško
##teční
žádo
##kázala
dlouhodob
##exist
dochází
##KA
##bách
podniku
komise
zpátky
dveří
dia
kní
Země
ST
strate
##odní
##hledá
Ke
2000
dům
tvář
vidí
##jším
dát
snížení
hrd
otec
ostatních
muset
vydá
NA
##pres
řetě
##žením
##dka
##hlédl
##vůr
ač
Může
proved
##vedl
zbra
Něm
armá
##000
Prů
knihy
##tah
zru
##gin
Svět
Navíc
každého
##míná
srovnání
ošet
##ii
nemají
##nky
možností
Jaro
##mav
rychlost
##rovná
našem
zrovna
logi
##ere
Prahy
miliardy
takto
starší
##ováni
zápas
zkušenosti
pokr
zákazníků
řá
##znamená
##rních
##hají
##leb
stranu
##řuje
##ktivní
##ďar
zdůraz
potřeba
PRO
spol
vnitřní
společně
##EM
nalé
výrobce
Vol
vojá
praxi
Car
věde
určité
tímto
svat
jejího
soukrom
zemědělské
zb
konf
noc
spor
dla
##ingu
31
##rátit
##mal
dalším
přátel
##ftwar
##zal
podp
##ůh
předtím
dní
dot
##rové
Kra
soused
moderní
##řování
##děj
sbí
##hnu
##lob
##jat
Mas
Ben
Con
##jev
##vést
zdraví
##leží
##cházet
Har
číslo
kó
příč
mikro
##skyt
prakticky
půj
vyb
skutečnost
nos
uka
skvě
výjim
##die
##ng
##chov
otázku
##tách
ped
##sledek
budete
Lí
Ste
úspěš
##hých
##řily
systémy
amp
##mos
Poz
##zené
##tat
ný
cestě
bývá
cílem
profesi
Fo
##ckým
války
##znamu
nemohl
##átní
úřed
Hav
pracovat
tvrdí
mění
lev
vhodné
loni
reag
##dalo
dem
rozhodně
počítač
##itou
propa
##lární
milió
##nt
zahrnu
##poz
##svět
námi
reál
síť
##ws
podzi
SN
Hra
nijak
2009
okamžitě
otázky
mezinárodní
##lovat
výhod
zůstává
ministr
##tují
jel
požadavky
##ovaným
Musí
##čnost
##one
hude
charakter
mr
##ceme
metod
SV
musíme
##obec
Josef
##ble
mysle
##nová
plod
vs
##rgu
##mila
město
symbo
##produ
rodiny
##slech
##OM
signá
##AL
mluví
##stvím
uměle
počátku
šel
Zde
##zím
očima
deta
##git
nadále
##éru
konkrétní
najít
Star
mimořád
Martin
slouží
mohu
čeká
of
##hc
##vlá
bankov
##vané
##par
##mar
##rávně
##kovým
hlavy
##stau
rozum
um
mléka
##onstru
vzhledem
podstatě
##jit
##land
##stili
Všechny
sle
Například
projev
kamará
vaz
##kými
195
stabili
##cion
vybí
byť
avšak
##cin
šlo
##roti
##odí
nikoli
spojení
procesu
nesou
##lela
literatu
##řený
##inami
Základ
kola
pravdu
##čtí
Tam
##nicí
##lím
web
původní
et
dosah
vyrob
malý
přijde
divá
Českosloven
brat
prospě
##AD
##avy
potí
##smus
nákladů
poc
důvodů
mohly
věděl
vych
svému
2013
poněkud
využívá
##nové
jé
##IC
úlo
dobrý
mého
politiky
nahra
komplex
Dr
##rala
rozdě
obo
námě
prostředků
hře
dle
brit
hot
Nová
##hlu
ukáz
##třeb
desig
##zda
##cát
##čnou
živ
vedoucí
zabez
##ladu
##oucí
##ckém
Zd
Rá
##car
ša
světlo
##koná
zlat
pojištění
tí
##brž
provedení
Mus
všeho
##kan
obchodu
použít
##stém
##pie
zvířat
architek
Podob
uvádí
dokáže
##lid
##jme
vlasy
metrů
##stem
výrobu
##řena
potřeby
Per
Hy
pry
##mene
hry
úno
orgán
Ře
zes
sdru
velká
HD
existuje
Pla
žlu
dlouhé
Mám
síly
vyrábě
spu
schů
mani
##etr
Fa
vrst
jem
dokud
ran
##hoda
##jedná
##klid
##EK
zastup
nohy
sez
klo
hodnocení
nebezpeč
##paněl
přibližně
##savad
##měry
ole
##ýn
##slední
##nete
speciální
##při
vědět
napě
Ce
neustále
klid
onemocnění
ulici
PR
Stejně
##cené
jediný
zúčast
pát
fede
distribu
jejích
politické
##níkem
##torů
##lým
##stin
vypadá
##neme
kvalitní
##NA
srp
zla
aku
vývoje
##počet
svoji
##mněl
rece
##střed
##nět
##rami
nechtě
círk
##jen
29
úroveň
rozhodu
chlad
##lík
##bylo
##mati
Společnost
vystou
zvlád
##říž
SL
radost
pne
ofici
##nají
##pel
redak
smu
chtějí
mysli
Wil
postavení
##lice
verze
##též
stati
problémů
##zdí
prvních
dodává
každém
Kla
ministerstva
bran
ově
dvacet
##skup
osoby
průmyslu
##lát
doj
##lová
##zované
stala
systémů
doh
##OD
plynu
nýbrž
míry
příspě
rak
městě
minulosti
znak
##bem
plánu
souhla
##ation
##red
výz
##rku
##myš
##ovaní
dává
zadní
udr
##IS
##ňující
naj
konec
nákup
mluvit
##stři
##chou
dnešní
##sm
he
##lili
##ES
##vního
poste
zah
##leh
##UD
priv
##hala
klad
částe
For
Krá
##lynu
Lé
technologií
měsíce
celém
úro
myslím
dávno
##čítá
Ča
států
úsmě
nejdří
králov
##ovin
rozp
dostane
Kde
##zování
izo
cestou
##tik
skli
konstrukce
##ley
poro
##taci
generace
komunikace
##tít
##nó
disple
taková
Václav
spat
pacientů
##bel
##spi
takového
listopadu
veletr
privati
##denti
zni
zdroje
předseda
napl
leží
Por
nejčast
Auto
##éra
ovo
##gram
diag
##chý
rady
##rovnání
stolu
zo
##nku
##kor
matka
##stanov
pravda
Ban
fyz
podniků
neexist
Sto
pen
##vce
jednotlivé
##žuje
zbav
uvnitř
okna
##ktoru
##vedení
miliard
vlh
soudu
Toto
kvality
nábožen
dvaná
dé
##násob
výstup
##nii
##fikace
staré
##razí
Ter
##řeny
##stní
zdi
Ved
druhého
majetku
##čt
cvi
On
dnů
vylou
Bi
##čeb
vyře
##zev
Her
##ovacích
##nali
zahraniční
##leg
akt
důvodu
Potom
##AM
##můž
##lému
krok
##bilní
kontra
přízni
jejíž
digit
setkání
takovou
##orem
Bru
zaměstnanců
##isto
softwar
Brně
osla
zvláště
schopnost
##adi
##telu
účet
Myslím
##pci
##loží
integ
##har
otázka
podnikatel
kov
##vot
##ista
##lce
činí
zájmu
shro
restau
##sťan
##kování
Všichni
##ase
svaz
##adlo
servis
##aným
##dilo
##adě
jasně
Vyso
pohod
váš
vrátil
##řená
techniky
##šeni
Tomá
##rovi
##bora
##ilu
##kát
##gres
šťast
místnosti
stačí
##nově
vzniku
##odpově
##ini
##čných
trval
##anci
##bů
žádná
##ela
##sné
poly
##odob
##lv
pracuje
denně
potravin
strach
##žených
Vlast
okres
čerst
soutěže
##hodně
neroz
inte
Jana
pokro
výrobků
rostou
port
nástup
rozsá
přeprav
Jestliže
vím
IP
##ickými
OK
##ložil
##lín
##př
místní
##žád
sho
auta
##ovka
ohledu
vzpomín
transp
mul
dnech
##poví
500
výš
Spoj
štěstí
Dop
problemati
skupina
Přit
##sáti
nejvý
##důležit
SK
druhů
##lenou
musím
##lépe
##vodu
plné
monit
2008
zách
vysoko
##telných
ročně
soubor
zaří
začne
##onec
obsahuje
##ejte
Franti
##říme
##logii
zdrav
kdysi
Ur
##dající
##zech
vnit
192
očí
nah
stanovi
obce
lidem
Pavel
celkové
##vó
napětí
soukro
rodiče
legisla
##slá
##ves
údaje
každou
prací
balí
mezinárod
##ert
říkal
IV
průzku
Alex
##kvi
oboru
Tra
##bat
##šela
Nav
hez
séri
Slu
##nický
hno
zelen
poptá
Kou
##šu
životního
Fir
získa
##lii
##běr
Gu
koncent
děje
##livý
top
skří
mono
revolu
##lar
taj
zprávy
uspořá
##kládat
##něných
materiál
škod
požá
poch
přím
##tec
##pky
český
návštěvní
jakým
okamžiku
proz
Dlou
##oz
konstat
##dows
důstoj
##lený
okru
Com
##tily
materiálu
Euro
Jí
##stický
##ovatelů
##dějí
nejméně
SP
úpl
opo
##liko
##mout
##fy
těžké
##rej
Podí
hodnot
bla
Pá
##ell
ej
##fikov
nalez
##nímu
##átkem
autobu
státy
##huje
stavby
##raž
současnosti
nicméně
odol
##OL
##rám
škole
mag
Vzhledem
##stávají
polí
strojů
##zin
##nin
dohod
zře
Ov
##šený
Čá
prvního
##bri
Pu
získal
##jednodu
pochyb
Ká
Morav
policie
##nala
Jeden
mír
produktů
##ratu
Rakou
##čily
Angli
##bře
Nor
orgá
vysokou
dosavad
pravděpodobně
191
vez
cesta
pane
schod
druhu
##dáme
##nec
dřív
Sam
##byl
bás
##tilo
Během
##předu
##cvi
##EC
důsledku
delší
Žád
průmysl
zachy
##dle
Německu
##pili
vzdělávání
veřejné
##OP
oni
##lomou
malých
##lekt
pacient
dod
porost
tmav
Nemo
##stických
zřej
##čkách
porad
hmo
neře
bet
směru
jaká
bys
##áv
gen
automat
Sed
##lala
ana
hlavním
polici
##bl
Snad
přináší
##aku
přemýš
těžko
##ane
výhra
velko
průměru
blá
##štěstí
spolupráce
nezná
osa
jar
tlačít
odv
##lejší
světové
dosáhnout
##vují
dek
pal
Nyní
##žnost
oblíb
názoru
Windows
hospoda
kapito
Mer
růstu
rozli
zavo
##zt
doba
##ité
zam
knih
ustanov
dojem
fakul
vážně
vychází
Inter
druhy
ono
stává
##vakrát
průmys
zatí
uprostřed
##tají
žádnou
voda
poznat
##ovatele
ochranu
ev
Jednou
hekt
##sech
altern
##ňky
užit
rozví
36
Char
lidské
druhém
##avá
cz
32
##zka
Minister
troj
jo
atmos
##lením
Pri
mý
svěd
hranice
opa
nejde
raději
zvlášt
primá
##lym
oč
věd
světla
##stál
hří
ředitele
##tex
##ovaně
beze
polovině
pam
Vladi
zveřej
zří
Tou
sklá
kandi
##wa
mužů
##ňů
##čela
nájem
hum
The
ODS
##klí
Poli
##tiky
čel
elektrá
řečeno
musela
pokou
sestav
měsíc
smrt
##astro
John
zauj
ben
##zoval
chybě
##au
vytvořit
specif
podobné
##čnosti
domác
podez
všude
##stev
odpovídá
##nka
směř
##óny
zbyt
Don
##ením
padesát
##nějšího
Oba
základních
úřadu
##seli
čase
podpory
300
chtěla
##dlí
analy
výzkumu
##šili
Sla
romá
Výsled
udělal
##zující
##větší
oproti
hrát
##skop
person
vědomí
##tení
stane
##aném
##boo
přizpůsob
##EZ
šet
Hol
##mov
bur
##pání
##stné
nepat
místech
bezp
domní
##chodem
##ránit
klient
##cel
Lond
stavební
částí
těle
dřevě
ekonomické
prohlásil
domě
osmi
text
##pětí
Britá
Bro
bram
obecně
1992
##něný
##mála
form
oddě
museli
##telnou
pořádku
##lic
vyprávě
jiným
hypo
##leni
##véd
slá
##důležitější
pohá
mra
odpověď
vyslov
##hodné
surov
studie
jisté
nebyly
##kalo
##feren
přišla
##vaný
##vilo
##DA
ukazuje
##čků
paměti
##tika
##minist
##ang
vytváře
##umati
##nického
představit
takových
nevím
zeptal
##rna
Zdá
hř
vozu
dopo
Nový
##řin
pryč
Nakonec
míru
zpravidla
povr
ovlád
utr
venkov
##šší
jek
jednak
OH
ital
nedá
členů
##AS
filmu
##drží
dro
##čený
přední
žít
##stanou
nechce
##arů
Rom
návrhu
##chách
oprávně
hodnotu
##něk
pozici
pohla
přednost
mamin
evid
někoho
přehled
osud
##íte
zpě
kvalitu
##ráz
##éry
jiná
předná
poplat
obnov
Japon
krize
##nicích
Ed
závaz
vstou
##ovce
ledna
díla
vztahy
##nická
##NO
šp
chvíle
pochopitel
ou
předchozí
poš
Bud
neměla
##šuje
vyvolá
podmínkách
##loval
argu
line
##tud
potě
Tá
sezná
modelu
##tisk
##moř
Mon
Nové
##vede
kapacit
způ
tentokrát
řídí
rezer
##toři
##tním
svoje
cu
##kne
kultury
##lia
##bory
řetěz
Brno
##terý
tepel
čeho
výsledků
bav
##kol
všim
funkcí
jediné
##šině
prvky
Fe
##rí
osvět
Součas
malá
šla
produkt
ministra
##ša
##rního
vodou
letošního
dodrž
##nor
##tku
Dom
sexu
milionu
dané
rekonstru
hodnota
rozhodl
pokles
navští
nejlépe
##řených
bohužel
##tivy
##menty
Přes
##asi
##žný
masa
##hde
##zejí
vlastnosti
konkuren
zařa
pravidla
tv
##stvu
##adva
vzal
odpor
tisíce
odmí
##spíš
##lační
##ki
výno
##ess
začít
takhle
prodeje
##stro
##konce
česko
napsal
55
##ůvod
##vej
##myslel
##armo
začali
nachází
slad
někteří
produkty
##tos
##lné
##kazy
aktivní
##vách
lete
změn
internetu
##star
##ča
Česku
dostatečně
Han
projektů
apli
učitel
jezd
sociali
Bí
vůz
nemůž
##stali
špatně
ap
centra
cíle
Ad
předá
ruky
Kam
##davatel
super
varian
Jas
##ung
doktor
Pí
##vl
Val
cer
pobo
##čov
obyčej
##až
150
absolu
příležitost
##kající
zrc
Tady
Většina
nedostat
inici
alkoho
Některé
jimi
##čká
Sna
přihlá
zaznamen
posou
fondu
Hel
strana
veřejnosti
##čkami
setká
ulož
stanice
graf
vydání
2007
aj
##sím
tomuto
okolo
dynami
##letý
uskuteč
##rn
novým
##div
##dělí
seku
příbě
rozši
dojde
##pem
odmě
udělá
##mál
všechna
##idlo
pedag
daně
##sili
bodů
zaru
plochy
##kyně
velkým
Itá
douf
velikosti
riziko
třídy
##ěl
obliče
účel
Dále
Evro
##leno
##šný
##IL
nebezpečí
kritéri
Zač
doved
##rových
Af
slab
Jar
úspor
prev
paramet
chcete
tebe
Ostat
konzer
##rand
##ňte
eur
##avé
maximální
nechat
##lená
jader
nechal
pokoj
eu
##ery
##stiky
přechod
Ky
všeobec
vze
náhle
potřebuje
vypo
cizí
předem
##koval
##OT
soustav
Již
investice
oblastech
Nikdy
##enější
správy
zim
ZD
##che
poměr
vyvá
Přitom
odvá
##tvr
výda
nejprve
zet
žije
koncem
##řeno
omezení
desít
pořá
##struktu
knihov
výsledek
konkurence
sledu
Ať
lok
bři
Samozřejmě
##bami
výrobky
Lin
podél
budovy
zajistit
hraje
##hým
Mal
režimu
##rka
podniky
slunce
péči
##čané
aktivity
##lách
vozi
##gií
zvě
##dách
organis
vybud
zisk
##IV
##rově
##časí
emo
##žívá
##vaných
zdr
Ph
propu
manipu
šed
živoči
##desáti
##žis
SF
plast
##ss
dvakrát
identi
mladí
povinnost
křesťan
##hnou
33
zavr
##hrn
dých
##pozice
##top
##oriz
##cro
ilu
##něním
vyme
Ab
Zoe
tvůr
vystup
ráda
##žovat
divo
duchu
následující
##želi
##tám
Zav
##řice
kus
generál
čemu
sedmi
tuzem
něhož
podep
telef
uch
##šly
##cov
dopravy
##inace
neh
nevz
výběr
agentury
čele
Rych
##mentá
duch
přije
##čtě
slune
drží
pracovníků
Velké
posta
##nikající
##asy
pokoje
Chy
Hlavní
Des
SS
nejmen
##stalo
najdete
##čného
##tního
jakož
tváře
vzduch
hlavě
nahoru
##nuje
At
##zat
lidmi
změnu
evropské
##máž
##entem
všemi
##uli
prezidenta
literá
jízd
##uju
Kan
spá
##kladatel
vyjad
bal
chi
##oh
##měl
zastou
soustře
##nese
##zny
neda
dostala
spon
##kázalo
##kovém
pozitivní
rozpočtu
san
většinu
osu
##AV
##nostní
funk
##cové
podnikání
sdí
starý
zdravotnictví
rý
meta
tváří
server
ekolog
##boj
ministerstvo
zouf
chuť
Karel
látky
objemu
Slov
moře
##lový
třech
měření
zůstal
ochran
Yor
rokem
Wal
kari
nemocnice
Naopak
chvil
ochrany
nedávno
Vždyť
vej
pozná
řešit
##vajících
##org
Praž
##zvem
dala
vodu
##leku
října
zám
chybí
spal
##stického
rozvoje
odvět
něž
zeť
##razit
##dol
Kaž
##knout
##nom
##kace
##AP
managem
značně
##jas
bezpečnosti
pon
##mili
##šeli
šir
května
Ač
dodal
##lič
##mlou
evropských
Hlav
##tina
původně
##sař
jména
nebudou
##entace
hledat
oblastí
nejbli
Qu
efektiv
##cena
ští
vytr
těles
verzi
nástroje
##eném
##kad
##lympi
Eko
nejrůz
##něna
hnutí
##zřej
budoucnosti
mó
##lací
infek
kterými
multi
lokali
##ken
podzim
Medi
chtěli
##rojem
nabídky
Svo
náměstí
mak
sociálních
skla
Sá
kres
##žily
společné
objevil
nastavení
proná
2006
##nostmi
filozo
využit
##ill
hodinu
Lidé
##ident
chem
zásadní
##tinu
##bky
pit
##ts
##avi
pracovi
##čkem
##brid
zvlášť
##tné
##lují
června
Prob
##ovaném
##gr
přesu
hospodářství
mírně
##ché
typy
nese
refor
maso
druhá
ju
##des
2004
##chom
tradiční
intenzi
abyste
dalšího
funguje
Or
výt
správně
histori
kot
Naše
úspěch
##pan
Bůh
řádu
atmosfé
veškeré
zodpově
vrátit
##kladů
představitel
malí
El
středu
Bla
Os
kilometrů
sedí
extr
vrace
názvem
americké
sel
textu
oku
odsou
Den
oslov
##stická
rozsahu
letošní
materiálů
##tive
výjime
##stěh
##ovku
bílé
##čena
##tion
dole
aktuální
válce
##ben
##alizace
německé
závaž
IT
kuku
zástupce
Wi
vaši
Zna
modely
##fle
glob
kterému
##leté
jednotky
údajů
metody
##ker
televize
TV
San
Kor
frek
dílo
##zou
Bel
trené
seg
##gh
##lovou
pravo
respek
počítače
podiv
##rovol
týká
Maďar
veče
ód
kulturní
Stře
krou
##cházející
fó
vir
nutno
bolest
ul
jinou
vzác
Třeba
Někdy
bak
##10
formou
následně
praxe
seri
týmu
finančních
##80
vozidla
zdroj
stejný
šede
ble
##hové
vypla
##tickým
vlastním
saz
1990
##výcar
##děje
natá
hol
zaved
vyžaduje
financí
Exist
##já
skrý
dubna
dobrou
##ujícím
vyví
region
##tka
zased
##značně
75
Jenom
##rnu
Místo
pneumati
##bere
chci
Olomou
PŘ
##reg
plyn
Mc
Tý
##haj
minimální
nepříjem
##OVÁ
##eda
kategorie
##énu
vozidel
případů
povz
zabí
brambor
změnit
příbu
sovět
##zů
probíhá
zpí
##bila
Ci
##pisu
prsty
##žku
působení
fron
naro
ses
vztahů
ký
##orit
experi
cíl
MS
přís
Iv
jménem
inteli
učin
NE
1991
černé
souladu
##menout
Kli
Met
řeč
projekty
1993
##žilo
administ
technické
územ
součást
##ovatelé
nejčastěji
důraz
##kupu
běžné
přichází
Neu
##novi
Představ
povrchu
plate
##žena
##jezdu
And
sítí
zdálo
##staly
pana
are
vozí
Sk
jinde
Nikdo
##chat
jednoduché
nepod
horší
Ště
##niku
organizací
##ročně
##věři
osvo
zajištění
relativně
slovy
##elů
sotva
Bohu
##padě
navá
kraji
obslu
dítěte
##sala
poskytuje
vyvinu
##leka
##ovému
val
##livost
pracovních
pokry
snažil
kolek
##ologické
výrobě
##mie
Jedná
propad
##ňa
##bez
##tání
cig
název
úkol
odpoledne
dopravní
asist
##tný
motoru
bolesti
##hyb
Ježí
poznám
Ada
svazu
usil
##dent
zábav
##bin
formy
##vice
hotelu
eli
klou
##něná
##ris
dovnitř
Fer
reprodu
rychlosti
západní
objeví
akcií
##vence
těsně
zůstat
##OB
poslu
##bení
##nova
##lených
Rich
vést
##žená
záru
##šená
používat
každá
Přestože
net
platit
šam
proh
##škod
Ser
formě
##žek
##ujte
##bali
##ovito
reg
dodavatel
Rov
otce
Všechno
##pec
##lon
správné
##arma
maje
podstatně
##pek
přestože
##ym
stůl
##rii
látek
počasí
##rný
vyplývá
okamžik
David
Ovšem
tat
##ženo
končí
##kom
schopen
školství
vysoce
##livá
DV
asoci
lehce
interi
vzít
##ravě
pozice
moment
mluvčí
zkra
Jist
##AK
elektř
klasi
dalšími
naje
Mosk
ZV
převážně
nejdůležitější
##padlo
úsil
vlastních
neji
čímž
stránky
##alou
##odě
cítí
bytu
ustanovení
Gra
republika
##kop
##kazu
pokračovat
olej
uhlí
příběh
dodáv
video
##kej
##int
##šilo
Ot
přání
##ónu
##fikaci
Pl
výži
nárůst
Té
sest
##dku
touto
nit
34
rozv
2005
pozd
čo
ocit
pás
##domí
sledovat
přírod
Škoda
vozů
police
Nicméně
##tost
silně
##hned
mechanis
##emie
budoucí
##čeho
Vedle
zahraničních
Cent
##íš
dědi
ren
##ráv
Sn
tlak
##vejte
##set
##cuje
##řady
##líme
doporuč
výu
lib
zajímavé
reakce
IS
Tohle
##hrad
děl
hledá
##ile
##stran
##ván
krmi
Tomáš
jád
vle
dlouhodobě
gu
peri
kandidá
začalo
hranici
Rozhod
lam
##rový
vína
trpě
##rním
dvaceti
včas
Jack
vykoná
nějaká
obor
začaly
##zl
##bet
českém
##matu
dar
našel
##schop
##dia
vysoký
1989
##slava
barvy
2014
Vů
##ňoval
kombin
úž
března
sý
systémem
vyd
absolv
dveř
dobrá
##čte
prodlou
##plá
##poli
kanceláře
MP
sis
forma
##enými
roste
##vadel
##žije
slib
##těla
##ěn
pravidelně
východní
400
krabi
klidně
vin
spad
nemohou
dno
##ečné
částečně
hov
šlech
##tiku
Člově
společného
aplikací
měk
důchod
##čník
žeb
##pokoj
##kraj
komory
##díž
sportov
##jšího
rizika
norm
příz
##pala
fin
kláves
musíte
teorie
koneč
bit
pevně
##ash
##ologie
Největší
una
financování
mnohé
##kolik
vysoká
diplo
CD
infra
##běra
##zkou
přispě
Než
37
##torem
dalo
##žít
Stav
##štěné
přenos
##luvil
otevře
způsobu
zaměstnanci
##mlu
vymě
tok
prim
dneš
jedinou
píše
obil
Dva
spočívá
##we
Dne
dostateč
Zároveň
Tur
Sil
rukama
neměli
##mání
termín
##kaly
##ami
##žování
##xy
ryb
výrobní
lásky
koně
přehrá
slyšet
zvíře
##fil
Miro
doty
červen
liší
časem
##30
Chce
parlamentu
produkci
přiblí
tvar
nepřá
Jakmile
atra
souvise
aktivit
##had
náprav
bru
natolik
##bar
cigar
##dav
##xus
Měla
##klé
tová
Poslední
dozvě
fanta
obvi
##broj
namí
oceně
uměl
##váním
sílu
nebe
skry
zlepšení
nádher
Ver
##tré
změně
OSN
Dra
veřejných
tehde
písem
##vami
Ostra
spán
note
překáž
##oden
pěsti
fond
##nesl
Proje
Zvlá
##los
koncep
řem
koho
rou
seznam
doprov
##ženou
motiv
oble
Tele
vlastního
##mět
Důležit
##spod
##nář
interpr
zm
myšlenky
fas
nevý
neop
programy
Ústav
##zela
##bude
##čitě
odkud
krve
osvěd
2001
hmotnost
strav
##ban
##dio
##th
##sé
bratr
vyhodno
Velmi
niž
##čování
obcí
##mím
váleč
pek
shromáž
eta
leti
myšlení
loď
vyšetření
##čným
vytvoření
vysvětluje
##ža
tvrd
##šeně
##žitel
komunikaci
vrátí
Spe
potřebné
Mor
detail
vysky
historii
##lor
zřejmé
napří
##vech
lží
uzná
zje
##lám
nemám
ža
počítá
250
##vie
zástupci
##řenou
Zu
pohle
čísla
shod
šanci
##itivně
šo
##maz
existují
##rátor
rozto
##ovice
##IM
rozšíření
pražské
##vale
##esel
##hlédnout
zní
##ove
certi
pamat
zl
úpravy
minimálně
vývoji
fázi
skupi
znal
##átka
krátce
En
##leli
##leny
jdou
##kař
dokázal
automaticky
kompon
##inále
sal
pokoji
údrž
##nickou
KU
##IA
banka
piv
poraden
pul
##šího
představen
zpravoda
ae
věří
prvků
##formace
krev
fotografie
##lovi
stará
##díl
nikoliv
Tři
chceme
považuje
ekonomiky
Francie
posil
zemědělských
zvyšuje
řeči
přítel
##rce
mechani
výboru
##běhl
##menu
vítězství
##před
spolehli
stejnou
chyb
Dor
##zájem
##štěn
aplikaci
malou
ženu
zákazníky
##pilo
obchodních
##blo
##nicky
zkušenost
nejvíc
jemu
##čními
##ota
starost
značné
##line
obvod
schopnosti
doplň
##zrael
##zala
cítil
Paří
zaměstnání
zvuk
##mel
trvá
2003
##atické
Čech
imu
##romady
Obě
japon
##likož
farmá
##zovaných
##krátka
Národní
monitor
##bytek
festi
Král
koní
intelig
výběru
sek
##niky
tisku
##zdob
firmě
zastá
používají
normální
##meny
origin
##tové
žil
trž
voleb
zhor
rovnou
##ruje
Sku
##stý
poznamen
##mon
zabezpe
##pol
190
většině
včer
fu
ústavu
##slova
hudební
činností
##cími
svob
##FR
vyhledá
Více
televizní
cosi
připomín
##níkům
jakého
civili
ovládání
sor
Jedna
nohou
programů
##dělil
orient
chro
Nabí
spoustu
jednat
1994
##kladem
vdě
alternati
miliónů
##ep
Slovensku
##strá
##kán
Bor
stu
ostatně
horní
palu
kt
dostali
závěru
Základní
ží
pohybuje
sdružení
##bek
odborné
##GI
velkého
kroky
Londý
nástroj
##štím
ada
ukázal
log
##mes
obrazu
38
vyčer
##muje
bl
##roval
nemovito
zvět
2002
Tho
klubu
##ktory
ulice
Španěl
##čená
odvětví
tudíž
##desátých
tiše
dosti
##sedy
obličej
##avou
##ovek
známé
mld
ohledem
chud
vodě
##žíme
pravé
Jaké
We
##seda
##žnosti
nosi
vrch
##slou
překon
Nepo
##činy
ber
##chodech
vybavení
##tes
nabídku
volby
televiz
##tyři
##mum
omy
##chla
ed
častěji
student
posledním
Mimo
Někteří
Zí
##eš
Max
##klop
pozoru
zkušeností
fotbal
stála
IN
##átů
dodnes
42
pes
chodí
fotograf
##vize
uvi
##cá
vyprac
##nikají
##roji
vzdělání
profesion
CO
černo
##kázali
tvaru
ostrov
##PS
spě
hlavních
##UDr
diagnosti
##šte
##zený
velikost
umožní
vzrost
##ovanými
az
vnější
negativní
kousek
kd
pečlivě
podívat
Jsme
Pě
##nula
stranou
##řitel
advo
Micha
řekne
##ted
uvid
komer
##kot
probu
##fie
##olf
příležitosti
stávající
pacienta
Geor
##mám
devět
vyzkou
materiály
##US
Cla
pád
připoj
rakou
chlap
porovnání
##řovat
##vz
Čím
slí
úča
pokus
majitel
výrobců
##rab
ol
konference
Cena
reprezent
vzniká
růž
domov
Avšak
##kované
Fin
pohon
Zn
léčby
##tury
##kář
##ovést
##vateli
Ap
Systém
##řeně
podpora
titul
choro
konfli
Aut
prově
Hon
##avý
budoucnost
srpna
Lou
změna
mrav
výjimkou
jednoduše
##městna
##rant
##zdě
##ens
dlouhou
předpokládá
##každ
##orií
##60
##čn
tren
Mé
kontrolu
Sp
##tán
rovno
##stání
skr
##ismu
dobrovol
medicí
##žích
##cený
generální
energii
ušet
inspi
pracoval
jídel
role
úsilí
PC
we
několikrát
zjednodu
líst
##jením
poky
oteví
silné
##jela
##kují
jazyk
těmi
el
určitou
koleg
občanů
##něno
kategorii
dostává
máš
##šťast
nasa
SM
ZŠ
údajně
minulého
Rus
jediná
##rační
provádě
názory
Bou
CS
Gene
Indi
##zených
inžený
uzaví
##PA
hovoří
seděl
dokonale
lak
mých
zastupitel
čekat
zdo
##klou
závěr
podvo
extrém
míře
Máme
důkaz
##votní
smlouvu
židov
##rární
způsoby
soupe
řa
##rativní
Afri
člověku
jednoznačně
dvoji
##hna
OV
naf
proud
Marie
členy
Německa
ihned
zkla
čtr
sobotu
65
Čas
Dy
špič
zjistit
mladých
Změ
Poku
Dokonce
##ovává
úrovně
dojít
##tip
kniha
biop
očích
##isty
Problém
hrozí
##prová
Foto
nepřed
přístupu
##jeli
hnoji
pšeni
věnovat
Lá
ČT
vytváří
odpověděl
##HO
soutěž
vylep
##jo
poří
##tice
##wer
skupině
získala
body
##enáct
trend
neděli
Obec
babi
výroba
starých
kompli
Teprve
##tivu
obá
brně
přispí
CZ
##vla
škola
přijít
nece
teploty
##zena
naznač
výpově
hoř
ploch
##dex
tmo
dlouh
Meziná
Cha
olympi
nejspíš
července
zajíma
osobně
polovinu
oběma
##sadit
KB
chtít
vozy
prosím
opě
nízké
požád
nemohla
##rušení
##gar
##hodě
centrum
mj
lékaře
průvod
##latit
vteř
jestliže
zábě
##šejí
nejdříve
##itím
státního
##logicky
robo
##kovy
##nera
Proti
##encí
Pot
##anů
plnění
strategie
kampaň
pochopitelně
div
##vest
stylu
##ovně
120
##tici
##bytu
##hlédla
Čechách
prospěch
Len
AS
host
zaslou
paliva
##rot
##cházela
nesly
##šených
##ovacího
##sin
##valu
##čo
zprostřed
##odo
novo
jest
##luvit
myslel
##dině
informační
vydal
##proti
##covat
půjde
##zn
televizi
##mun
jinými
nepochyb
zbytek
noha
##lant
bed
##RÁ
##štěm
##zdory
USB
##šná
zamí
vyrov
propoj
dog
lodi
44
##jmu
ticho
povinnosti
úvahu
režis
##pul
kontroly
##hůru
vstupu
pohledem
##kázat
srovná
Dani
Cor
obrat
##cházelo
pojist
agentura
##razu
libe
lékaři
děv
stupně
využívat
vznikla
m2
##dělal
##čům
náhodou
##dec
Řekl
poloviny
dvanáct
##NI
##číme
zobraz
náměst
##KY
Lze
##želo
zdarma
knihu
existence
##ling
cca
reklamy
KV
byzny
půdě
tká
divadel
##lev
souvisí
##sahuje
firmu
kraje
posto
patrně
krku
##éma
vzbu
viděla
cibu
##SD
##kola
vším
##devším
##hali
pedagog
třicet
##terie
dohromady
tepla
nezapo
doplně
bíl
Státní
ster
noční
ztráty
##techni
vodní
##eli
organiz
##tiny
zaháj
##zvlá
uvedené
paměť
šedesát
zuby
##rátil
##rované
lesk
bezprostřed
noviná
chov
společenství
##inem
oži
poci
bro
vedl
zůstane
zaměstnance
Ši
netr
nějakého
Mag
Firma
označení
původu
CH
##áž
##ENÍ
##šin
##měrů
česká
mine
sin
venku
lhů
##álem
představují
##bert
##byla
technolog
##šenou
historie
koste
sná
Fre
##dři
kontrol
##něny
##chl
zk
moderni
1995
zvýšit
Jel
##kládání
kapac
budeš
##jíme
##lohy
instituce
mistrov
českosloven
zasá
dělal
Mari
doslova
úžas
##duje
problému
řed
Vzpo
ps
takovém
události
##jíc
##šíme
komfor
##ňí
listy
Nel
stěny
teore
oleje
##jské
zůstala
Otá
##rovou
politických
majetek
Vlá
Kop
závislosti
perspek
Ost
##mace
výnos
profesor
##TI
##kátní
kůže
chiru
##pará
Cho
samozřej
dohody
úse
sportovní
překro
Stan
##grafie
zahrnuje
##ality
článku
##isté
dotace
vysokých
horiz
út
starosti
##míru
##sadil
vydě
kvalita
##žných
dějin
dali
##entaci
##óz
##anými
inspek
letošním
bli
lek
třemi
zneu
##jede
zákoníku
lidských
centrální
ceně
připomí
zdaleka
pono
##děly
přímé
Člověk
psát
##rozen
##dací
patnáct
známo
sklí
##OZ
##ženy
koupit
hmotnosti
Há
Jedním
Jinak
Let
harmo
##šle
konferenci
##berg
okolností
##are
nechtěl
navrh
Václa
##stoupit
léči
úspěšně
maximálně
skupinu
##stika
mechan
AN
uvě
formá
většiny
mů
ideální
syna
slyšel
ukaza
zákonem
Zeměděl
dou
oblé
##adil
týdnů
přen
Tech
úvod
sval
Prac
záležitost
očekávat
##ňá
##mec
Francii
široké
určen
čtver
##livých
výrobci
##ckými
##bur
##oty
podání
dostatek
otevřel
odehrá
demon
##ujícího
Ivan
podíval
musejí
papír
psychi
šťá
Oe
##ění
stadi
koali
tlaku
bank
agres
39
státních
respekt
##dné
##VA
Gi
hotel
IX
nef
##not
##pína
##etro
Často
Doc
létě
žal
##lis
##lového
strom
potla
hes
ucha
vyšetř
zločin
Německo
sleč
rostliny
významné
telefonu
plný
neut
týdny
nehod
Bal
##nuté
efekt
##aj
typů
přená
##moci
##řeného
matem
dusí
prosince
kamer
kompet
Hen
čekal
ŽP
montá
osoba
48
exter
poznání
##tura
##UT
##mena
ryt
Anto
státech
nahrá
rodina
nikoho
##vati
##dejte
službu
prohlášení
##sticky
las
##onář
mobilní
##lova
uji
matky
##krý
členové
Vr
##nam
dlouhá
hli
vypu
ničem
##řes
##zkum
podmí
sev
tal
armády
##každé
Fak
##sor
pěkně
zemřel
Men
přístav
vzhůru
dosažení
zaklá
##počátku
##vál
veřejnost
imp
pojetí
Tro
dětmi
Podobně
František
potíže
##itní
lži
##vač
kapitál
mnohdy
Micro
##ženého
##něme
com
pok
jediným
##ktem
prot
záměr
nále
Var
sé
schopni
druhým
sektoru
##cháme
středo
##ham
udržet
##žely
předpisů
proběh
Zákon
Col
nedostatek
rozhodování
přijíma
##ráží
desky
palá
hlasit
krav
Prof
DP
každoden
integra
Nedo
deva
komod
##vet
cyklu
bezpečnostní
##řední
čín
jih
dech
krátké
propo
vidím
zprávu
##ózy
likvi
1997
návrat
připojení
KS
##stupň
nakrá
noviny
Eli
neuvěři
##uješ
zbý
sekun
##ložila
února
smys
mladé
gale
planet
rychlostí
##rok
labora
ovoce
pobře
čes
tváři
Vid
vítě
##padl
situa
blíží
start
##noucí
tenkrát
##ID
##ovol
intele
Brit
klientů
uplynu
sorti
hydra
Otev
pilo
procesů
orgány
Petra
plí
negati
tol
zvířata
iP
vyznač
usmí
uživatelů
##rus
##hlaš
karty
##řte
politika
jakoby
rozliš
##ismus
##žka
Postup
bom
Chtěl
Můž
Pre
toč
só
doprová
##mentů
inova
Zku
##telným
##tář
dveřmi
smluv
##rová
kob
Jaroslav
##rig
nechy
hlavního
zastavil
pěstování
Spojených
desítky
##niny
provádí
navi
existenci
takt
hon
voli
##II
##atoli
##bio
##ich
zakou
důklad
uspořádání
Byli
Milo
přišli
##atr
Poté
##sli
zajišťuje
blízko
objedná
##žu
##běhla
oka
Cílem
Svat
jez
dok
veřejného
ročníku
##tří
detek
Sim
Nevím
DOS
##hám
spotřeby
##seň
##hodil
Tran
vyč
ukaz
pero
kontex
Žid
modelů
sluch
Př
kles
infrastruktu
vit
poměru
vis
##žují
odpovídající
vybrat
loňského
klidu
hyper
Dalším
Blu
připomíná
běžně
používání
vidi
hudby
Tedy
rozhovoru
organiza
UK
sledování
sfé
každo
Švéd
mláde
šat
##istů
maj
klep
zjistil
##lích
postele
Kni
denní
ostatními
hodnotě
Sever
režim
##áme
zavedení
##bla
vládní
nástrojů
##ici
Bur
##jila
psych
Jedin
##rového
zpráva
##třebu
teku
psycholog
##book
##íc
##vostí
odešel
##40
orgánů
JE
Můj
lůž
nezbytné
zrych
lož
poškození
parametry
největším
vždyť
školní
##cená
Ham
VŠE
##vedla
Ven
urych
##stickou
Zak
1999
Chu
řím
GB
##jímat
rozhra
požadavků
##tosti
nepoda
##zeny
Něco
divadla
##čených
hledání
mladý
Prov
zařad
jednotek
##parát
kombinaci
KD
##kly
naděje
hospodářské
##vrat
##čném
provést
centru
jiho
snížit
vyhov
spotřeba
LN
dosavadní
##řích
odstav
##padla
##pri
srde
klasické
tlou
nabídce
600
vaší
zaměstná
rodičů
Nejvyšší
zatá
pomáhá
zákony
##zozem
trén
kř
předvá
napá
skal
záleží
Klu
rozdíly
papíru
##tami
##cházeli
prst
efektivní
takovým
krm
kancelář
##dli
##goslá
zjišť
rána
##kovými
přírody
Plze
##neš
kvalit
nařízení
regionu
##ničky
rozhodla
operace
##dace
expor
OU
katastro
lat
otázkou
očekává
##čeni
upřím
oken
mladší
těmto
Zas
##ící
##dicí
jakých
Fu
hlava
##wo
nimiž
III
##čují
Český
Krist
modu
světle
stvo
Mla
prezent
soli
##tt
blu
promí
##hách
##até
Goog
Stále
##pid
ošetř
symp
samotné
příjmů
tož
##endá
napadlo
41
obavy
láh
tržní
Prez
##dělo
##kládal
##razila
PRA
##šena
něčem
výkonem
tenhle
instru
intenz
##avu
takz
Vladimír
dětem
adap
nároky
##pisy
hybrid
lah
vysvětlit
lékařů
##tečná
##líč
snadné
termí
OÚ
řidiče
tis
##ovkou
##SI
problémem
virtu
Plzeň
##ktorů
##rálního
malo
dřeva
Důvod
disci
##ární
stres
Řím
##roup
fondů
##luví
struktury
déle
tab
naří
minulý
##iss
abys
Muž
stovky
##vát
##pán
zaned
##zce
Sprá
##šim
spojené
##ceně
přiv
Byly
přijetí
Žá
znění
studia
uvedených
vlastnictví
##inaci
##tivních
zjistí
nakladatel
měsících
##tvo
stránkách
realiz
zvedl
jenže
třídě
zhodno
Vl
zpří
špatné
navzájem
##mrz
##kul
##vel
fig
kusů
##ďme
vynikající
učení
výhradně
najevo
Cest
muzi
usnad
metoda
nevěděl
veletrhu
##ťá
##zeno
##mann
opravd
tel
uklid
pozadí
dosáhl
##sků
##pustil
##reen
proudu
kno
##pii
CR
##ski
upr
myslet
akcí
##áš
rychlé
##inka
strateg
kvě
##loze
1000
tó
věděla
moleku
##isi
limit
##pka
standardní
váno
pořádně
mail
##rich
zaká
jakmile
##ele
námoř
trav
##oni
had
##tací
Tehdy
ohled
toň
proc
##ink
případy
dokument
tiská
údo
Předpo
povolení
IQ
překvapi
totéž
nejbližší
##xí
##boli
vítr
Původ
souhlas
silný
Lud
##zie
Bene
přítomnost
dosahuje
1996
vrací
odborníků
Nov
víte
rozsah
výbav
parku
##řují
pale
##šá
Sem
víme
univerzity
zkuše
knize
##TE
dispon
zmizel
jaře
bul
počítat
luxus
##rub
znát
##ést
##lom
vzadu
Dan
Elekt
##bice
beton
nazý
rodině
investic
zájmy
##šily
pokračuje
##iště
##leji
and
85
##řez
Rod
Czech
spodní
akcie
řeky
seznamu
čtení
zelené
stromy
tma
žalo
populace
talí
hudeb
##řeni
##70
Spolu
optimali
vámi
Tomu
1998
přírodní
##mocí
nejhor
hygi
nebyli
významně
nejsem
vyšel
Tem
odě
##cher
porod
domy
##vanou
plemen
ochot
##lepší
radik
##tickém
##trá
uplatnění
Bohužel
Ly
respektive
vyspě
zkon
začá
příbuz
##žeh
řidič
##ub
epi
neexistuje
umožňují
jiném
různými
vůle
##kládají
stole
Zel
okraj
rozhovor
měnit
prud
odva
Bon
komo
rada
vsak
##SR
Net
##lilo
jídlo
##aliz
Výrob
kuchyně
kteře
řeší
klub
nabídka
dlouhý
baz
obrábě
šaty
Prostě
rovnová
seminá
fra
51
##promi
##jícími
výhody
dokáž
individuální
Dvo
##vizi
##nict
Aleš
##tan
43
snižuje
##ózní
Org
týdne
Ministerstvo
maz
kabel
##OH
dostav
##řeli
nabízejí
##lét
##eněk
fáze
stráž
ubyt
##ola
pátek
nádra
##atel
redu
kva
pokračoval
##hlý
Eu
zákonů
Hned
chodit
výsledkem
Klaus
novém
##čelem
plno
##rálních
##škol
zle
síla
zmen
hmoty
##bilo
Krát
##šce
em
pivo
podlé
trag
hři
trpí
využívají
Rek
útě
osobních
##měrné
zdvi
Jistě
vlivem
nádob
neprav
obal
boje
nepou
##ora
kontakt
##ston
spravedl
digitální
##ždě
mluvil
tajemství
##nostech
##edu
##žnou
odstup
podporuje
Odpově
analýzy
rost
očekávání
##bral
nepla
Rů
nast
##lika
nabídnout
hl
mateř
jímž
postupu
uživatele
##inové
objevila
Robert
odpovědi
Mana
oje
vznikl
##stříc
##nižší
##třebí
vyhlí
pracovního
Cy
##inů
týkající
hrub
jistý
rozlišení
kůži
jazyka
objed
výtvar
##álky
##oby
nemoci
postupy
vnitra
dramat
Bob
vzdá
##něného
reklam
úspěchu
databá
##loha
principu
bodu
zavě
zabývá
##ceni
##ph
##jal
ohni
průběh
polovina
rostoucí
osobnosti
Dod
plech
spotřebu
##cených
uspoko
kříž
budov
neviděl
osi
pochází
cukru
Face
zodpověd
kampaně
přiký
##cý
##mag
past
pracují
BM
##číst
sir
amerických
Evropská
krimin
dělají
##pět
pondělí
miliony
obchodního
##stoupí
považovat
##oun
realizaci
Ach
brý
viděli
procesy
##ser
##vaj
zrcad
Ond
příznak
cé
mozku
intelektu
van
jse
Str
chorob
##částí
##ardu
95
láska
##lební
##ráže
Brati
Což
dočas
Am
##číte
počá
manželství
cukr
postoj
##zená
investiční
zmat
rty
##škou
Náš
desí
##rách
pomůže
Kat
vyna
aspek
Masary
##znala
litrů
čest
papr
představi
iniciati
úřady
dětství
poklad
##spět
ostře
tisíci
bon
Speci
##pot
znalosti
jízdy
##plí
dez
zato
škody
koord
nahoře
##get
ub
okamžit
##vém
pil
optimální
##dních
styl
hloub
##doby
##rodil
žáků
Fil
rozdělení
obrazy
##kostí
Bus
##dím
krásné
MB
##lus
Bá
nou
##yer
nešťast
legen
skvr
silnici
spousta
Určitě
zaz
poto
##HA
proměn
víno
##90
Vyu
využívání
##řeným
odrůd
léčeb
omá
dopředu
##opřed
významu
Zajímav
někam
motiva
##stice
Mod
##ovacím
politiku
Myslí
motory
zkrátka
##sali
portfo
stanoví
##nců
Tat
díval
doporučení
uš
brát
##TA
##kdy
stránce
hodnotí
Vých
Finan
zákazníka
hrů
vlny
slep
Novo
dobou
odle
##pé
Němci
##ako
##tační
běží
článek
jižní
pořadí
vzájemně
rozvod
otře
referen
včere
lim
skončil
##sledy
##chala
##cítil
kombinace
sestra
##utná
##venční
záři
##čenou
##vazu
##držel
nedů
respon
výsky
##mněla
lis
instal
ohrom
technologii
AG
zkrá
odpovědnost
##čík
sbor
han
nejnově
boji
kop
##hují
recep
zn
nebi
takřka
##tam
##ab
zma
stol
##jdou
podaří
těmito
číst
nale
Paní
bývají
zadá
neschop
zasedání
the
##ženým
nepřátel
objektu
čistě
funkční
46
rozho
##plň
ČSFR
VE
mel
Tru
řídit
organ
##vené
vyjádření
Med
víš
##inku
důležitá
hospodaření
vězení
jiní
Michal
##ovic
mob
##livosti
elektrické
chystá
provozní
strop
AK
členem
jezdí
##OK
desetiletí
pronik
kdybych
normy
kořen
posteli
parlament
sráž
šu
ztrát
##rovat
##deň
design
trhy
Sí
volně
##mezí
Id
zatížení
působil
##zali
bývalého
##DI
seve
nelí
kně
##rnou
##šnou
konstrukcí
hromad
##teriná
cukrov
závisí
vlastností
zaměstnavatel
Ona
##táhl
Hit
##dox
##řech
Techni
Sly
návratu
Vil
##haly
zítra
05
bývalé
neří
##mno
roztr
##díme
Západ
Les
##menším
bytě
komor
zabezpečení
přístroj
Bul
stanovení
přidá
nakup
Celý
tatín
Jindři
kmen
Microso
##dci
náru
konver
Švýcar
bývalý
##medi
známý
Zů
Jaký
stavě
jedině
doprovod
dž
koncer
rychleji
Poj
loňském
sdě
##rná
##igh
důvody
skotu
smet
##leba
produktu
prop
porozu
kompletní
zaznamená
hydro
dostá
##zla
zal
svědčí
nemocnici
homo
premiér
##zeného
pojmen
zás
##ria
Sal
kompak
Druhý
přehlí
##pouště
Rady
ruko
sté
komplika
rozumí
Cu
mnozí
potenciál
obrany
##sie
symboli
magne
přístroje
zbraně
zpravodaj
##čh
starého
Zdeněk
Spar
představení
odpu
komplexní
kvan
organizaci
nevid
stříbr
určitý
prudce
##SA
prosa
##dlem
sněmov
vyhrá
polé
soukromé
lidského
učeb
vlo
tet
##pravo
moz
vad
Kolik
hydrauli
##lum
Up
vstříc
hodí
##lim
princip
národního
52
nemocných
kalendá
dodat
svobody
Srb
pošt
časopisu
##šeného
geo
budoucnu
##tině
média
osvobo
##sví
ca
automati
##počtu
##enství
šou
ZA
lesa
##mentální
žádosti
ačkoli
hub
vlož
lžíce
##bus
##čina
skutečné
##něla
##lají
testu
podně
Pozor
vysílání
##bici
##metr
pochopit
oblou
##inky
stisk
##vědomí
trou
účely
MUDr
##NĚ
zař
##řství
opí
rozměry
zdrojem
přijímá
vyrábí
rozhlas
kata
kyseli
hektarů
nákupu
sjedno
komunit
vydat
##tvá
smy
představu
šíř
##něnou
##tečný
##čího
znamenalo
##roční
stopy
potřebují
##ovač
koncepce
vyho
AM
Takové
##vra
##znu
##kret
##lali
##sce
180
složení
##krou
vysokým
násil
klobou
fle
ukázalo
Hle
vizu
##stát
Sko
roman
##lií
##řát
ostatním
spotřeb
vzala
automobilů
pohád
úprava
Peter
akumu
nejdřív
klienty
prog
školu
srovna
oficiální
přestá
studií
##zan
žádost
nazývá
podi
obsahem
otočil
##nich
tvrzení
Ax
##cionali
##kazují
##zila
##nových
samy
účasti
##váte
von
sep
MA
obrovské
oper
Kapit
diskuse
vina
este
důsledky
pocity
Wa
španěl
institucí
##růsta
Komi
půdu
nesmysl
ČN
kompen
naslou
použi
neje
Lad
plnou
zvol
Znovu
prasat
nejv
CN
Andre
Veli
ciz
neboli
znamení
nahraz
Hrad
Stát
vašeho
událostí
zapotřebí
##ret
buněk
vet
adresu
začínají
##eld
##ěj
Milan
vyplý
ská
dají
##ču
rodinu
Máte
kapsy
držel
snaha
kvalitě
zajiště
##žby
úsměv
Slovensko
vyšších
vykři
turi
##čat
Význam
Douf
připadá
##šných
##denní
##booku
##ll
presti
potravinář
##řící
chvilku
##morav
sc
sém
##rodru
Příklad
následujících
##telnost
čaj
Sport
vzdálenosti
břehu
Adam
vydavatel
##fal
Chla
říkala
vojenské
##činu
divadlo
vyrovná
##leného
kolegy
literární
připravit
karos
jeze
závěre
seh
výbu
##být
Group
##skočil
pojišťovny
47
Mlad
plateb
fale
kos
představenstva
Musím
nerozu
##vkou
nikde
optimi
Ran
##oprav
Obchod
nom
##čtější
raj
Tvr
zdán
Evropa
##ovině
čtenář
profil
Francouz
##ánu
Násled
##praví
##álí
neúspě
dialog
duši
uvědomil
Bý
odtud
##bírá
koupel
Mnoho
Neza
##ejmenším
Chci
kosti
##stoupila
studentů
utkání
situací
ukončení
##maž
automob
týdnu
neznamená
neznám
stavebních
##ití
otevřené
mým
stromů
největších
dělní
silou
navý
dozor
##vrh
příštího
##oviny
##tru
Autor
hlasem
zády
vůli
tvorby
žebří
##tav
blízkosti
silnice
##loh
rozhraní
Konečně
správní
##tero
##RU
vrátila
##hrani
instala
OB
strý
transak
AB
Dis
skleni
ročník
malého
postavit
milion
##ney
##kin
okno
účelem
##bán
cvičení
Letos
výšky
##ult
##brá
##CI
zemědělci
zobra
říkají
regionální
opatrně
Oprav
##hon
##knu
mléko
##pali
##ujme
Sv
severní
##wn
zastře
##zeným
##tur
Komu
podobu
Bet
plic
##ram
zjiště
##pením
zaklada
##sahují
obe
ochraně
Boží
Moje
OD
##cionální
Počet
rozhodnout
žijí
Především
cítit
středních
podvod
##líky
říkám
ostr
Americe
rozhodující
Er
PV
##asa
vrstvy
Soci
stranách
Set
##čata
zvá
drů
bor
zmoc
červené
ustav
hal
##gal
sklád
Národ
##vený
stejném
Ol
##itý
rozpo
##roni
Fede
popla
Richard
zázra
hypoté
##žoval
##řiz
získání
Ener
##tých
rozpu
úc
nějakým
informaci
##ouště
lednu
Div
Sm
vd
Můžete
Tuto
reklamní
popí
jakési
energetické
netu
dneska
kvó
vnu
kontin
prona
českou
##skut
nesmírně
plány
přemě
##léze
zeptala
dobro
nutně
uvedla
nezaměstna
průzkumu
Zlat
chlu
prodává
##asu
vědy
večeři
##hol
umístění
##žnější
Miroslav
brání
##ána
##šování
vlák
##ženi
##ejt
Měli
vzhled
##kar
sad
jesky
AL
pokaždé
pojem
TE
Posla
Techno
##pění
plát
##MA
SOU
sloužit
samé
konstrukci
nohama
##burg
##spodář
měřít
ovlada
Jiho
uh
Ján
velkém
bydlení
zaš
##lily
##ňka
Fili
síti
spát
nere
spoleh
vře
nápo
##štích
zaví
##stvem
##letou
Hodno
Yorku
jam
zjištění
##naje
##kru
záření
objektů
##RI
##obu
most
filoso
jakém
řemes
příjmy
otázek
##razili
celek
##wag
odhali
##zar
##elí
##atá
##lina
Českou
odsu
podě
rohu
lidu
předpisy
Pov
##jš
účinnosti
Van
nejrych
příslušné
92
širší
##kur
důležitý
platfor
tebou
Mad
nímž
údaj
traktor
bázi
památ
risk
##érů
přip
privatizace
zvěd
##ashing
zbraní
poklesu
penzi
prol
vedla
##řských
značek
soutěži
##daci
řešením
##aka
jistotu
pest
91
##ovače
krokem
oblečení
obdiv
technických
Dobře
Mezinárodní
celosvět
třiceti
Nevy
deví
veteriná
mimořádně
Nejen
##kací
biskup
maxi
Nejdří
##niká
##mor
Bil
Ford
Ki
##roub
každému
Itálie
poo
ez
centi
pohř
globální
přetr
zabezpeč
přinesl
800
meda
##skal
poez
médií
189
Kle
Wo
tero
pobí
psaní
ocenění
moto
##ády
Závě
zahájení
Dří
technika
dó
profesionální
zákazníkům
##esi
##čeného
##rava
tobě
maďar
##tví
ťak
vypadal
##ovati
Mode
rozlou
nepochybně
##rim
rameny
odhod
laborato
Každá
středově
##zit
buňky
naprost
gym
Buděj
Rusku
tuhle
naději
kláš
##zeb
faktory
49
upe
KSČ
##mán
návrhy
poslucha
případné
##ož
elektřiny
mém
##dence
vedením
mali
Králové
##jek
nejvýznam
##mách
##žívání
##šer
##ovský
účinky
klesá
služba
kukuřice
Sovět
##anem
dovolit
věnuje
LED
nárok
zachování
##dán
určitých
##stein
účinnost
##klý
Budou
##ovské
##stej
provádět
pobřeží
utí
##evrop
předsedy
zákazník
Maj
členských
sklen
říkat
##lými
piva
prodeji
99
##pech
imple
desítek
zisku
civ
neček
třetím
##vaného
terénu
komentá
Brusel
hodlá
##cek
vyst
64
##nechá
uví
nekoneč
ústa
praktické
MZ
##dyž
##lovy
Británie
pozdrav
plánování
věřit
Hal
nemáme
nerov
uvést
##ces
šli
CI
##nějšími
displej
objekt
##ňovala
Británii
##pora
##zemní
Součástí
poma
##MI
doru
vládě
##sela
přišlo
strašně
duchovní
##hající
modi
lavi
Moc
neuro
ploše
Stačí
AT
##zové
odmítl
unik
##vykle
##nuto
##myslet
uprch
výstavy
válka
smlouva
dvojnásob
nemůžeme
chvá
firmou
##enky
složky
čísel
Sez
prvo
##Hz
Děti
##fun
předčas
##dič
##ále
ali
uc
bytů
věz
tradice
Ode
včel
hů
naklo
obchodů
připravuje
kuchyni
větších
##dost
Jon
Boha
Velká
chovu
Připo
kuf
volné
sic
jab
##řadí
uč
večera
přítomnosti
politice
sě
dívka
zrušení
úle
##nickým
jimž
##nést
##tus
##lejí
strojí
Frank
zážit
podobný
lov
vyhra
##stilo
stimu
poskytnout
demokracie
vyšla
##mera
zabránit
jejímž
krat
Ček
Sý
Ší
hlub
americký
motorů
Sen
předmětem
málem
čtvrtletí
drobné
##letá
Pořád
stanic
##teru
literatury
##kus
celkového
velitel
##átko
žele
##znamy
pyt
Pé
Mají
Alen
##sche
spisovatel
zaplatit
##nající
přesvědčen
určené
přijmout
Hou
výsledku
tlačítko
ukázat
pravid
ČL
##cal
středně
##obchod
držet
##bro
##cením
úkon
prostře
obrátil
shromáždění
sť
moři
přirozeně
biolog
přesvědčení
rozvoji
56
##opat
střel
Nevě
větším
nežád
leas
Nebylo
kopí
autorů
##myslela
Motor
hrob
##kův
##tivě
##hodný
čís
##pád
##čín
Merce
##ign
manu
##mana
Zi
Media
integrov
extra
projevuje
povzbu
##óza
##cová
##míra
nud
ukazují
jíž
Google
úna
vystří
klienta
odrůdy
přizná
změní
úkoly
seda
vzájemné
nakou
Zad
rej
léky
##bám
místopřed
sup
kalho
psal
Sám
volbách
vhodný
konkrétně
pobytu
léčbě
nepotřeb
grafi
##atý
PL
Ostatně
základním
nepřízni
##žních
mistrovství
oznámil
brněn
Lit
tehdejší
##peu
trvale
jeví
dvor
Vždycky
rozhodli
ČEZ
nejstar
místních
prostory
DVD
údolí
krátk
##ap
##hodnější
##letého
##ferenci
nejmenší
George
Produ
DPH
příštím
interpret
Američan
kB
boty
odd
fungovat
##líte
přid
ozi
##ah
operační
##dý
každým
##jou
Odbor
událost
Nu
mik
##číta
##eku
##vadž
nesmě
hudba
sdělení
##NÁ
ME
pšenice
pouhých
##žo
souboru
soudní
téhle
žádném
boku
hranic
Takový
##cech
Svě
sůl
##hého
žada
nechci
Dán
jakékoli
charakteru
poziti
##raly
Rudol
##átu
##pole
signál
hrál
##eck
##ňu
##kdo
skončila
naci
##ační
##stri
##voz
##livou
simu
##sná
energií
##víli
##nýma
špin
Mau
##jete
Ředi
stupeň
##vysla
Jáko
Rusko
melo
znamenat
Arch
zemědělců
##řu
dvanácti
plodin
zare
##stupuje
areálu
neho
neur
Program
povinností
hrozně
nízko
ozdob
##místě
##líně
morav
Váno
vypadat
##ěla
přivá
hvězd
Vím
vrchol
poruš
##ye
##kswag
##ovost
některá
směsi
Internet
obtížné
dotý
mate
##čovat
vejce
nesk
##agu
jet
Václava
objevují
nepochop
katoli
Far
zavaz
kapes
##rist
postavil
podezření
Výsledky
##skak
samosp
##rozumi
školách
##nalo
vice
městech
drůbe
clo
posledního
dění
54
částky
##ide
go
er
##řek
Zej
vysvětlení
fe
vědí
##stickým
zákazníci
nádraží
##zlo
vesel
##éně
##válec
##rák
Bohem
přípravy
pevné
zpráv
nezmě
teplota
dřívější
nemohli
životu
společenské
něčím
brou
německých
Flo
##yl
třiná
Kvali
minulých
nar
staly
předmět
odhal
garan
výh
zásah
neustál
Jeno
##rií
povolání
Lan
pilí
##silo
pun
chyby
lát
Rou
představa
federace
vlivu
budoucna
##kre
tole
jede
krizi
pracovníci
filmů
vak
##pečně
přiměř
licen
##sh
zapoj
setr
##ICK
diskut
out
vyno
kuli
##mínky
levé
##jmen
##šák
rameno
##ává
sav
##zdrav
rozměr
obez
##zovala
##jili
přípravě
Dvě
park
odpovědnosti
##tickými
##děné
daří
EN
trenér
##šeny
##pravy
staví
##ií
soustřed
modré
důvodem
potraviny
77
produk
Asoci
Veg
##syp
##lib
bari
vzdálenost
ztratil
chová
spotřebitel
podílu
stavbu
mínění
pivov
překvap
našla
##organi
##advaceti
gó
Později
posád
dveřím
založení
Musíme
smrtí
##lák
slavnost
židli
našli
##eční
Tre
zahrad
sdělil
vykon
skleně
Gol
##lot
dv
stejným
příslušní
přípravu
Projekt
dostalo
##eré
manaže
dcera
finále
##tění
Toho
listů
##žívají
nebudu
##entně
##štiny
chirurg
zimě
současných
udělala
hlasy
maminka
poznal
příčinou
Srí
tradičně
Pane
##ceny
Hi
##pera
schrán
začnou
úsměvem
vzděla
vznikají
Hlavním
kau
##nín
dílů
nejnižší
Top
poskytování
církve
Cit
zastavit
##ovné
realizace
motorem
##tar
slovenské
církev
##čeny
ochrana
##pisů
refle
##stupu
výdaje
nemovitostí
městské
Washing
dodávky
filmy
okraji
přínos
menších
počítači
##čítat
##žto
##LI
proslu
přesné
chceš
silnější
Mysle
##cs
regulace
##ěm
Jugoslá
anga
vytváření
muselo
hi
Či
##zav
dávky
požadavek
štá
zbytečně
##nebo
software
PROM
dívky
klé
účastníků
sme
93
##píše
bilan
myšlenka
##ranit
tvůj
středi
poved
úkolem
##DR
protě
ODA
přesvědčit
muzea
jindy
vesmíru
kongres
##inc
MU
sma
představy
zabývat
##cházely
##ŘÍ
výrobních
53
překvapení
plocha
##minu
dovoz
příkaz
starších
nakladatelství
záznam
##éhož
##ranž
unii
sestry
##čující
dý
chů
partnery
živé
vyná
okruhu
speku
stálo
##ference
plochu
úterý
Třetí
fotoa
spánku
klimati
nemělo
Kolem
rozvá
##šeným
##její
##měsí
značku
navzdory
násilí
postavy
fyzik
domácích
elegan
případu
zásadně
##hlou
větr
##lami
Kur
kámen
pomyslel
přírodě
určení
obličeje
čtvrtek
vylu
zůstá
hrad
amerického
právních
Leto
##meň
Zprá
půd
bere
správu
léčba
##kaci
spolupracovní
léká
##řík
zastoupení
##ational
Své
dokumenty
##zist
vyhý
##látor
kav
výstavby
Otec
vytvářet
##blíž
počtem
ech
zaslech
oso
obrázek
##mbory
jakýsi
Kal
##ward
##ezl
obzvlá
koň
korek
nestačí
CE
projedná
system
tor
##mínám
##gene
Moravě
radi
##čnější
hý
##pež
otevřela
##mentace
vydává
ZÁ
dotá
##enom
stín
divize
Dou
##lest
tvorbu
ňa
apo
jídla
svědomí
inženýr
##sný
rpo
cílů
rodu
cokoli
změnil
Pouze
položil
58
odstranění
##IF
Jiřího
tradici
hní
smlu
managementu
Vypad
##vist
##ruhé
nejvyš
impul
Osob
někomu
Kali
tiskové
##gramu
produktiv
##ald
obilí
kontaktu
dávají
Ostatní
černý
potvrdil
nasazení
předměty
##ovosti
domácnosti
##síme
pota
panel
řadou
náležit
vytáhl
##vec
navaz
bytí
##byčej
můžu
##chání
čte
cenou
##álními
Bank
##gaci
map
jediného
Současně
##žte
najdeme
zaplatí
tk
splá
techniku
Vít
získali
přinejmenším
ducha
bakteri
podobných
jimiž
Josefa
##arda
##níkovi
karet
představil
koncert
konkurenceschop
Pardu
tvorbě
nedokázal
příjmu
absolutní
čs
krajiny
nůž
ženě
cítila
Rovněž
##logií
jemně
čtyřicet
AR
Im
zkoušky
léčbu
##mostí
Výkon
##ZP
zajistí
##štěv
odchodu
soustavy
daní
zani
otevřít
##erie
neč
geom
Thom
vtip
fungování
Pom
vystoupení
týče
zneči
##HL
policejní
činu
##NÉ
##láním
stanici
naproti
doposud
přívě
celkový
vybraných
snažila
##vými
měři
asociace
Anna
pisto
věk
##šů
##cker
sektor
##ilní
snu
čisté
##děn
výskyt
záslu
bílkov
odstí
usly
##tná
Voj
celku
##inout
Karla
záležitosti
tenden
##vatelem
##enec
poslal
předchů
##vaní
posléze
užívání
Taky
pohot
##ložili
pravdi
stavba
líbí
##pisem
##ezi
Vra
ředitelem
##rin
##lohu
nikomu
lask
##fikovat
usmál
trzích
Organi
Češi
zahrady
dobrodru
Část
podal
Paříži
částku
podot
Stre
Plo
platby
značka
dokumentů
##žce
spořitel
##JE
pozornosti
učit
agreg
národních
Kup
třikrát
náročné
volan
čtyřech
vojáci
##šou
marketingu
tram
spa
dominan
neus
sekret
##telného
##obí
vzápětí
životem
důvěry
komuná
majitele
##pku
##lované
vší
patnácti
##što
plní
obecné
milost
Nep
##KU
modr
ženou
stár
král
nek
##alup
šance
porušení
##znám
ovlivnit
termin
hrají
květnu
Leo
Agen
dřevo
ohlá
zachrá
is
protest
Kčs
vládu
Part
Ves
##fí
##ovny
radio
začátkem
Můžeme
št
vytvoří
skončí
Mac
reklama
##ovicích
##šo
veřejně
##řely
Eva
##ortu
Pen
uspořád
##zz
působit
ozbroj
Hist
Mit
ER
hem
vazby
hvězdy
Slová
císař
novinky
fyzické
66
Jste
ekologické
ré
##ceno
##mentem
##měrná
##dice
kontextu
chemi
plná
hluboko
pacha
Havel
##sání
EC
Super
##zeni
červnu
Zná
Dal
kroků
koupil
vidění
venkova
dová
##lesk
uvědom
záležitostí
Někdo
tloušť
chvě
##álka
zádech
příkladem
věr
tomhle
##ťte
snímku
VÝ
nevin
##jíždí
##četl
výročí
vydělá
zajímá
odborných
nízkou
nějž
délce
pramen
objek
72
##erá
Pán
ovlivňuje
##hně
##alizaci
konkurenci
jedineč
97
Res
Air
pochopil
Audi
##surd
paliv
vojáků
hudbu
lásku
poráž
##řenými
družstva
##pust
##odr
jelikož
ovládá
odejít
ude
německého
nejú
Tex
Prezident
Kře
##olu
SGI
##din
objevuje
váz
tahle
160
vyvola
hard
naš
##lína
historické
prodávat
dlouhodobé
##gon
věnoval
##rálním
jmenuje
Vaše
strategii
##chař
vepř
der
##ovávat
##ake
Mul
bron
přijel
##lio
náboženství
uzá
videa
##tivním
repor
řepky
vlevo
Dar
dívat
současný
Beneš
jedenáct
reagovat
řekli
nechala
trvat
skrom
blaho
##stero
Egy
lékařské
##káš
minuty
bly
čl
Franci
restaurace
odpadů
dav
hvěz
neče
vyjádřit
učí
Agro
##mát
ins
smích
lho
Ministr
nedovo
##óu
Sc
ukázala
DO
##íz
spekt
spraved
webu
tábor
##BA
table
nejenom
snižování
pau
stránek
ident
ig
barvu
uchaze
obý
##typ
jistá
průmyslové
Cou
otv
propag
přenes
zeď
varia
SU
nazna
kompromi
Ukraj
Ruska
vli
ing
##OVÉ
Tan
NÁ
né
##zovaný
Obje
##vné
nástav
rozpočet
Alte
sop
siř
odborníci
systé
nejisto
odpadu
běžných
##vlád
##ith
pokrý
účinek
terapie
předních
zůstávají
popisuje
##svěd
##nk
cykli
Autom
dosáhla
Řada
##centní
některý
pomů
##tok
konstruk
##áty
##ptal
výpočet
hráči
záchra
začátek
Ger
tepl
##ovité
stejná
nahradit
odkaz
vztek
kyslí
schodech
##éři
##lejte
orch
stupňů
osvětlení
VL
forem
##hém
Och
firemní
vstoupil
pozemku
##ťa
možných
Fun
dostanou
modlit
zlato
nemohu
napí
seš
Ameriky
zpočátku
##kono
yv
lem
Ul
odporu
##rator
Ačkoli
Výzkum
velvysla
ež
##lovým
porovná
prodat
##růstá
stabilní
ekonomických
vykou
OP
obleč
studium
1968
##áky
##žitek
Rena
##ZE
##SE
Univerz
Kři
Kry
úspěšné
Ježíš
##divu
osamě
šá
kód
větru
Tes
reakci
hřbit
všemu
příno
Skup
naučit
naposledy
mezinárodních
##taj
využitím
euro
přeh
kroku
BMW
faktor
pohře
cou
čoko
doprava
##cenou
Několik
partnera
tlačí
věděli
Téměř
ret
znalost
##stik
vysvětlil
##čeně
Wor
dávat
##mují
žalu
přestav
##bytku
##rála
mládí
Výsledkem
mem
dluho
Věr
připraven
devíti
Vůbec
##měs
sněhu
##meno
Ša
##rik
##rád
uchop
měste
##sáno
nepodařilo
Pal
Ele
##dární
čtyřmi
##nesla
##městnan
minimali
Alše
nejrůznějších
zvyšování
filozof
rychlejší
přeruš
výklad
bezpečí
Chor
sociálního
všiml
130
světových
výhodou
učitele
paradox
akad
snažit
dopravu
##drát
proku
laser
vlasů
nosí
##štině
##ralo
##az
##stalace
významný
právního
jejímu
##jn
##tov
pracoviště
nejlepším
věnu
faktorů
projevu
dětské
##čeli
určena
##stojí
rizik
rozporu
##enému
##cházení
útva
##sledu
57
strachu
##části
ležel
malým
Chtě
fix
fotografií
generaci
Šu
vpravo
výkony
m3
zakázky
dnem
##ÁL
Českého
konfi
Dvořá
vysíla
##řípadě
průmyslových
měsíci
##bala
##náší
pór
rozvinu
##álku
vyhrál
obrovský
ačkoliv
věcech
duchov
nejlepších
##ptat
bankovní
nimž
HP
##říš
vytvořil
novými
sběr
##poko
Itálii
místem
diabe
##nia
těžce
zhot
poruchy
Paci
Še
synd
hově
pravdě
společný
##venci
Ostrava
##tonu
##tečných
propojení
##tům
odběra
elektrárny
Nas
nejhorší
Najednou
podstatné
zjev
##kázá
Situ
nel
##pustit
letní
mezitím
110
vyjedná
českým
kolena
1948
##šiny
Londýně
##kory
Jákob
##redit
kapitán
nutnost
klade
matku
nalézt
namá
##hoten
patři
ramena
odbo
významnou
USD
provi
přil
##enku
kontrolní
pochod
obětí
##zín
09
Mist
zátě
osem
Ali
interak
deleg
##vaným
##nutý
flexi
ďá
Web
Voda
##stv
##risti
Polsku
zbě
prior
alkoholu
##nička
surovin
pacienty
Druhá
##čině
osobnost
závodu
Zejména
Zo
Sh
téhož
zástav
obsahují
##tíme
62
##čková
nade
Mohl
schopností
sleduje
krvá
díly
vyprav
suk
hory
##čící
seni
VY
nedě
znaky
Sara
##žného
výcho
zámku
##enční
rozhodne
Pau
Ital
##dor
metro
Copak
##žal
##chají
hmy
bloku
důležitou
Volkswag
uši
Gar
63
##óně
rozman
vesnice
odchy
arab
financ
##dentů
peř
rekord
Pavla
předstí
všecko
revoluce
tot
narození
kapitálu
loži
kuchyň
mzdy
úlohu
kober
zahrá
otro
used
zásady
soutěží
stáří
autoři
naštěstí
##zeli
Axle
##halo
##nm
coby
projevy
jednotlivými
korup
##ncem
patřil
##člen
ruské
těs
Jim
##pin
soukromých
here
Zji
dotaz
žán
zmíněné
##ys
vou
potr
pohov
nešlo
##voři
Nizozem
obnovi
nedošlo
Měst
uviděl
Večer
##níme
Hlu
Daniel
Víte
ohně
Mou
portré
Nějak
odvod
polohy
světem
elektronické
Číně
indu
složité
Oto
dut
jemuž
vstupní
daném
##išti
vybaven
prosto
byty
##velo
##ventu
1945
ukáže
##bava
lav
NAT
poznamenal
ovzdu
upí
neko
DNA
autobus
pav
##trol
Can
Klíč
člu
Středo
Kvůli
##tová
oddí
pohlaví
Ac
děde
snaze
známe
hrůz
bílý
kategorií
deska
výrazné
samostatně
Jes
perfek
Rumun
##advacet
studenti
série
březnu
francouzské
hád
Jižní
Velký
Jednot
cizin
blíž
Ml
##telnosti
směs
říjnu
ubo
##ovateli
##zvané
oborů
příštích
##nch
##álové
autora
vyplá
Zdálo
klen
oně
ohledně
komunikační
volný
uvědomit
##bce
Slunce
požádal
dol
##sus
vzruš
seb
příjemné
Blí
##12
sledoval
legra
národa
zvolit
předbě
vyšetřování
srdci
okou
ud
chrání
parametrů
jev
vyšším
významných
Andro
zjevně
celkově
nedaleko
##nané
chleba
##tér
nabídne
Red
obyvatelstva
##atie
##fér
Měsí
jednoduchý
ovoc
biom
dobrého
osudu
##nělo
současného
##novou
stoup
##viz
šé
poled
zbytky
##šného
clou
aktivně
##islav
Pas
Intel
německý
olympij
Typ
##cových
nemi
##ENT
dostupné
atom
švéd
##zivní
##pov
předpokládat
ose
nemůžu
Občas
Zat
##íj
##ZO
##tis
nerv
otázce
rodinné
objevily
##šovat
levnější
vraž
Microsoft
Úřad
byznys
##lomu
zesil
dívá
##IP
útoku
pověst
RE
UP
základem
##lout
##diční
osobu
výskytu
chytr
##yd
mediální
prho
spod
zbavit
##inger
Willi
##měrný
nákla
##třeba
management
zástupců
dám
nemlu
reformy
##ctor
mužem
##líků
polš
Existuje
You
##lonu
znalostí
zranění
chovat
Těž
hodinách
Izra
Sr
##ič
uspokoj
jakousi
množstvím
zvaž
premiéra
úvěrů
zájmů
kontrola
odmítá
oli
otevření
vpředu
neobvy
Bře
ryby
zásadě
vhodná
##áže
##átorů
##arch
##ire
##paň
zemře
dráž
Takto
zahradě
inzer
objekty
vytvářejí
##STI
strukturu
obět
novinář
##bilita
dotací
vyřešit
krále
dubnu
##ener
spolé
přinesla
mysl
škoda
hlav
svobodu
čili
armáda
záda
otci
zvýší
procento
neumí
Novin
##vače
##zelo
moderních
700
Jaká
zka
pozemků
Slovenska
rozpad
mg
letadla
##ptá
##držet
vnímání
##lete
kruh
##ložené
Premi
hovořit
odbyt
kdykoli
Us
##názi
##dni
##sper
##kovu
poněvadž
příspěvek
kouzel
##AC
délka
občané
##livým
Obr
koruny
odboru
##stanu
Ředitel
měsíční
PP
slzy
oknem
pracovním
Máš
##nový
zruš
##tivního
vrstev
daného
celkovou
dílem
Nejprve
předchozích
úhra
##IE
##wit
Minu
Bri
přijal
absurd
lodí
podlaze
##liny
try
##hen
průzkum
kamarád
box
konkrétních
kapali
Život
rozko
##chám
kousky
188
##xid
##tery
narozen
ero
Vám
strou
##vacích
brýle
minulém
strojíren
##stavil
##ceného
léků
účtu
kdož
návštěvě
tek
nohu
Inve
chlapec
Mak
tón
##nesení
Potřeb
Pru
pochopení
ztrácí
##ničních
pociť
správný
přátelé
nízká
##zenou
zabra
##win
svý
kratší
##rid
Art
Tri
##hování
hluboké
zásoby
##ány
šampi
osp
ztu
domova
agro
Mercedes
##itosti
##povídá
poslanci
nádr
dodavatele
ir
odo
kanceláři
investovat
##IR
postři
poslanců
stali
##ód
ránu
##chová
zálož
##moder
kým
týdně
Tentokrát
sexuální
bun
můžeš
kostela
Kraj
##láš
Taková
metodi
rozk
##matické
podnikatelů
obchody
tenis
stoupá
kated
celých
potu
považují
##mád
##kovaných
příspěv
59
stránku
nesouhla
##FA
##pp
stejného
Veb
##vená
index
endo
ord
rozmezí
kukuři
kapacity
líto
postel
lup
##tejner
výhodu
měsíčně
zbar
##ong
dně
vek
ek
mim
oficiálně
finančně
##instal
úpravu
úseku
##ťu
izrael
##pti
##ňové
diagnó
ritu
##žným
politickou
neome
jasný
komplet
naším
pravý
žádá
##ík
vyro
nutnosti
Věděl
cir
úspory
katast
01
únoru
román
Ptá
##říte
FS
zmiň
nenápad
popřípadě
vylé
Opět
##šelo
Roman
Vod
přijdou
bratra
shr
##ric
náma
##pouští
pohodl
##ěd
pochy
těhoten
lik
zvýšil
policii
Ceny
##terapie
chybu
přirozené
##avor
napsat
obci
fondy
##čkové
sděl
vašem
seděla
Sní
něčeho
postupů
návštěvu
Celkem
dokázala
obrace
pokusil
přídav
##kován
Plat
##znali
obchodním
podobného
nab
sená
##běru
přeru
krásná
tmy
redakce
Kul
kulat
šílen
##non
dráhy
volební
nebezpečné
##lování
Izrael
pohl
##jd
##adle
podoby
délky
##atři
rezist
hektar
ropy
##genní
gig
lokální
právem
přidáme
dvacát
SSSR
složitější
##list
utě
přija
nastavit
vym
##atě
dokumentu
nejas
teorii
Celá
kluk
přinese
tvé
Para
krátkodob
předmětů
##žiště
lehké
zakázek
řetězce
Kru
železniční
subjektů
padesáti
koncentrace
Kol
kolá
recy
##ač
skončení
pokročil
teda
pras
drog
zapad
politického
##zován
konání
##itých
kritéria
vstři
známých
##skl
##naté
reklamu
kostel
šká
následky
prochá
posed
označil
vyjádřil
##tečnost
##rke
##cence
zdánlivě
##gramů
kontinu
labo
##mové
##cest
vévod
##dami
investo
koná
##deb
letiště
mni
líp
Stanis
##ister
ovzduší
Sdru
Většinou
vyko
brambory
Cat
disciplí
zesí
zobrazení
Buď
slabo
zoufal
vrát
char
poskytují
##yn
výrobku
žel
ekonomicky
dohled
pražském
Oh
DN
bránit
dalšímu
vypoví
Doporu
Zdra
tablet
četl
certifi
##Dr
administra
ako
ječ
opra
##espon
výstavbu
##tl
##use
představitelé
alej
##alita
schopna
přestup
leda
Vlastně
tříd
texty
matemati
tank
##gel
##átory
sh
doporučuje
střechy
Nejčast
##stavení
nákladní
68
bydlí
##skla
tito
pokusy
linie
magist
zapojení
sociálně
vyjde
hed
sjed
evolu
výsad
sníh
šetření
vezme
dolní
expon
jaksi
miliónu
uva
Liber
poblíž
hosti
##tečnou
Přesně
Ori
nemusel
příběhu
odstranit
##MS
operaci
časy
Čtyři
sluneční
stavy
nenávi
vedlejší
##vii
Svobod
Chorvat
návštěvy
Matka
konkurenční
samostatné
Vláda
znázor
založena
##hodná
##sion
spatřil
##kovala
ref
Ig
Fri
Rud
zábra
katalog
premié
připravil
##ňo
Člen
potřebovat
sád
pravou
##opera
##onců
komunik
pracovníky
papíry
varianty
##lům
##nostem
míra
rychlý
zůstaly
##takt
Obdob
studiu
samotného
trvalo
podezře
koleč
prvé
listu
pocti
konzul
končet
ukra
nepřetr
##nuta
záhad
sporu
interiéru
Domní
využi
##zovaná
##díte
Prosím
##ME
severu
metodou
Cam
hlasů
čtenáři
zakon
fanou
neli
prach
##havě
##stiku
##sová
Jsi
moč
zanech
přicházejí
udělali
přinést
##ŠÍ
vyprávění
Paul
##fii
dopisy
Zákaz
musely
##ŘE
katastrof
##komunika
##ardní
čekají
zajímavý
souborů
##nuli
dimen
##áři
##kona
##que
pani
subjekty
Brna
##con
ule
96
##šků
nezů
podporovat
tématu
##zdvi
neměly
dán
Zájem
republiku
němuž
##ura
náraz
HDP
prohlíže
formátu
styku
intenzivní
##kend
##kovaný
vývoz
balení
počítačů
nedokáže
pud
##měla
vozid
##žou
##stroj
ošk
Viděl
##anti
norem
sedět
##kázaly
nervó
Rada
zadí
##rály
##ór
Vin
univerzitě
vají
Vítěz
##vencí
tlakem
Klad
##hovat
plav
grav
imunit
přenosu
skle
Asociace
##KO
140
příprava
ohrožení
Opat
šik
evropského
lesní
dobrým
specifi
##15
vypadalo
##ril
Juli
Zahra
žádostí
Rád
zabrá
počátkem
nevyu
zápis
šém
Konce
vyskyt
tyhle
duševní
změnou
toleran
křeh
skutečností
upozornil
Stand
straš
schval
##cl
dlouhých
vrstva
zjistili
stěně
##prů
osou
jevi
předpoklád
Terez
Nejde
potvrzuje
Michael
zmín
##staneme
radši
prosinci
čtrnáct
zaměření
vyrábět
benzin
pró
písk
##žbě
nemys
vypadala
daný
Svob
Obecně
CSc
restitu
předpově
úrovní
sun
new
##JÍ
silná
světu
brzd
platnost
takž
přep
zlom
scény
zko
##rovým
exeku
články
záchran
NATO
čekala
chodil
zdůvod
mobilních
hráčů
int
koncept
##ero
Připrav
průměrné
Říká
odolnost
preven
mladá
Opravdu
##byly
jeji
kabin
změnám
MAR
termínu
fan
##bas
dobrých
ošetření
zeleniny
##řeném
Martina
unikátní
##emu
##káží
uznání
vidíme
experiment
##dily
společní
změnila
oheň
##sol
##pily
PRAHA
mateřské
##háně
místy
Poji
zimní
vodi
pt
##kolog
vůně
##SKÉ
jedn
blízké
brz
hospodářských
útok
vyvr
soubory
hledi
##cýh
Ture
Nebyl
##rují
##píš
šup
naplně
kartu
Samsu
##hlých
67
občany
Víš
##CD
##ající
76
##stím
export
gener
vědecké
pobyt
##livého
související
##dii
organizační
dív
půlno
##ara
prova
donu
kilomet
War
74
##yt
unifor
dveřích
sazby
##tahu
bouř
VF
skrze
##enka
##ford
vyú
Ange
##jád
Dej
pustil
partnerem
konzerv
zále
##právní
splnění
doč
car
spla
diskusi
Kateř
zvýšené
úsek
býk
Československa
SD
politický
čela
infekce
aktivita
možný
marně
venti
MI
##cový
##stek
letu
pražského
##vers
##NÝ
##nickém
Janko
Svazu
prstů
zůstalo
##zoru
osobě
hoj
Vývoj
rysy
##stand
spravedlnosti
##hony
přechodu
jasem
##ráku
##icko
podporou
pronásled
ato
našim
##don
malém
##louho
cestov
srpnu
umělecké
vysla
esem
Ide
starou
##tující
výdajů
ztrátu
##ejch
ISO
hrabě
návštěv
fakulty
rekonstrukce
##TO
##vaje
modul
Ostrav
Cen
##hlížet
otví
Samot
pož
archite
Vrá
dvojice
Aktu
krk
RS
dokumentace
##lostech
mozek
zřetelně
patrné
stínu
napříč
##jních
stoj
such
blíže
národů
##zít
##LO
sponzor
příčin
potřeboval
edit
Tří
keře
důležitější
Zvý
finančního
kont
Meči
Pho
meziročně
smlouvě
stanovisko
center
podpoře
postava
baž
vzdal
struktura
příležitostí
##vátní
##entuje
Toy
opakovaně
Fra
##oli
##redak
Apple
ponech
Malé
##snější
volba
úřadů
bojovat
zdravotních
ču
anté
lidská
jezdit
##ester
původního
myslela
##opravdy
obrázku
antibio
epo
zro
reha
známá
vaje
##myšlení
výslov
##ničku
Chvíli
správa
##čeným
##low
zopak
zava
pravdy
obvyklé
záhy
Mr
##tic
daňové
dražší
menu
deště
převaž
neplatí
##řský
výlu
Arg
##mější
porostů
##iera
onen
poď
rozpor
##ladě
##TV
uveřej
známky
konečné
orgánu
skutečný
pomohl
##11
oxi
přiví
specifické
Gal
nejsil
kerami
rozsáhlé
nenech
##spěš
##ffi
kdys
přitaž
##věl
prozatím
abs
Mary
přestal
Prost
Lis
Austrá
##uer
objas
pozů
překoná
ony
uply
Králov
studii
anony
##ckem
přírodních
##vedli
put
##dele
husto
bytost
tlačítka
bled
Gru
stanovit
neup
kávu
hlavi
přijat
Patří
víry
##ille
Del
##čtu
předpokladu
trendy
##kadem
##vědom
##áku
##dosti
holči
##sexu
rekor
kalendář
jarní
čísle
velkými
UT
##RY
testování
##kovo
##zili
Pala
##růstu
kontejner
křídla
Evropu
fenom
Poprvé
ponechá
uvažovat
hodnotou
metru
městem
definitivně
scéná
člověkem
dovolené
##chel
vyřa
##eckonců
##žební
snažili
emisí
agrární
##ologii
Návrh
kontrole
částic
nevidi
zapomněl
výstava
uzavření
##kaně
##livu
realizovat
půva
##ness
drahé
Old
02
šedi
##hneme
pová
Jarko
##sadila
zaují
Chceme
potre
MF
terén
převa
Podstat
ang
##vajícím
zar
zasa
sak
narodil
Vez
##ÁT
CO2
vzdělávací
zázemí
sn
Začí
federální
fotografii
parti
říkali
horizont
jhem
obhá
mostu
vyhnout
Uži
infor
##UB
alce
manžela
mis
Jánko
konstan
dohodu
pouhé
bílá
Čt
##rol
respondentů
mú
zima
May
základního
víken
Polá
svěde
černá
##zeních
Prak
naru
odpočin
ruká
deb
Kne
ničím
soukromí
pohyby
zaměstnanec
##cia
přile
##hře
William
Moj
ZPA
##talo
##stevní
BR
Harry
hardwar
naruš
přiznat
##zovali
Psy
čeští
Stru
pozdější
pohybují
##žemi
Ken
odlišné
odez
poměry
Blue
350
##máhá
##tugal
odpovědí
způsobil
skupinou
##anty
režisér
bezdrát
zemědělského
efektivně
navrhl
kali
přistup
##ňou
Komise
zapí
##níma
##štěný
sloup
jednotka
úvěr
##cht
Polska
poznatky
Vš
odraz
představila
poradce
uvedení
stere
##spir
##lak
##leným
kameny
##voří
infrastruktury
živnost
##hlub
povinen
Olomouc
diferenci
agentur
York
88
vzpomíná
Nejlepší
##tnou
##cují
Em
dár
##ůr
##ann
##eton
směrnice
podat
##aster
softwaru
utrpení
budování
alek
nespokoj
dostávají
napodob
kami
Nejvíce
organismu
hledal
dělí
vlna
zhrou
Th
Pokrač
potá
jalo
zahy
Pos
##něným
poptávky
##tože
125
výrobek
vrcholu
Ren
Předseda
množ
Jane
##ovník
##ženými
Žádný
škr
budova
##prese
dozví
bas
##éž
1988
koment
nejnovější
nejrůznější
celková
válku
výhled
Evropského
upozorňuje
reálné
obráz
kreati
teplá
dekla
másla
##citu
##něni
mrk
GT
Jean
##dechl
vyžadují
##jního
hodinky
##sané
##zilo
##lující
ústřed
##tory
hledají
plus
##dly
IB
tmě
pokládá
Rakousku
jednomu
ekonomický
podnikatele
zdůraznil
oho
##rálně
vedlo
iz
školení
zaměstnavatele
návě
ČSN
PA
Doktor
ozval
milá
##TĚ
##hm
nedot
##rubí
stávají
Mam
Pochop
jedince
dozadu
popř
Ačkoliv
návštěvníků
astro
##naly
jistou
projeví
zakry
Nemá
prozra
baterie
##emokra
metr
povede
objektiv
žáci
human
určitého
studenty
uskuteční
##kří
orchest
konek
##árny
pozoroval
##lely
levi
##inter
trvání
mléká
ruční
brány
Žena
zadr
##ovatelem
##bie
každoročně
podílí
stři
Power
jihu
defi
diváků
gymnázi
generálního
Kun
ojedině
rozhoduje
koupí
##via
kategori
bohatství
čistý
papírů
##čkám
nejčastější
vašich
vstal
prošel
##kum
##loup
##jdete
Intern
zakot
##pustí
##amer
ministerstvu
pořádá
platební
testy
prochází
důvěru
trhů
necháme
segmentu
těší
Publi
##škem
##sona
zpochyb
veget
Ostravě
místnost
##davě
Anglii
jednoduchá
táta
mistr
ukry
vyjadř
divadelní
##nesi
býlí
dopoledne
Opti
uzávě
Takhle
povahy
Rudolf
expan
popel
98
britské
černou
složek
metaboli
PS
skvěle
udržení
Zřejmě
exp
vlaj
poradenství
uvedeno
nechali
osvě
##řásl
uživatelé
analýza
stla
zlé
kolí
##ovatelné
Jer
##sení
zaú
jednodušší
obu
sur
poptávka
překvapivě
výkři
zdejší
opustit
##zory
##štěných
dostaly
architekto
projít
##ezli
skladu
zásu
postrá
váp
hasi
úkolů
krásný
šíření
zvon
##vaně
soukromého
##děte
##ovského
##lárních
bojí
poskytovat
Bruselu
zvuku
Kdybych
Růž
Kel
##sot
##itelné
vesmír
knihovny
manželka
obhaj
abstra
##rokra
sportu
son
informačních
výnosy
choroby
##zího
výcvi
##oved
hrou
typické
zame
existovat
##skové
myšlenku
přispívá
Ludví
##hová
spek
Vir
prvek
průkaz
cíli
##vacího
##mily
přímý
##ovanému
obvodu
Jelikož
samotný
jaderné
Paříž
mlý
##vzd
silnou
##čivý
KDS
##boře
emise
Gor
vnitřního
opravy
Zda
Tvá
ment
##bard
výška
matce
73
oběti
zbytečné
##sána
detaily
Oči
operací
Ři
násle
učinit
armád
##ovna
##může
##UM
##čoval
Důležité
politická
napůl
hráč
##ente
subjekt
##ns
spi
varianta
Občan
##all
románu
stavbě
obrázky
spr
předsedou
##skutku
CIO
Jir
necelých
postře
rytí
stavebnictví
Miku
chyba
##lezl
##nné
stáli
prefer
jízdě
ese
Lip
atraktivní
ničemu
vozidlo
##way
švýcar
##stoupili
dokázali
Práce
týdení
##jímal
82
vydala
rámec
Bratisla
##ue
ČSSD
nedůvě
úzce
##žité
odpovědět
průměrná
##inské
bůh
Uved
Výraz
rovině
bož
pres
upřes
principy
zadavatel
##naj
Johan
Eco
problé
vyří
##ovanost
tvoje
všeobecně
moji
srozumi
Naštěstí
Musel
úzkost
severo
##dělila
bezprostředně
##rající
svi
dni
rozhla
intu
Partner
##fá
##ction
kosme
Mob
životnost
##avost
signálu
pré
##stel
##dlu
šéfa
##žkou
##pěl
obtížně
##hó
zmá
vývojem
letou
podruhé
nahlas
partnerů
císa
výrazem
porce
##kována
hluboce
zeptat
##kovali
festivalu
##šují
Chcete
morální
Rozhodně
Ekonomi
##lenu
vce
poslech
Případ
příčiny
##tce
Zach
komerční
##izo
přemí
##iz
korespon
linky
##onáři
Moravy
nacházejí
neobyčej
##fou
objevit
dobách
glo
kořeny
kontakty
speciálních
horizon
musíš
##sse
nadšení
oct
##hnul
##enácti
zmír
ústavy
sekce
zdát
podlož
usou
chránit
sklep
##vace
členství
187
širokou
94
prachu
zřízení
okruh
eti
##živa
##ickému
projek
flu
klaví
##áln
##svě
nabídl
předví
##sán
bezplat
nechtěla
dokážou
Pek
##óna
barevné
##později
plach
Mně
důkladně
komora
doopravdy
Leon
jarko
písm
69
Zapo
oběd
různě
##žíš
jíst
Konec
iro
podmínkou
##daní
chladi
kníže
jal
předpoklady
##ologických
založil
##kuji
významným
popo
protoko
##kety
vpřed
Však
##rojí
státě
zbývá
židle
baví
navždy
okolní
žáky
občanské
podává
vybu
použitím
bub
silniční
##gicky
##rovo
stačilo
nestalo
pokračování
61
##letu
dopravních
emb
bateri
vedly
osobností
dítěti
Pit
porodu
správce
politiků
navštěv
květy
##vatelé
rány
mast
##AB
Ústí
##SKÝ
##lera
amat
dovolenou
Blo
dodržování
Nově
obratu
bílou
##enách
pravidelné
dohoda
un
Dál
čelo
Chtěla
Důvodem
inovace
Šlo
##nům
##začních
čerpa
úmysl
transpar
zavolal
pacienti
jamko
##lář
léto
lese
nam
třetího
podpořit
předlož
spojit
Jez
neboj
získává
zemědělce
Volkswagen
literatuře
nevyhnu
barva
Slovenské
UN
posouzení
sat
skrývá
##telům
Dub
novinách
vyplatí
službách
Gre
tzn
říše
neděl
desát
náhradní
zachovat
obrazů
teplotu
červenci
veliké
Zby
producent
ekonomika
##pamat
jsouc
lhostej
teré
vinu
výšce
horm
bezmoc
##ložíme
elektráren
internetové
bezpečně
Agrární
deníku
vlak
stroji
rozšířit
Republi
##chali
jso
lesů
##systém
##alismu
zvuky
domácím
špatný
jakékoliv
zvedla
nastoupil
víkend
##hno
mer
##ding
##bulan
ČE
##ež
vůd
##tových
bezvý
transforma
nevá
##ardi
##linu
##LAV
bob
Jakub
titulu
srb
alternativní
plaz
vteřin
jednoznač
fré
Českých
vidíte
##nií
sex
skládá
##ánské
doplňuje
haly
tempo
předchozím
splně
##štil
klienti
prince
posad
2015
přetrvá
sester
proží
nespo
vyvolává
##cítí
##plývá
řadí
pohledáv
lidský
výhodné
plném
buň
dědictví
##celo
koncepci
postižení
zvýšila
##daje
Vás
mezinárodního
setkat
přežití
##ceméně
konzult
cestách
Mexi
témata
Test
onoho
blok
následné
obklop
košili
##spoda
zdob
věty
prázdné
upo
##mrtí
nastal
celým
náznak
účinné
stěn
myslíte
talent
tělesné
příběhy
##levan
byv
Bran
##hlížel
ras
tabulky
##ňovaly
Blan
bohaté
chápat
malič
##áře
prezentace
označením
##ida
##ott
##pádně
letí
ztráta
univerzální
snímky
SC
zčásti
logicky
186
demokratické
vyber
leasing
Maji
Nelo
selhání
hm
zápor
pojišťovna
Zemi
zaň
pneumatiky
jichž
úvahy
zpracová
novely
visí
zvláštního
##idní
##šíte
tuku
Chá
nepřítom
Klá
umožňující
podlahu
jakožto
minutu
otcem
Hum
pozorovat
čaro
myslíš
##peri
vyskytuje
##lari
1500
av
optim
##nulo
Trochu
##onem
robu
##nko
##tého
oceli
čtenáře
sny
##pet
Naproti
##knou
##němi
Bed
příklady
##ross
##ló
zlaté
Babi
roků
##bku
názvu
Jenomže
audit
##lam
aero
šedesátých
##hodnou
nějakém
struktur
pracovník
Lam
círke
kach
vyskytují
##cítila
řádně
zápla
ředitelka
##sklad
prognó
Slá
neposlední
široký
##nového
volit
Budu
pta
cestovní
zapomenout
traktoru
pum
žár
službě
požadavkům
určeny
sále
prakti
Led
##atických
##rana
faktu
##parátu
##havé
vyslech
těhotenství
Dig
Severní
84
prodejní
##bují
nejbliž
hlasu
těžký
náměstek
divu
snahu
dostanete
vědci
##bech
cele
stupni
Profes
celost
určitá
kok
##fikací
nezna
DS
Jednodu
startu
ubí
chápe
nechtějí
přísně
báje
opustil
plamen
večí
bot
Vznik
kusy
zbraň
Dítě
##mické
##klon
výpoč
Nedáv
neřekl
Pět
##fikační
klientům
autě
zají
Bým
telefonní
utvá
ima
přátelství
statu
spojených
oběť
##mům
uce
bílého
postoje
asistent
##děním
pohlédl
zapá
##tropo
tématem
pádu
předu
teplé
devat
##roba
stag
listopad
##idu
domácího
každodenní
Moderní
nat
expozice
posk
kočá
##ňovali
zvolna
##platí
Asie
záběru
##čností
zása
Marek
klesa
reakcí
analýzu
laborator
budově
pohybovat
##ďa
originální
značkou
Egyp
Zla
zastoup
HT
speciálně
prodlu
výjimky
naklada
dluh
Pracovní
Československu
pravděpodobné
uplatnit
zabi
stavět
##vnění
bene
přímých
vertik
štít
problematiku
##yne
povinné
Nelze
dos
šéfredak
uto
##ij
##antní
měří
hráče
vydrží
napa
instalace
uspě
##lety
prosaz
ekonomického
##eností
verzí
primární
zasvě
festival
stěží
Chod
byls
##zec
zátěž
směsí
externí
vznikly
KDU
##cino
podívala
ikon
##síte
##vent
dodala
hloubky
MO
##dný
účastníci
většího
přikývl
##něj
způsobuje
Čína
Pad
vzniklo
déšť
snahy
##ěv
rozpa
##rných
##zne
hrani
prostředek
láhev
vážné
akcept
radosti
drobných
##strace
##rgo
Renault
Jindřich
ženské
vali
##meme
prezidentem
vese
figu
populární
Polsko
Sdružení
obyvatelé
dceru
vybírat
cem
spotřebitele
míří
horách
dvora
##xní
tělem
##ls
##stily
spojen
polovi
Plá
přeje
ležela
podříz
království
státem
drti
uložení
zmrz
obřad
návod
##mala
##účast
##kaza
oznámení
##ýr
prosadit
souvislost
##ňat
deník
##úhel
koupi
kdežto
usmála
##býval
inscena
kruhu
noteboo
##šan
prask
##mii
##lana
matur
důležitých
Existují
desek
Europe
##štěním
zami
jazykem
Mel
nejob
Glo
##níček
částka
omezit
Anglie
##novým
písně
##cejí
volného
displeje
podráž
promít
lym
zlepšit
dohodě
##liví
Loni
Účast
##lě
jednalo
posílení
spontán
Pob
příznaky
Město
stromu
Šest
##IST
diplomat
galerie
konfigu
Mir
Bio
##lelo
Dem
podlahy
il
uveden
Sun
##viny
Komer
dobí
##litou
trávní
básník
Oz
lond
minulost
dělala
ovládat
rejstří
sníží
POD
izolace
postupovat
slunci
kontrolou
ekonomickou
řidiči
oře
páry
připadalo
##dělala
##udy
druhému
vyhlášky
blesk
##cházím
projed
##stka
zohled
nedostatku
IC
producen
angaž
tvrdě
obry
konfliktu
inci
##lův
##mentní
Tímto
Váš
##hodnocení
##značné
nevadí
Phili
Vele
##dium
Sig
##ýká
domin
posun
dával
názorů
##most
hladiny
tvrdil
historických
Kri
##jdu
témat
Jac
##plikace
##stitut
##UR
přelomu
OKD
Nemoc
konflikt
splat
kardi
výchovy
con
zaše
elektri
chlapce
International
zamýš
##vci
trap
nemožné
##rc
nádrže
##mrt
plášť
Ara
úmyslu
vytápění
vzpomínky
faktorem
úzké
úspěšný
##UP
dikt
motocy
##enské
přiti
Krátce
##rovém
##isu
písku
##ning
účetní
##řich
Zh
##dom
##nc
##cíh
nomin
##jala
kred
##kovaná
vášni
Brzy
sklizeň
hokej
správnou
##kážu
Mnozí
zatě
učitelů
##vange
nepatří
##19
závo
třebaže
Bos
##tivi
údržbu
náčel
deko
nepř
ultra
##lub
Výbor
78
##ratit
pouště
##zely
připojit
podrobně
angličt
jisk
##telské
dostatečné
čepi
KON
restauraci
dokončení
příslušen
##ovají
paže
připravila
tvrdé
Zkou
nespráv
nádor
krva
HZ
Brazí
velik
přidě
##alitu
jasno
činil
zadních
dospí
Jmen
obličeji
lob
##nomie
nemocí
trestní
pozemky
dějiny
##síd
zao
volbu
##rátu
lež
boží
traktory
současná
##ére
kopce
Kre
Nek
zjistila
akvizi
znova
čtrnácti
##wi
##leš
máma
nezas
##líka
telefony
DM
ustá
pronika
mobili
jakými
veškerou
uchy
komodit
##šina
Schu
obsá
webových
krásně
interpreta
vyn
byr
pocitu
uvedeny
Němec
nebudeme
##lít
oliv
Android
Stří
žili
základu
pití
konstatoval
islá
##dne
vyžá
##hlíží
##toto
##EV
státním
Žádné
kapacitu
##dici
##pace
muslim
administrativní
označuje
ROZ
Model
karoserie
divadle
lan
kl
ekonomiku
uvede
##dno
radostí
##pím
matkou
klíčové
představí
ohle
zájmem
domnívá
gest
tabá
Vešk
Požad
rol
Okam
dělali
běžný
stoupa
vybral
jinému
víceméně
dcery
úvěru
##otou
kotou
spolupracovat
mapy
zuři
volá
Cal
čekali
čtyřiceti
Nejdřív
##atou
snímek
##ac
zákro
vybrané
##sové
hedvá
odpoled
přinu
potrubí
##oevrop
správě
týdnech
přizpůsobit
Včera
Staro
900
řeknu
vycházet
firmám
Náv
dospělých
měšť
Elektro
domem
vskutku
článků
oboha
věři
BB
plnit
mam
poprav
##řou
vystře
##antů
trů
trestu
MM
zdí
##zujeme
spojuje
Nemám
obchodování
mané
185
splnit
Sot
komfort
šach
příšer
kávy
bílých
svojí
Čes
##mlad
zápa
Labem
zdravé
akadem
staletí
černých
##ňě
progres
pokoušel
zkušeb
někdejší
##gace
platné
projíž
disponuje
hodině
Vari
telefo
##valit
aktiva
argument
##tim
stavebního
vzniknout
cenných
opil
3000
zákono
vnímá
##zrak
pravil
Prvním
##zší
##tejte
ambulan
analog
##bility
Neo
bosen
obyvatele
Sob
konfron
pse
ulicích
eventu
##rův
daly
soudce
Rychle
##žejí
asfal
##tém
Číny
##sf
seděli
rozumu
skladování
designu
##viron
##řet
##daly
##bezpeč
hale
184
pohonem
tvary
rozdělit
nabízet
řídicí
najdou
Ladislav
podobná
navštívit
praví
makro
##rup
Čtvr
traktorů
Střední
potká
provádění
dopravě
chlé
patro
farmy
automobily
nechybí
Gr
nabit
dřevěné
přestěh
rodinných
##znamů
zhu
##inek
Benz
##táž
lék
instalaci
proprac
liš
sběra
fer
zařazení
výkonnost
Ondřej
##zání
skand
Dobré
návaz
hvězda
##nutá
zác
##líku
byrokra
šků
Lev
vysu
Oproti
odešla
soudru
##stky
přispět
způsobit
##rování
fre
##jě
hezky
určuje
##nutých
Velkou
obsta
kultura
přítele
##dové
semen
recen
##ĚT
pololetí
odborníky
##fikované
cos
vitam
##isek
záv
vlasti
tragé
touha
věže
##štej
rozhodovat
Dobrý
nejstarší
plánuje
##ůjde
poti
Samsung
##tolog
##plní
89
synch
##mažď
prevence
##ally
koši
kas
nejza
cizích
zařízením
prozkou
mlčky
bezpečné
Zástup
Slav
Nut
dvojí
návy
##konal
kapitole
##daně
rekonstrukci
odpočí
dosaženo
ovlivňují
hygien
zastavení
pobočky
úpravě
##rovy
některým
různá
Očeká
zdvoj
revoluci
pneumatik
stejno
stanovené
##ředu
zasí
##měrech
Bre
viny
sklení
muzeu
dosáhne
betonu
Henry
vypí
86
původních
pozitivně
titulů
##zová
lodě
Vlastní
ukládá
##zetí
poplatky
mladého
příjemně
Zcela
zhou
vyrost
právním
nož
Tor
uv
kohou
teplotě
ocení
koalice
##akce
žalud
Lar
domácností
Poč
Neměl
procesor
83
##žností
zdravotního
Zato
interní
veletrh
vyzkoušet
ram
##beth
přešel
Dříve
Port
##rovaný
nutná
metodu
##čité
variant
vycházejí
vyprávěl
knof
poezie
nedělá
##ovná
autem
vstoupit
Sony
rozmno
ošetřovatel
##sý
enzy
krém
cestující
lidskou
##řského
včerejší
##oj
odpověděla
tup
liber
Joe
Kontro
rop
Vysvět
cítím
odpovídají
automatické
přípravky
##šl
objektivní
parkovi
Hlavně
hlasitě
zachránit
##stickém
Ein
chalup
rozle
##ftu
Green
##výš
81
Hrá
Mohou
technického
svědectví
Moskvě
oti
Výstav
##menut
Prahu
investor
kalku
rozptý
##sadili
vznikne
##vič
zvyk
Fis
##inářské
Nemůž
##LÁ
##nis
čištění
namísto
Hru
##áka
har
##meňte
posadil
##rovaných
Které
naklá
jater
týdeníku
zeměmi
Nám
##avky
poloze
zahraničního
pomáhat
radu
##inga
frekvence
svatého
téže
socha
hlásí
znem
##rip
pasivní
Františka
##ího
setkal
Sest
Navr
Ministerstva
námit
hosty
##isa
prosper
rozkaz
##stku
Stál
##šed
Anebo
UŠ
představoval
##oria
vnitřním
##lyn
lad
jednost
zákonodá
##kovány
odvahu
časů
kráde
Předpokládá
vystoupil
humor
##wood
úvěry
aspekty
Ško
relativní
GPS
##ovaž
SRN
MW
Způsob
vysokého
byst
danou
třetiny
pozorování
vyjadřuje
170
dopisu
odha
nezaměstnanosti
Šéf
RA
kanál
krátký
turbod
Hro
telekomunika
někým
těžkých
chovatel
přístrojů
integrace
Bole
nepříliš
Budeme
povídá
Zam
rem
důchodu
rekre
žlá
vyma
##volá
bát
třetinu
evropský
jízdní
centimetrů
##padne
Lim
peří
stopro
vrátili
politici
potenciální
##picky
křižovat
ligy
převzal
pevný
konat
nejsme
odvolání
Spojené
Dosud
Situace
Nemu
dovozu
umo
mládeže
vysta
záchvat
odchod
inva
oznámila
lásce
Nechci
přemýšlet
univerzit
přitá
odchází
##zii
taký
zák
vodních
nedostatky
Boj
nejrychleji
holka
nabídkou
pozdějších
fol
oné
##sích
zajímavá
nářadí
##vádí
##ovanosti
básní
následuje
##fra
PZO
uskutečně
pedago
dopady
dáno
netra
jara
násob
přesvědči
Data
nález
##vraž
starat
##zována
majitelé
vcelku
slyšela
úraz
potřebujeme
##bné
vnitřních
Zvláštní
sum
scéně
stropu
dozvěděl
víru
vrtu
Začal
mrtvých
##eho
občanského
##boha
##ers
omít
výse
Zásad
studené
vesměs
##atický
##IK
čerstvé
naučil
##esa
přípravků
tvořit
soustředit
zásil
nástrojem
zvolen
Rober
exo
částech
zvládnout
nakráj
Ak
účinku
žluté
##dře
Fakul
sortimentu
dáme
tatínek
bre
##ládá
závody
##our
smluvní
##řská
Svaz
##ivně
setí
Rakouska
likvidaci
úkor
finančním
party
vládou
Cesta
kapacita
stály
Obraz
různým
pobav
pomáhají
poza
zpr
Úspě
náladu
napjat
Druhou
nesná
všechnu
ateli
panu
úplné
chlapci
bezpečnostních
plukov
obsaz
##itů
##stům
rozvíjet
##oven
situacích
zhas
vnímat
jezera
závislost
advoká
Dvou
Naši
normálně
rámu
čtvrté
dodavatelů
##Tu
##ťme
##vána
##dnou
##ovej
umět
trati
obdr
nátě
značnou
PVO
sáz
##pela
zlata
východi
skříň
závěry
##večer
stačil
peči
##sic
reality
koro
trop
##ierarch
##vuje
trošku
Jasou
##rova
délku
Film
Host
webové
uzavírá
zrak
přál
jmění
reaguje
Mont
##lečné
šestnáct
Hodně
Svou
tari
##vola
##mné
explo
odůvod
pokračovala
kalhoty
##konomi
pravidlo
předmětu
investičních
Čechy
myši
orientaci
##uge
kapitola
08
vzná
zdvoři
##cos
světového
informoval
zabít
Moto
##radil
Grand
drát
budí
##pií
ČOV
##deník
Rok
plynů
hosté
jedinců
Rozu
Vídni
##RAN
mláti
Kas
kritérií
umy
Překva
manažerů
obav
kontrolovat
dívala
pový
vešel
##mích
publikace
litru
af
různo
zrna
užití
##ónů
##ativně
bel
sedadla
soustředě
tech
##čana
těžší
skot
škodu
mlád
lesy
žádoucí
EP
tav
##bát
##itele
fungují
tajné
##tým
kel
Augu
tich
panelu
vylo
##váš
opozi
##skách
gastro
rozhodnutím
zkoumání
cm3
plátky
##ženě
zahr
posel
založen
oké
určitým
došel
trestního
policisté
Národního
##knutí
česky
klasických
blou
prohrá
kabiny
otisk
dělení
pokusu
Prou
všed
sál
obory
rozma
rafin
##stému
Bože
ska
netrpě
Pel
káz
způsobů
suver
datum
terapeu
signali
označit
Rak
šar
Pár
potvrzení
nezi
##dií
suroviny
nemáte
držela
účelu
Veřej
Leh
osobního
##ěděl
krátkou
Olomouci
Ron
Viet
kanceláří
stejných
zvítě
cigaret
##lních
##řky
založené
Asii
SO
Pamat
vzali
nenapadlo
Všeobec
nevěří
schválení
nenávist
##idů
pouzd
představitelů
dvůr
zti
nejed
##anech
Sně
##lemi
nechte
hladinu
Zlín
černého
##teb
filtr
##LAD
##CÍ
Muze
kyseliny
oslav
vytvořila
Uher
sklou
##vn
##EG
bílkovin
stavů
obvykl
výnosu
myšlenek
členské
veterinární
nemovitosti
zůstali
##itelé
návrhů
měřítku
##bka
nespor
##líš
CP
pojistné
bolestí
spolčeno
problematice
##heim
cokoliv
opi
Pop
inflace
nějakých
nejpozději
solid
upravit
formát
právu
velikostí
vul
žu
Bulhar
FM
##rům
##hraje
skep
výkonný
provozních
přírůst
ňe
MZe
jemné
ložnice
nehyb
soudí
textů
##jdeme
Výhodou
System
pohledy
smut
vyhla
ekonom
extrémně
časové
pražských
povědomí
novináři
Doufám
příru
květin
krevní
výjimečně
kombinací
exklu
vzestup
##cova
papež
##anské
##táhla
výuky
požádat
nefung
Maria
##jsem
nemohlo
##post
jejími
##znal
##yk
děsi
kapacitou
##vajícího
##mak
bezú
důkazy
##bavě
Kore
zadání
čtvrti
ničeho
konden
privatizaci
##tre
chudá
Nejsem
hospody
slepi
ministrem
renes
architektury
PET
##žního
develo
konkrétního
podpů
vesnici
##šující
koloni
disky
West
papri
##platek
intenzivně
Vysoké
Malý
Sym
zavřel
##meně
otevírá
##odivu
hodil
##kos
spory
obchodě
##unda
vypadají
Těm
ráz
Konkré
předlo
živin
upozornit
očivid
glu
##roblém
mezinárodním
shodu
nutí
tradičních
dobrodružství
investorů
##žující
Neboť
aktivitu
##šíš
##sey
##ČNÍ
bubli
zahrn
regulaci
považoval
##TER
Hil
shrnu
změnilo
##ÁN
##vacím
Bach
Mini
scénu
seznámit
pořídit
tepelné
jakkoli
tah
Rakousko
lod
SZ
##mis
formální
##átorem
vzpomněl
##nicemi
našimi
pob
##ravedl
Mark
##romadě
##strukce
Bezpeč
muzeum
menším
užitkov
dešti
Šel
nebí
odtr
Potřebu
našemu
inteligentní
časté
zaslouží
Street
##šinou
úhlu
rozšiř
ukli
šestnácti
zajímat
priorit
vzrostl
moderního
##35
naprav
kudy
##jt
##vány
vyvolat
seriál
##číš
aro
ptal
průhled
##dním
oš
předpoklad
Clin
rozměrů
běžného
nápravy
družstvo
sortiment
chut
71
##pý
určených
##mněli
##cto
Řec
připravena
náhradu
oblíbené
Pon
reli
láskou
##ónové
Komerční
cti
nepředstav
hej
kampaní
87
třináct
tendenci
Domá
Plu
otvor
samého
ďo
sebem
vyle
proběhla
##váni
pojí
zac
nastup
##ánů
##bran
Pravda
poslat
##érie
váží
vědom
dějinách
flo
bibli
vodo
komunikací
hovor
uf
nanej
atmosféru
uve
nárůstu
##ull
Ope
term
##RAV
##udoval
ležet
účastníky
snažíme
vyhle
něčemu
Nechá
západních
šper
show
poslání
součin
spolehlivě
komisi
##chozí
cenové
Mur
##ivních
absolutně
opozice
##cus
Regi
záchod
Podrob
hnojiv
kulturních
desku
technologické
vůdce
Hospodář
Lor
ts
povod
evidence
##spekt
jmou
chr
##skok
##tahuje
Hud
Roku
vánoční
Christ
Objem
postupem
vyrovnat
plodiny
novinkou
schém
otrav
##cně
dálnici
opakovat
##zovány
##mentaci
omlu
##mohl
úmrtí
kurzu
##látory
##25
gesta
##UN
##ins
architektu
svis
GE
podílet
##oth
depres
zdravotnických
americká
Lubo
kvar
Fr
poslouchat
šňů
obran
##gue
uhra
vynu
vylí
vyčerpá
kvalitou
##ština
výrazný
zaměřené
zmizela
tunelu
vzorků
##lovými
přiznání
vyhlášení
nee
baru
##cě
##čové
patent
Rop
Informace
Anti
cibule
větví
79
střet
##xo
##skočila
hovořil
##grafii
##íl
motý
tvrdit
krmiv
##činou
výstavě
##běhu
UA
golf
Edu
váhu
##míme
##čítal
Py
##stara
technicky
##bs
strávil
ado
východu
##sudek
průměrný
mouky
fú
##ptala
dokola
technikou
Sho
Trans
přek
City
pracovala
tvorba
kulturu
##rz
obsahující
proběhne
zdravotním
sedá
hlášení
nainstal
procedu
pojmy
píseň
##diště
polní
semináře
zaka
##kročil
##jednání
ohlé
neštěstí
rozbit
Stě
spotřebitelů
italské
hněd
##ňuji
##šech
věž
##bývají
##rio
zájemce
sboru
Indie
suché
nasá
masivní
Čechů
šikov
orienta
osma
Kap
nespl
Siem
Nova
##řům
tmavé
##cházejících
aktuálně
##anice
dusíku
##kupe
##deo
tuny
operačního
Působ
##čtyři
člena
oranž
hnu
síle
nápady
##áni
##hone
vybaveny
střediska
##procentní
očist
##ans
týkají
Fon
##vlast
následujícím
##víme
hnědé
stovek
vztazích
##év
rock
odbornou
##statek
##sun
nižších
odně
svrch
cení
##losrd
Vypadá
##ceným
##oto
##iness
Nat
šve
zor
ženská
německá
registr
relevan
chemické
mrtvé
prodloužení
Cas
##pochy
mn
gala
celkovém
vlaku
učinil
Gale
##škách
učitelé
protivní
kurz
podávání
hierarch
sekund
osmnáct
StB
zkušební
##čkování
slabší
tendence
závi
Střed
starosta
internetových
Archi
skončilo
zakrý
jakž
##inací
poradit
zane
PŘÍ
důležitým
##tích
##oro
##prv
obej
následek
Atlan
znají
zdůrazňuje
promluvit
vlivy
dokázat
přáteli
##áním
##razilo
##jim
houby
křesla
krmiva
Staveb
##ářů
Seve
tvůrčí
závodů
Pil
rud
Větší
bavit
vil
##rgie
##címu
odráží
##středí
##ovánu
dnešního
medicíny
dělám
elegantní
příp
budovu
##sudku
dží
ústřední
nežádoucí
obsahovat
jednoráz
inhi
aplikovat
společnou
qu
zate
nemusíte
Fal
##ika
dálnice
Mnich
Otázka
##lačních
překonat
##ravé
kuře
touží
podnikatelé
##lady
Obrá
ekonomická
civilizace
##ach
ručně
Vytvo
klíčových
silnic
pohodlí
kdybychom
dna
Vstup
vag
rozšiřuje
Slez
obtěž
čokolá
krů
mrtvý
klesla
##tební
2020
pracovně
připe
chodbě
Dobrá
##naný
##itelně
knížky
vysokoškol
požaduje
Las
##cer
##ínek
Alexand
mládež
zříz
naroz
zážitek
kostí
##stici
vznět
##řina
mizí
zpoma
Dokud
Znamená
chuti
dnešních
Svoboda
zoufale
##jištění
Sama
vývozu
roh
podr
##enechá
adek
nakládání
vzne
albu
jho
shromažď
zaregist
zvyšují
jdu
##kládala
generací
usnesení
Parla
kanad
##kující
řece
Nemůže
nasaz
Celé
##neí
užitečné
##stoupení
dána
připomněl
koř
##meček
zvítěz
vymýš
patřila
vzoru
rozpoz
##nní
##atická
Matt
##jmy
Uči
repu
vyza
Přece
zpomal
##esu
prostorách
liberali
čaroděj
skut
rádio
ČNR
##gnit
dosahují
dílu
Následu
##orks
##ella
##neři
Řekla
Mali
děvče
jil
##ght
Facebooku
Býval
dávku
automobilu
srdeční
##řo
##komuni
##kna
určitém
mříž
považuji
Hus
##sv
##cií
hospit
proš
sklizně
Nepři
Policie
patře
výměnu
SMS
dezin
napoj
sídlí
požadované
čtenářů
JAK
Řešení
nero
##mut
Ros
HZDS
Nád
elimin
ker
pohledá
programem
snů
##illi
##hodin
##hí
přečíst
mA
transplan
územní
Nick
klášter
jinam
##far
##meran
uvolnění
##ťo
červená
Zmí
##ťák
uvádě
##čely
volantem
mladi
Pořad
poznámky
výživy
##bilitu
Dve
##buje
koři
##DE
vrat
životy
hřiště
přidat
ochoten
ki
otočila
##jako
diam
jazyků
5000
určený
otevřeně
začínal
rozděl
##sadí
##pší
plyne
opatr
předvo
větve
skutečnou
odpovída
##dum
##fektiv
energetických
havá
##brala
pohodlně
pojišťoven
prevenci
lez
dl
##řelo
překlad
samosprá
Mečiar
profesní
ochotni
Želez
Der
Sek
činit
jádro
Filip
sérii
veliký
zastavila
výpověď
##yor
snímků
Ženy
navštívil
Němců
antropo
zařadit
##rkou
trvalé
současném
nacionali
##hlédne
##liště
konceptu
##bon
##kajících
dově
##MO
nejroz
souhrn
Princi
nezd
herec
vyrazil
leck
##lník
počkat
okouz
zlomen
zajišťují
všeli
neov
##cház
široká
maloobchod
vstře
příslušných
ture
Digit
ublí
půda
hran
nest
##táře
##héo
##aned
zabud
výky
nejra
Kontakt
důsledkem
Žádná
kdykoliv
anglicky
1987
vloni
Mgr
##ával
vyšlo
výrobou
konkrétním
politicky
jsm
prázdno
vyvíjí
podzem
Marké
výstavbě
bance
babička
trium
kolegové
nemí
ústrojí
trom
##ěli
King
toku
##rr
vzdálené
základy
vlas
ranní
kamery
poruch
Kniha
##zních
přidává
Dlouho
hlubší
Štěpán
takzvané
časově
znaků
Cítil
zatrac
kolektivní
únos
odpovídat
##rozá
burze
bývalých
jmenoval
vyhledávání
figur
Pomocí
nestojí
boční
Jihla
bytosti
směřuje
ČOS
taká
Rodi
##vard
telefonů
Ozná
##logy
##shi
zmizí
slabé
##padalo
sebevraž
paříž
novému
slit
AI
it
##coval
nejpo
##novém
městských
celkových
##áda
##lijeme
serveru
brzo
##české
navýšení
##lig
svr
##šě
Nás
##boka
Novák
těl
náku
nedokon
ztratila
Bak
pada
naka
říd
##rovnat
Fy
##teře
Eliza
přeš
##fak
kabá
cenné
##char
450
Akad
Být
##mají
vodí
pozvol
hoke
poplatků
láka
osmdesát
recept
volno
##ilem
jedni
epid
stávajících
pravděpodobností
tamní
zdravotnické
distribuce
podporují
zed
##lici
smíchu
kapitoly
kdesi
vzorku
sbírky
popsat
Albert
kompres
úspěchy
##jekt
výpad
Hradec
meze
##sig
výfu
Starý
##zovaného
odhadnout
nevidí
jdi
proté
Prý
##andr
konc
BI
mocen
pravá
obočí
ám
obrovskou
jádra
Finanční
Např
zákoně
družstev
Londýna
##zov
##níc
odjel
Základem
fr
zelená
ztratí
minulé
zvláštním
objevili
##ovníků
omezené
informovat
zkontro
namo
##čež
věřím
##tový
##káním
soudy
hrála
##líček
vypr
porostu
Šim
##čák
příspěvku
soustřeď
##telka
svlé
pláště
chodby
Institu
nava
##sport
##pisuje
zkres
mohut
##živ
klinické
doplnit
věda
negativně
vlí
uvědomila
promo
##Bo
chao
##toku
Sub
momentálně
proro
stolku
ím
Američané
nedokázala
akutní
Spol
ks
##iž
okny
tituly
Multi
##šské
likvid
dus
##UL
okně
definice
##krm
kolej
zastaví
Los
arche
ay
##bín
působící
nedal
##jely
Nepře
Sty
vojáky
Vesel
zámek
##maceu
podobnou
uzavřít
nedávné
##oři
ERP
000
Kin
kyz
vyhro
testů
druhých
umožnit
horo
tajemník
##voje
Maxim
graná
ČSOB
předeš
Těch
kouř
James
semi
přišly
##tečného
závazky
dlaž
ct
Prodej
kreativní
##ličky
FA
Myš
uk
vyk
ostří
oživení
upřímně
##dáním
##tálu
##livější
Pic
instin
##etí
##štěná
sídlo
výkladu
1986
padá
##brat
vrchní
snížil
Poru
vlastními
##ekla
připomenout
arci
databáze
výsle
##can
bato
inzu
##bání
dobyt
obrátit
Každé
##lný
časopisů
poše
nafty
##ravý
##grafické
lístky
##nutou
normali
konstatovat
vybírá
##ék
##itor
současnou
zmíněných
linii
odl
lidech
neočeká
##ýv
doko
pokrok
skrz
zemědělskou
##LED
některými
uvedeného
minimum
##ovr
##zvě
##chodí
Postupně
licence
Ústřed
nepříjemné
navazuje
dým
udržovat
logické
doklady
Jednotlivé
požadavku
doktora
použil
žebříčku
##pochyby
##ole
Jeri
dechu
oběhu
buně
ovcí
Smit
##det
letadlo
třicát
##dechla
sklon
vlhkost
##fonu
beznad
orientace
Vyšší
##běji
ldyž
potřebujete
jednotku
Fle
online
zkoušek
přešla
běhu
##aso
vola
gly
nízký
##itost
zadlu
fial
skladby
naznačuje
##bové
dokonalé
kompaktní
vybudovat
##entních
zez
Ekonom
komponenty
##tník
##slem
Antonín
zákoník
všemo
hráli
racion
příslušného
Park
společenských
schopné
převodovka
Sotva
částice
pohonu
Dům
EK
výnosů
##těs
skvělé
vize
TR
krvi
pato
##tivý
##rátí
naplán
1980
Africe
pach
cyklus
preci
##čnými
##OVÝ
demokracii
Letošní
provedl
Cr
Oni
uti
psychologie
Chem
záp
chlá
třpy
##mínek
můžou
vyjít
poskytne
##verzi
výkonů
vč
smo
rodiči
nakolik
##inám
##rover
Nob
barok
opod
##dělali
kin
##sány
novela
závodě
koordin
FN
ušetřit
Společnosti
zpřístup
synte
##ffe
##rakteri
##růstající
##novy
šle
pustit
Příkladem
velkory
Jaku
##enčí
prví
Ráno
KL
##žním
vzdy
##oko
Nan
##zorů
identifi
##fikovaných
hala
pravděpodobnost
##čkovi
nebol
prolo
zásahu
##měři
Skupina
gum
stri
profesora
##stně
vydavatelství
obrábění
nemění
prodávají
##tiků
##nuty
alg
slovem
absol
##měli
ces
##ždění
Stanislav
Invest
##zenými
lázeň
kysel
ZP
pozorně
argumenty
osobním
tát
povahu
##hni
nezávisle
zóny
##spor
Šť
spuštění
##érem
hlasování
podnikatelské
##šeň
kůň
terapii
stabilitu
##HD
troji
redaktor
sno
průchod
pořadu
Bas
obchodech
##put
pěta
francouzský
##adel
čínské
příslušenství
vůni
odví
návštěvníci
##vnější
##nýc
značný
Viktor
původním
##lovaný
blázni
závad
nezávislé
koli
inspir
nervy
atraktiv
fal
odz
trávy
naprosté
probíhají
##lovém
žádným
dostupných
neplat
doufám
prezentaci
Skoro
##onářů
dojmem
cigaretu
##řines
vizi
klesl
nynější
chlo
přesněji
##jímavější
jeli
##ork
bankovnictví
Původní
heslo
ministrů
Dun
##áků
Smlou
kupní
obvinění
zadrž
##chne
vyda
uživatelům
nízkých
euroz
zrá
##hlédli
záměru
písmen
EV
##Po
##selin
Facebook
##ckému
##diu
chlazení
vyhraz
odpru
manže
zub
vlhkosti
zamít
transformace
uvažuje
ON
komunistické
##střel
kluci
nezav
kvalitních
zahájil
Koncem
##zné
akor
pohybem
fotbali
##řoval
nemuse
pozn
Mladá
##cep
##hový
kterés
##com
dospěl
hut
jízdu
##zaných
komunikovat
posoudit
legislativy
Paříže
dítětem
03
Cra
afr
povy
stý
zavést
##ancí
vytla
sociálním
písni
pozdní
rybní
vymá
##CO
odci
podvozku
Nemy
##mluv
##obra
vyrovna
náleží
exportu
Jíně
Muži
viceprez
stabil
##šnost
šíří
Saraje
poznatků
svítí
potíží
nanejvýš
napoví
vchodu
##nících
válkou
##TP
##ouští
##lovaných
legislativní
sedmdesátých
zaměřuje
##šenosti
zlik
Syn
hleděl
zvýšenou
mati
##maticky
vyzná
def
hradu
Unie
##zách
čerstvě
snížila
image
provin
ocas
Portugal
kapo
střechu
##ňovalo
##oba
pomal
východě
CAD
struktuře
mimochodem
Bill
afé
cenách
Jednoho
##lata
List
nemovit
norma
výborně
žijící
rozsví
dodávek
paláce
Spi
souhlasu
třetina
##ránce
řízením
chutí
kovů
##sě
níže
Ple
1984
Cer
obrazovce
Open
docí
publici
220
vzdát
volant
Dostal
rodinou
##vému
loaj
Et
##INA
##ovacími
##měna
politik
činy
pána
Všude
Managem
svaly
užívat
pojmu
vyloučit
##letých
##livostí
přímou
Karo
prokázat
Dokon
Plzni
náručí
dramati
libovol
devadesátých
Dovo
kariéru
životo
expres
zaměřit
poje
##ádu
poledne
Prostřed
poslane
symbol
##zil
imuno
básně
##GA
##isy
pomyslela
##gramy
věta
osmé
rezerv
##káty
Tren
##látoru
slečna
##bank
nahá
Jaroslava
obklo
##betu
přechází
Pier
dílny
záznamy
neboř
nemocného
##rané
##brali
jednostran
emoce
Pam
SA
dec
svědky
luxusní
Nedávno
příspěvky
slíbil
dup
##pani
lidové
živočišné
garant
Každo
radikální
zápě
zelenou
##magne
desti
taxí
chrámu
##mid
dete
technik
klasický
emp
##ovec
klimat
gro
##álech
letad
##nský
velcí
rozčil
syndrom
kví
Zlo
##chové
předchozího
Design
talíř
Původně
##ketu
ocen
##řásla
##vná
##ago
kolegů
navrhuje
##dynami
nejkrá
Thomas
nečekaně
stačit
zpěvá
##smem
krajině
Účin
šok
byznysu
Ker
nezbývá
Sky
##dát
ruského
prstem
##gací
nákladních
přemýšlel
Myslel
evange
##anovi
poplatek
výšku
ČNB
umělé
rozbí
prošla
fou
rychlo
##kia
zazvo
obrazovky
nevěděla
Náhle
1985
fakultě
ekvi
##tší
Opak
Odpověď
podklad
zájemci
koncip
perifer
##spíše
dosahu
živí
reci
petr
restruktu
##natý
spotřebě
zba
##titu
plánů
typem
chra
bejt
renom
čteč
max
Sel
##kně
záva
ozý
temno
Eng
##nací
Miloš
##tori
off
oprávnění
nemocnic
zamířil
bombard
##běžně
přístavu
jeřá
##matem
studovat
Mohu
##oucích
nadná
nástupu
vise
bylin
Lau
vedoucího
konzervativní
##alismus
##staví
spotřební
absor
virtuální
rostlinné
##jním
##itka
##dexu
běh
pracující
kultuře
Kní
##terou
skončit
malíř
rozmet
Sti
finance
úspěchem
zvyšovat
Francou
domku
ekono
plody
rozmístě
zbytku
Výrobce
získané
jihových
1939
netý
zůstanou
servisu
společných
kompati
pepř
zbroj
stanovena
přejít
Návště
zázrak
inkou
paro
##tostí
hel
pokusů
##toru
veden
reduk
novinek
##ánek
Dře
Logi
Sat
Poznám
počáteční
naby
odpoč
Ticho
vzru
Business
horizontu
čelit
úvodní
Sop
Spou
ast
##sovi
odpady
##24
zabil
vín
životním
postavu
schopny
koe
záloh
napřed
působnosti
##rátora
slovenských
předeps
uvo
##káme
žárov
padesátých
nejvyšším
##áá
konstrukční
krajin
##smál
##avých
jaro
dale
debat
probíhat
okolnosti
filosof
##sporu
rozh
citron
NHL
koncernu
chybět
vzduchem
poradí
##lečnosti
##kaři
spách
##hodí
1969
Jeru
##vidí
##taly
vzte
Platí
porozumění
ekonomice
převez
##dic
limity
způsobilo
lepším
##salo
pevných
právnické
Ivana
převyš
Nebyla
naplnění
tabulce
čehož
zánět
smý
položky
pomoct
příslušný
relax
##MĚ
dlaně
souhlasí
sebemen
odevz
věčně
veliká
##jížděl
pádem
oblá
Jakl
archiv
reálném
jednal
leč
TO
ulic
natož
probou
pojišť
Stalin
Eri
advokát
přehra
zpracovatel
pup
##žn
dětských
průběžně
Tim
Fot
přijímat
##žívat
díle
##mm
mému
##rovaná
tábora
výpla
nedosá
následovat
přestala
##sni
prvkem
naplno
standardu
##ejme
filmové
Toyota
Uvědo
##hrozí
##mani
připraveni
##vůj
zákonu
horké
ket
přiznal
akciové
paži
vaku
úvodu
uložit
pocházejí
ústavní
porosty
World
považován
ušlech
jě
uvádějí
##hodit
nasy
##háme
Navzdory
##stával
Clinton
##onové
rodičům
##meňme
osvobození
reform
těšit
světový
týmy
jd
Rez
plnohodno
hold
nedalo
rozd
Ander
primárně
Japonsku
osmdesátých
pořada
nebudete
televizních
zprávě
Nabízí
Lake
##vců
Československo
##miň
setkáváme
připravené
jehli
##cil
Lukáš
##ditel
tox
Nezapo
fakta
proda
aneb
JAN
nemůžete
dílčí
Jakš
poče
zaříz
nákupní
zhotov
Jem
brig
len
farmaceu
##rati
koření
smart
Mezitím
##itim
nein
uvidí
##cla
světlem
otáček
poskytnutí
Škod
přepravu
##pané
##VI
jmenován
zajímavých
světovou
rehabili
personální
##padal
ohra
Isla
Mü
čtvere
hostů
Tol
##geta
změnami
obří
větu
##mej
koni
úcty
oněch
radnice
##kyni
umělců
zamra
obho
překážky
ptát
##icí
otevřených
##ktní
vzniklé
dolož
zaúto
amatér
veřejnou
##jezdem
výpovědi
veš
Maďarsku
uzavřel
hmotností
##13
obcích
výrazu
konstrukt
styli
Zvláště
ČLK
volí
osy
240
ostré
návštěvníky
interiér
největšího
JI
osaz
přidal
chole
eo
##ničního
veškerá
vztahuje
##mující
jakosti
vědě
##šiml
1200
způsobené
Který
onu
##žaduje
výměny
06
zapl
tvarů
##ostech
pops
vyprávět
podří
dostupnost
pur
pravém
##ženém
kmito
vyrábějí
našt
obdivu
šedé
seminář
podtr
##žkov
dohledu
##att
##meš
Jelcin
##čar
##nuly
autorem
daňových
mimořádné
Vzá
utek
zdravý
##kováním
dramatu
konstatuje
ochranné
čelní
přebí
Posled
přesá
výstavu
egy
vem
klobouk
##fem
zavraž
Manžel
Hr
##clé
jazyce
Jakou
##ardin
MAN
Materi
barevných
momentu
##máli
pracovali
osobou
otevřely
##kraji
zhodnocení
Bé
bloků
psí
detektiv
desce
zúčastnil
jménu
Akci
Washington
##idy
##kujeme
##plý
##psal
vlastnost
šlechti
novinka
Číň
Brand
otevřený
Afriky
respektovat
platnosti
##vár
Celková
nosit
stre
způsobí
##lynulo
církevní
oo
sedmdesát
sklíze
bál
##hlého
jakási
zábradlí
vu
jmi
##hodných
##káři
kamene
staří
padl
Novém
Land
TDI
##utin
##zdo
Helena
##dního
Dole
kritiky
zřídka
vypráví
vyrobit
invali
multimedi
VW
pravomoci
vykazuje
prohlásila
prohlédnout
##ado
##fest
šťastný
Kaf
samém
vojenských
předsti
##bně
nac
Rozdíl
známého
agrá
výbavy
okraje
víkendu
ťo
rezid
alkohol
Seznam
zada
##lovaly
rázem
EUR
##city
hodnotit
##ologický
##dělec
mála
živý
výstavba
signály
maga
dámy
mechanismus
spektrum
Mars
##ářské
servisní
exem
rodí
podobným
zpravodajství
francouzského
shora
geno
filozofie
zklamání
profilu
adrese
čisti
podmínkám
##ENA
Ústavu
##jíte
ruchu
letecké
ýv
Lang
##tkou
záně
##dape
nejzná
podnicích
zakázku
##čno
predi
##štěna
připraví
rodičov
zdroji
pochybnosti
eho
porucha
uzavřené
##ip
patra
rozložení
stálé
bioply
##hist
rozlišením
vhodnou
##sly
Uvaž
podepsal
dobrovolně
běžnou
zavádění
Málo
dlaní
místopředseda
geni
##erem
refer
krizí
Aspoň
namít
máslo
přijala
slyší
číslem
##try
záměrně
tvoři
přátele
vzkaz
volání
zpěv
soubo
příkladu
otu
jelo
##ňujeme
Londýn
Černý
stíny
uhli
odml
trojúhel
Mobile
provozuje
bol
cestování
##něně
ston
skříně
Malá
##soli
svahu
účastní
manažeři
věnována
montáž
mluvili
roztří
znepokoj
užívá
úřední
salá
míní
Lat
nikam
Pů
##šným
##hoj
vyslovil
##dani
nejmlad
dovoluje
dávka
jiz
Black
miluje
kvet
rubri
Potvr
zvýraz
seriálu
LP
zahlédl
sportovních
protá
Česka
##jce
##ING
##íí
podnět
##čnice
volal
##skupení
##telnými
varování
##šnosti
##radi
hluk
mraz
nevyhov
regul
potřebám
MPa
nesl
Plus
##licí
kaz
##hlásil
střešní
Peuge
úhel
##záno
##skání
Jor
stěnu
Die
##burku
výhodnější
zod
osl
##bývalo
##landu
klíče
Pomalu
##neu
Umě
1970
dyž
výlet
lidstva
zemědělská
pozic
sehnat
pH
vydali
získávání
##nau
omlou
mikroskop
audi
kurs
kontrast
##nickými
tlumi
Někde
neslyšel
upev
notebook
středisko
disků
jasná
##versity
vajec
ledvin
##možňuje
##cita
soudem
jevy
vídeň
problémům
účetnictví
uráž
##ay
polohu
průvodce
ergo
malými
kultur
sekretář
##éni
##čkov
uživateli
vhodných
obrátila
Dnešní
Rose
vln
poškod
potravy
uspokojení
palubě
Gala
překladu
haj
Citro
položek
##stickými
okolních
restrukturali
podrobnosti
snahou
hromady
Kneře
chtělo
anděl
ledu
zahradní
Alespoň
ústup
usad
portfolia
##živu
technický
literatura
##ČÍ
přerušení
kabát
Vedení
neobje
volbou
dovednosti
spojena
zabav
legitim
tlumo
sovětské
uskutečnit
Il
##zovaly
##nesli
pánové
rybí
uplynulých
Kateřina
mad
mladík
záme
Jákl
úder
nul
##žitelné
##tečným
##vědomě
uhel
##emii
milovat
nemocné
odvolá
4000
třída
marketingové
dnešním
alo
non
##ey
pěkné
vybere
##ňák
ukázaly
převodovkou
##zuji
bada
rolí
IBM
zemědělcům
správná
integr
vyznačuje
Zase
nelíbí
výchozí
Hovo
##rodu
##vači
Fond
ženám
Celkově
Zprávy
zemní
hůř
ac
zněl
##evně
Pravděpodob
vodor
Rozší
úspo
##myslím
prsa
používané
PD
Peníze
komplikací
MV
ostrav
Wolf
Svá
sněmovny
pomohla
milióny
letišti
##motor
rovná
populaci
##nora
lig
Těžko
vyrovnání
##turní
popular
Siemens
##koru
zajat
ekologických
Ome
chovatelů
##zeném
Flor
středního
Anit
inje
ED
Ae
zapal
obývá
metry
radě
pocitem
těhot
nocí
namal
zre
inovací
Květ
Kapitola
Nemohl
Ková
vedoucích
venkovní
##lod
barvou
Kříž
pokři
Nebude
zápasu
heb
nevíme
##louží
řídi
Právní
terit
IF
rychlou
##mením
##tovat
prožit
červenou
##terak
##TU
bili
##kládali
obdobím
rozdílu
##nictva
geomet
znemož
##ranu
bělo
##ovníci
##zovanou
kilogramů
vypořá
##16
kolé
hladké
##ight
překrač
vzpamat
Nebu
anglické
dálky
černobí
Tab
okr
##káře
##inují
Hana
##cn
Jeně
ách
Uvedl
rozez
sdělit
vrstvu
mýt
kanálů
zvyklí
páté
teplot
lístek
klére
##MU
nosu
mistra
##tovi
doc
žádat
reprezentace
##ív
dárek
Říkal
detailů
Gold
##solu
##icky
poři
Indii
##komo
koší
##kovice
Un
praktických
##goni
solí
vyčí
##veř
zně
úkolu
##snou
říkalo
1938
nemocný
Hvě
podpis
transform
zoufalství
půdní
##ovská
info
Lékař
ep
##edo
knížku
vlastník
obojí
Slovin
prosté
střechou
Kalifor
řídil
odborná
Nena
hřeb
sníma
vědeckých
variantu
pojmem
Barcelo
Českomorav
##ňuj
##grace
těžká
Míst
schodiště
efektu
##allye
Drob
udržuje
karta
Is
##MP
jaderných
##mých
břicho
manipulaci
Tenhle
přepravy
kostele
##itiv
vypá
Hrd
demonstra
Tolik
výměna
vylož
##žete
Pově
zmínil
Doba
regionálních
neviděla
osiva
Drá
TU
jit
tržby
##hových
pásma
výkonnosti
chři
##nějšímu
pouhým
Poda
##edení
Sled
psi
Ya
dívku
vstoupila
šroub
##mií
rom
Brá
EX
zastupitelstva
desk
útoční
##jilo
mnohokrát
žaludku
sféry
ohla
vypově
ostrově
Centrum
##vný
##zý
Tel
ruský
##mentuje
parlamentní
LCD
pevnou
ROM
bližší
prší
##totož
kaza
Abychom
zařízeních
vynika
těžkou
půlnoci
chvílí
nepravidel
mela
žádného
žila
jíme
##dík
pevnost
##verné
účty
Ner
hezké
Vzal
tent
trvala
léčení
nižším
dosáhly
Nového
##něném
bali
Rec
##telství
fí
akční
##enek
snažím
hus
##prázd
aktére
fyzicky
dávce
Stalo
##OST
Vídeň
definitivní
##atí
kanálu
ptáků
##livní
Dveře
##pavě
tm
kulo
usí
##ovič
potřebnou
chor
##pto
Druhým
pít
##rnách
dvoře
palivo
investoři
zabo
holo
draho
##těch
##terých
Mach
##hodob
##sách
zazně
##pravu
zahu
lec
správního
patřit
##fan
neleg
oknu
čistí
žer
Nev
stáhnout
Jenu
takovému
protiv
zajímavou
nestá
##ŘI
zániku
sliz
opěrad
##ěk
vzty
##ya
##anky
##skytuje
pořádek
médiích
zrušit
mluvila
neurčit
obecní
slavnostní
doch
společnostmi
bilance
fotoaparát
odra
venkově
Berna
##itz
Hej
přesnost
##mele
vegeta
183
##dělili
##hněte
nepamat
odrůda
chodníku
napsala
neklid
levně
podílem
##zející
podvozek
LE
##mén
poslanec
teor
##tečnosti
osobám
Klas
rozpak
vyzna
temné
snižují
sdílení
##ujícími
bam
prapor
ANSI
Rum
mocí
koz
promluvil
hrdin
holky
uzd
potěšení
##zami
trať
pruž
maximum
vznika
vstupuje
Čet
přived
typicky
bří
##ln
sídlem
inteligence
vlastnostmi
Kate
popsal
BA
zavrtěl
úde
##paly
nádobí
##ckrát
upou
posuzování
problematiky
Simon
##životní
mnohých
nedostane
vyku
##stěhoval
záběr
hybri
publika
dostatečnou
SB
procenty
Out
přistoupil
##mosti
přezdí
##isen
Vyplývá
##bé
ubytování
zasmál
Maďarsko
četné
působi
vracet
silným
módní
prostředím
jedinci
##tko
##uch
##romu
získaly
tribu
moudr
konzervati
prsou
obrovská
mechanismy
vp
skvělý
##vaci
otevřená
04
##rozené
zbývající
##varu
vyhodnocení
Španělsku
skó
zakop
kád
mži
Blíz
##row
vápen
obmě
Sha
závislé
Víc
počítačové
kamera
Sup
Šum
rz
vyššího
trápí
Závěr
##ture
racionální
výho
dosáhli
loňský
listí
ÚV
Tal
##hrál
udává
rozpětí
neset
##meni
vozem
vstupem
##aga
pení
##řiny
divid
Elizabeth
tušení
nenabí
valné
ekvival
Žene
Klo
islám
Firmy
včela
##íž
##zán
##hané
vyta
##sily
##ndu
poskytl
vykonávat
náboženské
vstoupí
voják
ověřit
fronty
kapse
##tlak
##ICKÉ
##rář
nádrž
položila
nejvýznamnější
##šely
přinášejí
Karlovy
popisu
motivy
##cově
##stvy
přiblížit
ČTK
##kladě
připadal
##anka
stanovených
zemím
čaje
##žeme
Hotel
##skat
tabulka
Mobil
##22
mzd
lahví
inspekce
neodpoví
Sedm
architekt
podzemní
cirku
neskon
##dkou
Nejsou
postižených
znásil
celní
##ologického
příslušníků
##áru
MěÚ
aktéry
odehrává
Příliš
zápěstí
##roka
ničí
##atolog
dví
Pohled
manažera
pec
převodu
hladina
##inálu
tunel
Zví
nm
##átoru
dokonal
víra
##tín
scénář
Bratislavě
ministry
McC
usu
##ádě
obalu
##run
jednotlivce
Berlíně
podzimu
vytvořili
##pustila
dovede
bezprostřední
chovají
nízkým
synchroni
ukraj
##wan
kad
elektrom
ww
##pav
zapojit
distribuci
slibuje
##maci
výkonné
materiálem
hospodářského
uvažoval
oxid
##racích
Obvykle
Hitler
pavilo
Spr
hop
pleť
dopisů
Byt
všelijak
##árních
rozhovory
Vladimíra
Big
olomou
Hala
##anční
Son
Bosně
nezdá
berou
pozmě
služební
dodržovat
##zadel
podl
spokojen
##ologická
serví
historicky
uleh
nastává
odsud
elektronických
penězi
všeobecné
Výsledek
odmítla
schůzku
vymezení
Výroba
minutách
doklad
životních
##SKÁ
uvedena
volbě
sbě
neuvěřitelně
Case
LG
##ávna
Nejčastěji
nedostatkem
měny
pozvání
brněnské
Ana
##LÍ
nasto
dohad
svazek
##ope
Napo
všudy
kritické
salát
##děný
psychiatr
dokona
tenké
##vézt
oborech
zanedba
##žene
##měte
armádě
nesku
nakrájíme
Dé
dorazil
dráhu
pracovišti
zaj
##látorů
atribu
Boh
vzdor
Kd
Špa
tú
##řme
##lash
Ků
bohatě
uzdrav
##rník
Che
##gera
##sloví
zavolat
hrách
Odpo
##nica
přita
řazení
##cnost
chytil
Chic
rovnice
slovní
teorií
rozhodčí
vyzval
rezervy
##kó
##vodní
definovat
nepotřebu
mlčení
segment
dostaneme
notebooku
partnerství
ostra
##hodila
prodejce
nejmoder
##hými
Zajímavé
návštěva
narazil
vyspělých
##jelo
stavem
Master
Podpora
dospělé
vyuč
TN
##stění
##isíce
##VÍ
krmné
podoba
monitoru
zasu
##acích
modelem
SUV
špatná
##řezá
spolupracuje
vsá
převodovky
##SP
750
inovat
##vín
boho
rozdílné
Frý
Přá
##žba
Přišel
##mějí
klepněte
HR
Urb
občanství
Poslane
##chnout
česnek
Jena
představovat
nejúspěš
Špi
farma
zasah
Vrch
Tomáše
nejsilnější
##ješ
košile
příto
předním
##staň
##élka
1950
sféře
ion
##naná
registru
pdo
výzvu
úmys
##líci
řečí
bezpochyby
zadním
id
vykaz
planety
udržitel
##áren
##ětím
##áci
##lovu
podílejí
evropském
odhaduje
##klů
##mra
##sia
palubní
Mlé
##hami
nedov
balíček
Sco
hono
Výběr
zvládne
výslovně
nata
##ovanější
Pode
##lenými
spojená
##ránu
##daj
inze
neznal
přijede
dostatečný
jao
kriz
zbož
##lovo
malin
náročnější
zvýhod
Dneska
##nectví
náhrady
utrá
nápis
bratři
Management
Tito
analýze
##kální
špa
##šta
KOM
##OJ
hek
##ňová
##medie
chodu
Arno
##práce
květiny
činila
##ish
##ition
motivace
homosexu
##orf
drži
nevo
obnovu
##dují
literaturu
fólie
Smet
obdrží
japonské
##tely
proton
Hyunda
BY
##robi
potřebných
rozumět
##dávat
##kováno
elektrický
krvácení
Věděla
ukazatele
formulá
major
Mohla
zakři
hnojení
stolem
Kongres
vydr
vně
počínaje
LF
tiskárny
án
Uvnitř
##dějící
audio
Obsah
hřebí
poznamená
nesla
sazeb
prvot
178
večeře
doho
agent
spouště
postavila
##finále
snídani
integraci
Rekla
Hlubo
součásti
osmnácti
Aplikace
brzdy
Chi
bodem
obzvlášť
kupé
Metro
čar
nedostal
volných
Nejspíš
příjemný
úze
##ýž
splý
standardně
loka
totali
schválila
##vody
Zeman
zasti
sjezd
Znám
##NE
alerg
áz
##láp
neděle
Alice
zve
##hodl
jme
cop
hraní
Směr
##FOR
jedovat
##třebi
kanály
ztěž
Evropský
rodinného
jezer
Washingtonu
MHz
spali
voze
slušně
schéma
Zprav
##říkladu
##nicím
nezvy
marek
##chvá
##test
taneční
Bělo
Průměrná
továrny
podivné
RAM
požeh
agenturu
Agentura
přímým
Mech
nedodr
pojistného
pomeran
konven
Uf
letadel
##lovala
sucho
regene
mizer
touhy
písní
zasy
##vant
zaznamenal
nekou
zemřela
upravuje
##hop
##pěla
Tahle
předpokladem
komplikace
Jung
prodejny
koupila
vyzved
##DĚ
krásy
Mnohé
zabýval
umělci
##inásob
##kel
##rag
##lovar
Výše
krávy
kyslíku
výtva
PE
koneckonců
epiz
zpro
neum
dáma
přestane
prodejem
klávesnice
brad
yl
##šenými
regionů
jistotou
společenského
umístit
všimla
##imu
Roze
kompetence
přežít
stavitel
soukromý
##field
Abych
obnovitelných
iniciativy
inka
##namu
##rey
výrobcem
Sum
zadarmo
##hově
šířka
civil
postřikova
přeplň
ová
rozvr
dojnic
Jinými
zachová
##fyzi
bolí
zdat
obchodníci
vysp
československé
zahaj
nábytek
pouhý
úpravou
výpočtu
partneři
hodit
Had
gól
postižené
psychiat
iv
zápisu
TOP
vlastníků
psů
Zpočátku
##tské
obloze
dluhy
zvykem
mrzí
##sák
##jsou
načas
intenzí
místního
zelených
##víte
##dica
##átra
##onáře
zlá
##veného
ouď
Uže
tělesa
postavili
hospodářskou
čemuž
komisí
sluncem
dobrém
hůře
##áč
ochla
vyptá
dejte
##níkové
membrá
Nau
Podíl
##tivou
nákladu
podeps
napáje
táhne
pustí
##ivním
sedmnáct
Všechna
Veče
objevilo
naléhav
bok
Jiné
Hlá
opouště
fyzických
##ware
zorgani
pěkný
##enice
působila
Celou
Rostli
Seba
cigarety
Oct
plan
nejvhodnější
tichý
zpracovat
Viz
využil
šum
ruských
kontaktů
Moskva
příště
##klonil
jízda
republik
umoc
reklamních
vysokými
vyhovuje
##tování
modernizace
prázdný
##sket
přednášky
love
##eci
##ure
personál
vzrostla
Obchodní
navo
nala
bezmála
zabývají
postu
nastane
trasy
myšlenkou
samotná
mezí
podzimní
Slyšel
zká
Hradci
Doprav
sálu
##číc
rozhodnuto
AŠ
##už
nadějí
pohledávky
miloval
pasu
RT
paragraf
grafické
komponent
ktre
jazyky
Vlt
##tými
##dnost
##přítom
dívek
prota
dělo
##SS
pravic
zast
##měří
##hraniční
objemem
Cestou
jó
zaml
##inační
##pracování
vyvrcho
##lh
žur
zemědělský
sedad
levné
Změny
Nen
krmení
cestujících
##NOST
vyla
##emy
boha
GP
konzum
strategií
hledali
##nác
Hude
úže
##over
##cův
##pěst
##hlopří
zask
nápoje
www
##pána
hemo
opakoval
vrt
příchod
zavede
nejzá
spolužá
KR
nano
obžal
##stiční
##žitý
##prost
##ea
postaví
odstart
kupředu
zaměstnanosti
Abú
perman
věřil
automobilky
Extra
čerpání
mléčné
##GR
rozhlasu
Záleží
Stud
##uo
##atika
##právě
##ury
přesný
kdybyste
stability
JUDr
Hlas
##leti
kvalifikace
prestižní
Wh
investici
zeptá
principů
ocitl
displeji
vysti
##polu
##čice
rukopis
ryze
budoucího
poměrů
reforma
seznámil
zalé
Horní
Dět
neš
obilovin
##pně
zaměstnancům
pozna
ústí
vraždy
nejlev
upřed
##lánek
evidenci
vnik
přijeli
Alp
soudního
Cre
##áte
##nič
závažné
Mimochodem
##OC
statistiky
##jan
pouhou
zubů
1967
šku
##EB
vychy
kartá
bohatý
jakýkoli
##lenění
jíz
##In
názvy
zdůraznit
civilní
dodr
hladině
koefici
Náklady
Náro
cihel
##stral
zisky
pořízení
##loni
MK
Vnitř
##naci
##ano
ach
##hlejší
##itární
provedena
Cle
Srd
##enský
přepá
přízemí
devá
šatech
souřad
oblí
spoření
##gener
technickou
jeskyně
znali
uplatňuje
nesnesi
obnovení
##žíte
dor
zkoumá
Zhruba
půvab
nak
vysa
##sům
##covou
míč
##žovala
standardy
##račních
středoevrop
voličů
typický
investory
latin
jakéhokoli
vnějších
sloužil
bohy
##pre
mysleli
exemplá
domo
ao
činitel
časopise
přiš
polica
Kdysi
touhu
sra
##vari
##wal
břeh
majitelů
významná
sul
vystupuje
ztrátě
splňuje
proběhlo
Podá
stojící
Gott
##OLE
hluku
##ovci
ztrátou
##ux
subjektu
budoucích
zachytit
tlačítkem
teoreticky
přikry
sklenici
##ňován
prokáz
panely
face
##LU
navázat
důsledně
recykla
revol
zapar
vchod
potkal
pleti
prostup
Tomo
otevřenou
odpa
posílit
uhličit
##rect
schová
vyměnit
07
zapis
kupodivu
Vidím
IR
##sková
##začního
noveli
vynik
kombi
rytmu
příčinu
obí
panem
##finan
eleg
šéfredaktor
ČSL
útoky
slé
##km
koule
bri
##gici
stopu
egypt
pso
som
krystal
dokumentaci
##míte
studoval
Mlu
##fur
omyl
neznámé
předal
prádlo
Kir
##čist
prohlou
potvrdila
##šející
vybavena
whi
žvý
doporučit
zaslechl
dlužní
hospodaří
##lovaná
přilé
neztra
pojiště
##of
vybudování
odhalit
OR
otázkách
Sol
##uš
organismus
##vuk
1982
obvin
odka
Psycho
##mových
některého
krajů
##gační
##mělo
sporů
obchodníků
srdcem
##itého
konzo
návrhem
vadí
využije
přim
##puje
Postav
zapůsob
ukládání
##itace
jenu
převed
##opa
polské
##jové
zot
Pora
1983
registraci
Nejdříve
platy
##nace
Vliv
##eř
zápase
nouze
chlapí
německém
##duch
plzeň
pohledávek
##uter
##bis
řádku
ČV
Som
##iky
dovez
zlikvid
samostatný
podstaty
jakýmsi
Mluv
herbici
XX
##raved
##řádat
plochou
Hlad
eště
Moskvy
hůl
##čerst
omezuje
chodili
##oky
##rovský
##stroje
pokusit
rizikem
pěšky
##ffice
##nikla
dotazy
příznivé
zdál
povrchem
libovo
kucha
stvoření
promyš
připravili
hrozi
měkké
##18
hlouběji
kufru
Oko
##ína
Příští
hospodářský
pneu
Dali
##tární
odškod
##řskou
nevědí
použity
redakci
poní
fla
Řez
Kos
##slých
##ÁK
Změna
##akes
Nadace
znamenal
novinářů
výbava
personálu
tisíciletí
##sných
obdržel
##opu
Možnost
##roste
##visí
pochlu
nevšim
neproje
hnojiva
týmů
časopisy
mechanické
vaření
britský
selek
##techno
uvedli
##stán
krví
probudil
Širo
laboratoře
##ovitých
šrou
prag
Myslíte
drůbeže
##udo
pruh
Poví
##vených
jaky
##čenými
dej
biologické
##rátorů
milý
##hnete
shá
produkcí
přilá
##letě
sar
výkup
Podobné
Edit
##řenu
Duch
hojně
připravují
nahradí
prodal
zimu
neobyčejně
##pru
##tyř
uro
Poly
##und
příslušníci
nábytku
##milo
socialismu
starým
očividně
znač
devatenáct
##ktivně
##čci
nadace
hrubé
činů
existující
velkému
Zvo
##míne
dávek
vzhledu
zazní
##rodního
FB
Podíval
Kav
misi
Deut
čistého
řp
díry
vyplývající
kolega
tuzemských
##burgu
odešli
##atch
zážitky
##ánem
přečetl
osví
zkusit
paprsky
šetr
nehty
dotaci
aktuali
Budape
##hlédnu
areál
bankro
Oce
hromada
Vej
kariéry
biopali
jazykové
frekvenci
uspokoji
hob
karcino
1960
nastart
##rného
vyučování
spolehlivost
##rátů
kultiv
piř
dráze
svoboda
Černo
##afr
chlape
podávat
Havla
kterýs
##OVA
opačném
rovin
termo
designé
##view
dych
Zkrátka
stresu
dočasně
sestup
pozemek
Rozhodnutí
dopadne
Hot
sloučen
city
dokáží
Lem
hudbě
Osm
fru
##itým
občanům
transport
pohřeb
DI
Es
##elli
odborného
Tla
konala
##cového
##žném
obzvláště
##skej
##potrav
očekávají
##sten
nakupu
Rizi
toči
##rance
Živo
politickým
spustil
Jediné
1964
zablo
##zim
sci
odvě
##vejme
místním
##gly
velkolep
##šov
##back
Vyšet
stříz
##rozumění
základny
chemických
Peč
vydržet
samotnou
věcmi
bezesporu
silnicích
úředníci
městského
energetiky
souvisejících
uvěřit
Okamžitě
ztě
Start
##hoval
růže
nežli
Koneč
řídící
Rusové
Abra
tvrdo
docházelo
počát
Bratislava
výk
Marketing
##pus
##lníků
zapamat
stránka
atmosféra
průměrně
##šeném
lhůty
##yla
##ráním
Christi
zahraničním
možnostech
environ
O2
spik
pred
Jecho
národním
Sociální
##zalo
slavné
Jejím
##myslí
smů
##kovaného
odměnu
##well
##tooth
Smart
pronesl
jejž
přisti
Radio
rakov
sklizni
##cle
Plán
narazí
sešli
##otní
##gran
vzrušení
mří
sjedná
##ingové
##skala
minerální
##omů
přístupem
feno
##rále
snazší
nevlád
počty
transpor
dn
látka
nezávislost
měrou
národy
##árna
nepřímo
##EST
podstatu
příchodu
položit
##iner
výraznější
týdeník
kamenné
moderním
autobusu
Dol
##berta
dosavadních
těsto
##tavě
ochotně
vzácné
##inová
rozev
dešť
zako
pracovníka
##dera
úzu
##iga
kódu
oplá
silá
lyža
##rive
zvědav
Svým
##bině
nevním
kv
Společně
ostrova
tkáně
dopise
Staré
nizozem
nepřekva
Samozřej
stanoviska
rozvíje
požadovat
natr
projevil
cílové
dařilo
komedi
šer
sezóny
##měti
##mohla
konal
Japonsko
##itt
socialistické
naleznete
obdobně
Gab
##čany
zobrazí
zaručuje
okresní
oj
##natých
korpo
##lár
spokojeni
##řete
technologických
sud
##bej
obhospoda
##ňových
##peme
schopná
jednoducho
DA
diesel
dluhu
děláme
algorit
##chlo
příroda
##mety
centrem
jevů
Emi
vytí
plot
##nalé
##vidím
nevad
Věřím
Dle
zadu
vězeň
UV
##dců
##odů
postran
použité
napájení
Ant
žáka
ptáci
železa
odhadů
průs
komunální
lopat
Jednak
hrudi
individuálně
absurdní
Arthu
nastat
zmínit
th
##raví
manželky
lesích
chodila
Cli
krajinu
vracel
Ferd
ložiska
##čova
prokázá
staře
šetří
##KT
360
sítích
zakládá
gar
##jímají
Komple
teple
##váno
manželkou
hrudní
Feli
Rý
Tour
postižením
spořitelny
bral
výhoda
##gio
převzetí
##vové
krátkém
Níz
infar
diváky
kina
duší
Dia
sledují
útu
prostředkem
Johna
kosmi
rozbor
##prodá
##moni
CA
uděl
promlu
silami
mezd
kulturního
soudob
výstupu
ij
Spor
potenciálu
##hvě
jka
doplnil
námořní
##hlém
##bia
##kovaly
##krývá
přepad
rozhovorů
projevem
jednoduchou
TB
##ovníky
ID
nadstand
rozt
polích
##manu
zdokonal
RC
loňské
##14
jednotné
ozá
##vením
##stný
polemi
akademie
vyzý
1976
##chuť
Alo
davu
prostředku
vrstvou
Service
londýn
živou
Zno
tvrdý
##illa
Polo
Příprava
##enem
320
prase
špatnou
Elect
##gia
klimatu
fat
1918
pará
##mínka
kn
siláž
AIDS
všechní
##fisti
umístěny
##ampi
105
křiv
přípravku
Svůj
GHz
OF
Zdů
vita
##álené
příkladů
Novým
Slo
životů
CC
dokazuje
Strá
ced
rovné
třídu
poslouchal
##likty
miliar
##roví
##dar
čtvrtý
##ghá
Nechy
kec
neuvědo
sedadel
prohlížel
neoprávně
lout
##jil
soudů
oboustran
##čeném
Jeny
řep
statku
sepa
Celkový
poslance
zodpovědnost
choval
##skočí
Musíte
jaku
##rice
Spotřeba
výzvy
láhve
stanou
integrované
večerní
##ložka
vša
Čist
jedenácti
tka
##řenýma
potřebný
asij
Lucie
1981
Sec
##GB
Pardubi
nákupy
spoje
ministerstvem
asy
běžném
vku
##tající
##zána
##age
rtu
poby
tajně
nechybě
německou
uvidíme
##měsíční
zavazad
##řele
chléb
sehrá
##rálu
litr
nejspíše
celků
Ivo
mete
##zány
pochopila
zoo
##enc
zabal
prohlub
vypůj
1949
spalování
utra
holu
charakteristiky
##mené
postaven
vn
##zte
distribuční
ťu
hore
Vysoká
Fan
Úplně
##zé
kovu
tržeb
hledí
růstem
zlatý
zdvojnásob
ět
vazbu
ozimé
zahle
dominantní
poznala
nó
##cks
potý
daných
báseň
slovenského
##elem
2500
vklad
českými
pásu
potravinářské
odno
drama
komisa
hliní
Sparta
##aleko
DC
##letým
složku
věnují
##dělat
vyhled
nádoby
rozpadu
revoluční
Šťast
řidičů
Ari
##sahem
subjektivní
osvobod
rozhodlo
spotřebou
kritika
umožně
Ang
Gam
##žitelný
Vlad
vhodně
natáčení
nervózní
fungující
zamá
navigace
odhadu
nakupovat
ochu
starém
závislá
vazeb
##kovatel
středním
technická
pohonných
Podnika
obrazem
školního
supermar
vyšpl
##TS
podala
petržel
pohr
zvenčí
spokojeně
Zuz
redukci
Gen
##zátor
pravdou
##rátila
jaka
nemohly
##úd
profi
##hlým
široko
1972
##měje
červený
##ovolta
##ÁD
Kaš
lehčí
napadení
plou
solidní
gril
životnosti
cizím
klasickou
reprezenta
inspektor
zin
věro
společném
ham
Jé
veřejný
nají
účinně
registrace
##ntry
##skij
vynález
Budějovice
čip
stanu
175
dodávají
pořiz
kara
Energe
tabul
získají
Polici
potěší
pivovar
regionech
uklí
intera
##dící
chodi
poháru
otě
změnách
##ÁV
verše
vejde
##myslně
ventil
tuzemské
scéna
VZP
projevit
šun
ruči
zprvu
mši
nejdra
čekání
pražský
sankce
fyzikální
umístěn
předchůdce
##činí
Luc
zvláštních
##dově
##rické
vyr
vestavě
Neod
##chyl
vydávat
lehký
památky
býka
moči
##míš
Softwar
jakéhosi
##čelo
rozvíjí
hesla
##vaném
potřebovala
##nictvo
nástupce
igno
Sle
##ujíc
texti
svato
směry
firmami
##hodným
Oli
mari
##řt
Mič
souhlasit
tranzist
dlouhodobý
##dis
živých
Prostor
smartp
zamil
krabice
nekvali
Compu
Sav
##lící
Nač
##práv
farmě
Krou
Roy
posle
považována
Organizace
zachoval
##šová
slušné
výzkumů
Čs
##leném
interven
##měn
vědění
zničit
dýchání
Literá
smyslem
manévr
kade
přetí
symbolem
##láme
expertů
Hyundai
Skot
vyhr
Pojď
mírou
placení
vysokém
obranu
halu
expedi
podklady
pokouší
nepřítele
nebýt
toale
##řé
společná
průměrnou
DR
Isa
výzkumné
Sice
Wer
##mol
naposled
fronta
Sva
nádrží
nasek
požáru
Ram
zacházení
místností
líbilo
štábu
Příjem
##vské
fantazie
##něnými
nechtěli
Akce
##jíce
zalo
střeše
##slez
Světové
vakcí
utaj
##škrá
slyšeli
řetězců
neni
představovala
Miche
Sar
Solid
She
##vinu
trpas
účastí
##telnější
poloh
neslu
vládne
výstupy
vinou
úhlopří
##ovitý
hovoru
##entin
diváci
##ýl
dodávat
CIA
tať
farem
jednotlivým
lar
##plné
ochranou
devadesát
##tového
zrychlení
oční
proběhl
přímého
vti
češtiny
vyjas
přístupy
pokroku
pose
zaplatil
Smr
ztotož
Stráž
jakoukoli
##ZA
##bohat
přijali
tradičním
špet
výrok
specializované
ubylo
výrobního
popředí
komplexu
Upozor
##álce
padla
Oldřich
potvrzují
použije
řeka
Post
##menou
amin
prahu
##robní
agresivní
HDMI
vozíku
Bat
##hoř
Rozhodu
přínosem
ton
dispozi
vědomím
identifikovat
plave
Barto
preventivní
nezí
klubů
policistů
Mohli
objevovat
vrhl
akorát
odborník
stručně
vyhláška
vepřového
##NY
veškerý
kdosi
výraznou
Domácí
Poně
praxí
druži
nepotřebuje
Hein
žák
procentní
##ďu
##ete
přesou
nekom
zastí
získáte
požární
##neku
##razily
nased
vyje
sebevědomí
##skar
mapu
bloky
dlouhodobého
Kampaň
nejbližších
how
záznamu
slabý
Jugoslávie
1920
facto
předur
čtyřválec
usa
##stupňová
sluchátka
majetkem
##dejme
dlouhými
nenu
##fické
určeno
Muse
hokeji
genů
##díš
Pale
peněžní
sestři
symptom
opon
##řadit
nakres
tec
Severo
málokdo
##chvě
mimin
tvořily
Expres
úředníků
znečištění
přo
Dov
ovlivňovat
Gil
##75
koncentraci
nejoblíb
nejvýše
Sur
sympat
karié
vyjednávání
Hart
křesťanství
##diž
divit
Geo
ohrani
chrom
samet
blázen
Charles
##ÁR
tiché
chystal
##ville
zelený
přítelkyně
##nn
krásu
##zova
korunu
okrese
Ped
zahájila
křesťanské
Ono
plé
neznámý
Trá
křesle
nekli
ujišť
levou
sedla
souhlasil
regulační
##hoře
cloud
sana
měřit
dlouhým
přehá
rozhoř
hav
nejvy
sídla
datové
Krista
##jaté
samu
kněž
##kí
přistá
interpretace
fik
Lib
##živo
převzít
1941
zkoušku
##organis
systémech
##mák
zvolil
neobej
příliv
přineslo
Dat
##nského
většin
Ou
Reg
získávají
předložit
##chot
skutečná
stáje
nedojde
neom
##sít
nezač
fotky
poukaz
mrtvého
transakce
##nitelné
tráví
písemně
Zap
dřevěných
##hledy
rovnováhu
azy
prostorem
Dobr
portál
autobusů
sjednocení
DE
osad
##vena
##lické
firmách
volném
Times
charakteristické
příběhů
MĚ
##slavi
Nadě
umožnil
uná
myší
plemene
kdybys
točí
1979
nároků
pohromadě
mezní
provozovat
požár
ua
barvě
##oney
belg
Demokra
umělce
zhlu
jasnou
##tenzi
##tions
sestru
prok
diskrim
##láz
nejraději
místu
prodejen
dialogu
DL
##kant
##četla
##palo
zareag
Stock
schůzky
##ras
pošty
zpod
cenově
široce
Čin
koš
schopný
Zavo
cibuli
rodinný
sledovala
prozraz
##šoval
zátěže
ate
##ózu
##jišť
kaš
Ferdinan
odborný
samočin
##jmout
podílel
Divadlo
Hroz
kompletně
kavá
sedlá
ilustra
postupné
úlohy
palestin
HS
přestat
neprů
rejstříku
neudělá
lidstvo
rybář
Whi
##mýšlel
ovce
banké
CNG
vycházející
Budete
kvantit
vdech
Šla
dluž
citlivé
židovské
vít
německy
1975
restaurací
Napro
pamětí
synté
vsa
##kama
##RAT
vedoucím
pokyny
Dívka
snižovat
likvidace
kandidát
hrůzou
hust
znakem
frag
odběr
Rado
dohodli
Zastav
provozování
Sleč
politikou
newyor
##anie
lepšího
Zrovna
##řině
##ATA
know
##čovala
premiéru
Jasně
##šé
důsledek
pásmu
počítačem
MŠ
gran
##ovitě
jíl
rozšiřování
##kému
Marii
Mladé
analýz
tvůrce
Nejvyššího
Nepří
vodov
drahá
šťastná
nadprů
Luk
záku
hluboký
pyrami
reálně
poptávku
ekologického
ústy
zaměřením
firemních
zásahy
F1
##ňi
Zet
tvůrci
ož
šílenství
##ee
##ňováním
Juste
nápoj
##tum
absolven
##álnější
ZE
kouzlo
##západ
spustí
hraz
nenechá
Čast
paradoxně
lékařem
škrá
špatného
Jediný
Volvo
vyzdvi
nesní
doplnění
chemo
Dost
nádherné
Vero
vznikající
koupelny
uzl
profese
plynule
vady
##běhnout
##káni
NP
oprac
deli
síd
##hlíže
přijela
##ovkách
##plu
##itaci
##stic
Ye
kamarády
kate
pevnosti
vědců
zaujal
metra
spravedlnost
chorvat
klien
Schwar
spisovatelů
yb
rozumné
informačního
Pacient
JA
šta
##mund
Kohou
Evropskou
jediném
odborů
vojenského
podmínkami
prosk
manželku
##ovný
Poslou
improvi
vizuální
##ráme
nejvyšších
produkční
##ňé
##ryho
hranicí
slyším
adresy
115
##jízd
známou
##líp
179
líbit
stadiu
##tislav
##ovasku
##émy
medvě
znáte
jmenovat
vězně
trouf
americkou
tlust
displejem
frá
úkry
##imi
1944
Troj
nepřija
podpoří
zeleninu
##lička
Angeles
##věji
##bul
ryba
dovedností
Zim
ČVUT
Vtom
gyne
petro
##buji
ženami
zimy
možnostmi
##ávat
nezvlád
kej
But
##obraz
vazba
výlučně
vt
Jablo
##káte
zpá
hlubin
kvóty
Prima
podobá
západním
Univerzity
vibra
menšin
rakouské
vysy
vychlad
pd
##ovů
zažil
stěnách
výr
energeticky
patřily
##letím
Ráž
zákazu
##telném
mláď
nesrovna
delegace
polep
patřilo
zlepšuje
projevů
portálu
zadíval
##xie
resortu
svaté
manipulace
Počíta
SAP
pokli
Kolo
ýt
##orce
evropskou
získalo
expozici
Homo
Rodiče
##BY
mince
uměleckých
##ohled
bakterie
institut
jídlu
paralel
převrat
potem
1978
málokdy
ČM
sken
případem
##kni
trochou
##akespe
Vit
podněty
Šo
meč
##onátu
americkém
hovězího
dodatečně
závěrečné
##nků
prezenta
rostlina
rozpozná
domé
vyha
vykazují
nemus
častější
Španělsko
ileg
umístěna
roztoku
tit
Slovo
##tkem
řadách
nekonečné
knihovně
ignor
biomasy
KP
Všem
1947
Povin
tvého
##mém
##ovla
potřebná
látku
připravený
Škody
##het
krásnou
##stají
sídli
MET
dlá
prokaza
schodů
dlouhém
dB
druhem
hotové
Citroë
opá
motori
rovnováhy
##ller
Neum
dálce
1946
učitelka
přelož
opovr
taje
##ét
zapadá
vyloučení
uta
kanclé
atmosféře
##štu
##čítání
novinku
Podě
skupinách
art
##rick
##xem
vybrali
##SKO
víře
vlně
zastr
elektrického
zahrnují
SNS
pohlédla
neuspě
náklaď
spektra
lepšímu
JAR
vzly
kterak
nemluví
krajina
spisovatele
University
lokality
Lito
##pó
bodě
ovláda
Profesor
Mek
svobodě
Menší
řetězec
zvěře
běžná
vyjmen
živá
Opel
nehrozí
Vánoce
absence
Peugeot
blý
ladě
##zině
publikum
komunismu
##ničce
kočka
komunikačních
řádky
Studie
advokátní
sympati
##cující
pozval
Mao
Standard
trestného
miniatu
zmíněný
##jakživa
považujeme
slovenský
přihrá
ekologicky
přitah
Nezá
Pís
obrací
##tlaku
obrázků
balík
##32
podce
svor
Mala
spoko
běžným
vyři
základnu
přesvědčeni
Amerika
Stroj
zelí
sebemenší
Chceš
ožen
##xa
odsouzen
##kovanou
spot
potvrdit
Gran
##ták
nesmr
dřev
Ža
pokrytí
defek
dotázaných
spojeny
komín
vzorky
samotných
jazyku
Pát
mobilu
dokaz
budovat
výstupní
předsí
arg
dědeček
Fred
reflekt
šev
připadala
sestře
##avým
##alistické
nezni
##itidy
vítěze
pito
##álnímu
Krej
##así
připraveny
dostupná
##omet
solární
autory
##ovostní
vládních
Mili
gesto
jednáním
##níte
##nutým
prosazovat
udělám
posádky
zhluboka
##fort
Důsled
prázdná
Informa
zájemců
pokyn
trenéra
podpisu
ječmene
##tinent
praktický
zásobování
zábavu
předved
opravu
##aktiv
dokonalý
##žádal
poštovní
##dáte
##starost
pravým
##kladech
##bají
termíny
vidě
stříb
dárky
zahájena
vtom
kuř
modrá
ozvě
##loví
Klí
Nar
scho
letních
Inform
bývalo
evropská
poranění
hybridní
Velice
##tík
trestné
hezký
nemovitost
##zej
užl
opotře
GM
Hele
edu
popra
Půj
vnějším
komentáře
Wag
plných
##rozeně
Vlasti
reper
##enie
soustředí
##táže
projektem
##kuju
soustava
Antoní
výbavě
bonus
Živ
nástroji
kovové
přepí
pamá
sedl
##tními
##oviště
Přední
obyčejný
last
panství
##mentali
128
Austrálie
rozdr
uniknout
##tahy
naps
známým
mladist
ěm
##ťi
zachra
raket
umý
scénáře
Om
dlouhého
##bírat
kvalifikaci
tepelně
##PO
pravě
1940
##skoslez
Druhé
Davida
kláštera
triumf
keř
skutečného
pohodě
##telit
míň
řekněme
##elo
naivní
zabývající
anato
neodpově
Československé
pravomoc
cin
##sii
135
Pravidel
bala
Tř
přírodově
ministři
Rut
nedi
##tie
##45
zavřela
##lárního
Několi
rychlá
Bohat
smutek
air
deficit
Okres
přesahuje
nejzajímavější
Sir
sklenice
SSD
ebo
##nární
##ezu
##amin
třinácti
obnovit
úzy
kolech
##tův
pistoli
##TY
veran
milión
Americký
handica
lokomo
fakticky
ležící
okamžité
Poh
Nobel
##ffer
opakuje
Bohemia
jednotlivá
komisař
##decké
pásy
##rážejí
zážeh
diferen
Doku
vybrala
zakladatel
překvapením
hlo
Noe
NEJ
problémech
platu
údržby
poloviční
všec
Vrátil
kampani
působením
bouře
výměně
natáhl
extrémní
aktuálním
benz
oP
##raj
úzů
dluhopisů
pomyšlení
rent
prohlaš
Palest
Bir
##HS
Most
reklamě
rozšířila
probíhala
AF
##aky
slušný
##toch
tiž
běže
kupónové
splet
jistoty
Sami
nejjednodu
přivedl
brut
##jené
zasla
##entují
obtíže
##genu
pokusí
tašky
razan
sod
Zaměstnan
##livém
Osobně
odpovídal
špičkové
cá
náročná
Nejvý
žaludek
minutě
speciálním
galerii
##niho
říkáte
vajíčka
lh
tů
neprac
atle
úspěšná
Zbytek
slan
##ativních
geneticky
##17
opakování
##wel
##ravo
zavazadel
Úřadu
Natá
Měsíc
bolše
##škov
členům
Ton
Doma
krátká
kléry
technice
cizo
minulostí
Mnohem
zrcadla
##orové
důstojník
příspěvků
##solv
drah
proudy
slámy
portfolio
ňá
##kyní
konekt
nosem
ideálním
svazku
hromadě
##lasti
##biskup
Smu
##metry
poslali
zúčastnit
bůhví
##štinu
klasického
krmných
##jíš
Mý
zata
nezajímá
Voz
Zdeňka
burzy
bezproblém
##rovu
znala
Smrt
103
Vašák
čelem
##šinu
##noval
přeď
obdé
Římě
obsluhy
přidané
možnou
lékařství
One
rozm
##bale
radí
vyjed
uvědomuje
odměny
kongresu
auten
Spíš
##CP
Přímo
Út
##šník
zahájit
průměrem
dělost
kříže
přeč
obzoru
busin
lesních
nezávislých
Chtěli
středověku
##bývat
soupeře
pootev
časový
odolá
žlou
##čová
nevzpo
získaných
závazků
imag
příplat
##hard
##valech
stánku
světlé
ztratit
naprostou
opis
##sův
##vačů
stažení
záruky
obch
##šir
1974
nabídla
Thu
bezdě
váhy
veřejném
atmosféry
tablety
Golf
##ráty
rep
##rovými
dopadlo
odrá
milosti
schody
štu
##KÁ
##cke
černém
##tona
x4
##čanů
pěstovat
hrdina
Současná
ďábel
Mluví
##oku
kazet
Raj
bazénu
deri
##dlé
přeci
fungici
zdanění
krytí
Lidi
operačním
sakra
kopie
nukle
hmota
Cup
žem
##DO
nec
herci
zlatých
rat
nesouhlasí
bílým
muzeí
zpívat
Hitle
úpra
nař
##anna
##ske
Problémy
Syl
##táři
Kad
sjezdu
##rani
home
Soud
vypra
předpisu
Pojišťov
##tější
jene
jehlo
Myšlen
připou
funda
geometr
##bily
##day
pokrčil
Filo
učil
hladce
Maďarska
topení
##EČ
budd
úrovních
##enců
historického
##kážou
##honu
dostání
přibývá
izol
zezadu
ňad
proudem
nenápadně
odpůr
##sudky
mrtvá
##zovalo
poselství
přec
řas
##éna
##chen
##telní
##entním
micro
smát
držení
rozšířené
vegetace
symfo
Nechce
připustit
konečném
Office
##mícháme
hodný
Pokle
šťávy
Alžbě
Ral
multifun
upřednost
##táhnout
opřel
zásadním
znamenají
Telefon
Která
posyp
slaví
přirozený
poka
nejedná
Mich
předev
břicha
##žy
Maa
zdrá
skály
kuchař
předpokladů
peněžen
##NÍK
uté
založit
výdě
##větším
zdravotně
Dvoj
Dick
Tony
##dační
Nis
Tlu
zaujme
neudělal
Teplo
zapří
pojď
Deset
limitu
transakcí
zahájením
slavný
obilnin
vnějšího
výrazným
ocelové
Tis
doprovodu
Blá
##budou
věnovala
sousední
taxi
plasti
Kotery
schránky
Olympi
zpětně
Stavební
zaměř
právnických
kočky
otevřena
uctí
##zané
účinností
neexistují
formálně
Dre
LS
##děných
záměry
All
kloub
##íř
##nel
##zam
vesele
##ceg
Sáby
nepot
230
mrtvo
##NOSTI
##peut
##nomii
veřejností
Domnívám
dote
Wel
autobusy
Provoz
sni
##vici
drž
Jaromír
unav
generála
srovnatelné
cestovního
příko
Charlie
zasně
1977
kataly
trendu
standardi
##balu
horeč
povedlo
KAP
počít
vyhrát
zápasy
FP
aspekt
přezkou
bohu
nechává
kurzy
Dlouhý
Generální
VÍ
klimatizace
zemního
teoreti
fit
bývala
Bern
soustředění
ukazová
##veň
pojedná
ohroz
specifických
zleh
kolen
vojenskou
chápání
kůží
pasti
krása
sklada
##áček
účinků
univerzita
hoří
povla
vysvětloval
chou
Vyp
objevu
znepoko
embry
##menta
##dané
##vizní
Fiat
takte
prvový
přesahu
##kláda
##nuti
##iser
institutu
Ala
produktem
nebezpečný
sekundární
##tátu
##trosko
britského
vyvíjet
Uprostřed
Bod
GS
divné
fem
##vanými
Tajem
Ok
okup
trvan
Léč
frontě
sáhnout
kinem
vojsk
následoval
Strate
oe
##žovali
sateli
používal
starostí
kódy
sochy
##interes
tarif
##nův
##tox
RF
##čiště
##pené
kněz
##účel
sedi
synem
zrcát
francouzských
##teče
Patri
převis
vystoupí
##bina
řeza
olejem
deprese
rozšířil
hrobu
nápojů
vypravě
Totéž
kupovat
##ecký
developer
Bol
pravého
vstupy
zmínku
zavedl
druzí
vstupů
zaost
děláte
Charakteri
Ovlá
io
jeny
přirozenou
zalí
nedochází
obdobné
nenašel
zahradu
kamenů
panelů
##pustili
náhoda
světová
Marta
elektron
slovu
chyt
1942
Tar
sofisti
propagan
propagaci
Kvě
odleh
##ždil
fotovolta
soběsta
nemluvě
##hnal
Němce
##prostřed
pomysl
##fó
nejlepšího
zvěř
##ovení
brána
čtverečních
##rno
experti
##ett
POS
psychické
přednosti
přepo
##paráty
cister
stopa
Akademie
Kit
slast
svobodné
Kvalita
TA
uvedený
##rian
jedny
záli
##ezla
##naných
Nechtěl
Sená
zákazníkovi
##ávají
nejste
Edy
jámě
kalhot
připomínající
očkování
úředník
vazbě
způsobila
Smith
##vate
turbí
bydliště
hodina
zpracovává
pitom
nepočítá
##etail
klást
výděl
novel
reagoval
přepočtu
Ukázalo
povaze
jejic
autorit
zahří
drogy
pěstitelů
horko
přípravek
recese
degra
právník
Skutečně
nabídek
vzpomí
šly
ozvalo
##fit
MEN
1965
zástě
Brid
Twit
kontinentu
1966
anglič
živočichů
Aha
logo
Skutečnost
pilot
Fried
Plan
bysl
podivu
špičky
solidar
příchodem
břit
teta
Vnitřní
##formu
Výjim
Koru
one
kono
současným
##jezdy
##tníky
účtů
KA
Jednu
prázdnin
##nho
##tamtud
oslovit
##ňku
nesna
růžové
Gro
##bol
##ych
##téry
karoseri
##terapii
1973
okem
stř
nadřa
##VĚ
##tečním
králi
Jedi
neform
velí
dívali
##válce
příjezd
domlu
pacientům
oste
vybavit
Použití
obalů
##zuj
ský
zvítězil
odlou
nucen
bankovních
##nouti
nespraved
Technologie
##čou
##ňovací
doned
Švýcarsku
prokuratu
ambi
##cely
bakterií
Core
kmene
##ránek
Následně
Nin
##blou
Sev
##zínu
vláken
předností
jednotlivců
takovéto
tělocvi
oxidu
##razd
rozpty
Autoři
náh
##jíždějí
iden
došla
pák
##loužil
Napadlo
zapomenut
fajn
jablka
##ROS
dohodnout
##rit
##nál
prvně
##háním
procesem
hřeben
sazba
##skočit
ději
každých
SZIF
žurnali
úpad
market
Háby
terý
válečné
Mladý
občana
##istu
odběru
zvrace
táboře
představiteli
požadují
nerez
obj
##pující
Haby
Soko
započ
nálady
příteli
univer
soucit
##EJ
mořské
mise
poslouží
oddá
##títe
mladým
liberální
zahal
všestran
styk
nezbytná
zaje
vyvě
šetřit
prokla
domácnost
##povat
oceánu
CT
kori
chemie
Pohá
svař
nařídil
Mni
ene
přisu
komí
Musela
manuální
Brat
ustup
Pozem
elektrických
odjet
##enici
vysvětlovat
cizího
věkem
##EA
##rostl
Mike
vzorek
JS
##ťe
záble
průkop
rameni
Hans
organické
podivně
stavebním
Každopádně
mrazi
tvých
Hz
RM
krátkých
##rodi
hoc
##chan
##dělají
riziku
založený
kategoriích
vykřikl
NĚ
připomínají
kliniky
nezáleží
##ite
ambici
Zařízení
Špat
projevují
Odhad
Trh
##oti
nehody
mírné
tunu
Adol
povšim
posvát
sdílet
přichy
samotě
postačí
Sním
protilá
výstavní
doplňky
obyčejně
##moří
expozi
##plicit
jednatel
##škami
##ďy
holand
##zák
Jud
Spíše
##litr
češtině
dani
Sin
zvané
Sand
##tivé
praní
album
Jednání
Vlád
1971
Sbí
TSI
svů
vlnu
náročný
sáhl
modernizaci
nebes
výzkumy
skvrny
Ane
Bosch
běžel
nevěděli
vědomě
status
Bl
##hující
dozvědět
##ětře
důkazem
jedou
mléčných
nazval
plným
Karl
VII
##nská
##bližně
nikterak
komedie
úvah
EG
sekci
##foto
nožem
umožnila
evropským
ulicí
přenáší
Cop
sper
turistů
klidný
usklad
##alt
dozorčí
##pne
čemž
závodní
zpoždění
kursu
vete
Ztra
##randa
šv
žup
Novotný
Kara
daty
bratří
podmínku
hit
řízené
##tyš
umělec
vylepšení
perfektní
##avého
chrám
blyl
přidru
Nejdůležitější
nabývá
sebevra
předání
##rs
uniká
vyberte
Adé
přijme
jezdil
včerej
Dist
rozlož
zevnitř
kompo
##krt
vlivů
zíral
ženský
vozík
##ust
Belgie
Židů
pokuty
Pin
##níčku
##lujeme
##ply
domech
vedli
drahý
##nutého
##zováno
nezad
očekával
léčiv
kontinent
pokutu
nedostatečné
kato
přikrý
##house
starově
teoretické
zaprac
uchová
zvážit
NO
špl
##kuren
nepřišel
##ženu
přiřa
válců
nejmenším
záchranu
Následující
zapomněla
nemuseli
impor
vydávání
##hospodář
alby
elektřinu
reliéf
přené
reagují
spánek
mojí
vhodným
##ládat
Zítra
##nus
Přehled
následujícího
zbabě
##dyho
odhalení
bojů
dovedl
odbory
odmítnutí
izolaci
##liu
Vedoucí
Venku
svěží
vojska
Hodnocení
##covým
##štěného
Einstein
tolika
předat
što
##stavit
potřebovali
Ráby
gru
##Ci
210
voní
vzpomínám
aparát
přípoj
zvyku
paláci
##cm
rozvojem
##ovatelný
##jné
zastara
Sus
odlišný
##myšlen
vyhrála
##šenost
aktuálních
##MC
dolé
výborné
nesouhlas
##mych
žijeme
Joh
##komb
spojeno
společenský
##livými
rády
vhodného
mraky
realita
##OG
##stíme
Nico
##paci
Černá
rub
formule
##mený
květů
čir
kame
komoře
ult
čil
redukce
přijímání
NASA
Tvůj
agenturou
aa
zplo
moud
doufal
dílčích
##cina
odlož
##lepal
##tíš
odpadních
Sor
##OLA
naživu
##lastní
pojmů
Potrav
způsobují
Stojí
##lohou
vzpří
##itelný
Alena
plastů
##gl
nápisem
uviděla
zaží
používaných
bílém
docházet
Dvořák
##fektivní
##PRO
Snažil
dk
vymy
efekty
##ňské
Berlín
##hez
Klause
##eniny
nápravu
##af
CAM
Trené
použita
##raný
orig
jis
umírá
účinná
obyčejné
##mentární
přehrávač
##sn
meziroční
##řán
kdokoli
kužel
neocho
zlost
##uz
vědu
vhodnější
XP
podtitu
KAR
podkladů
něčí
Seděl
náročnost
##OVÁNÍ
uml
##ator
##sleduje
třicátých
jm
porodní
##kovému
vytě
prsu
akcele
##něly
##ricky
kouření
Základním
Vyhlá
vypočítá
zhoršení
Doda
Scho
##rácení
čeli
Indu
standardů
ust
##lity
##pují
Mělo
Káby
prsten
britských
zavi
Caro
standardních
Brad
nebla
zmo
##tologie
Nečas
skryté
samospráv
Rat
Uvid
daná
ústech
půjdu
dbát
vytra
Veškeré
Tó
harmoni
převést
##konu
taha
Jugoslávii
Ztrá
úniku
##dan
pých
vyved
rozlé
Toma
pomáhal
schůzi
ukazatel
samozřejmostí
idi
řpi
hoře
kvalitního
provinci
##hodného
říkáme
##itační
specializovaných
katastru
návaznosti
##gs
mikrofon
##omu
##logická
veřejná
psali
požádala
##rari
Počk
Prochá
##kážeme
##cinu
čistá
Brazílie
tradicí
Boris
vstala
nastala
fotbalové
neži
ovlivní
samý
TH
výroky
setkali
kresby
Ludvík
střecha
bronz
třá
zch
soužití
fáz
evidentně
Wol
noví
armádu
6000
##kti
Rela
důležitost
lacin
rádia
##ylo
viď
Sl
stěna
věnovali
##rným
budě
nerad
kostým
uslyšel
##lední
probíhající
herní
náram
##board
pouli
neprod
Lew
směrech
1956
stáda
Andr
guverné
přesp
úrod
##štila
silných
mlčel
odstr
vešla
##cházejícím
##lná
##ison
známy
obsazení
nejdůležitějších
vystavě
bohatou
iluze
Prague
1953
##alitě
odmítnout
skutečným
útěk
půdory
##och
##gil
rozru
##kátu
SY
Hospod
medu
týkajících
polštář
konektor
Půl
říz
##OVI
spokojenosti
Sovětského
nepůsob
přála
Aa
denního
sledovali
doslov
smířit
stereoty
neškod
##rostla
ohří
Víme
pilíře
křik
emisní
strategické
sady
##ŽP
##růstají
dálku
vrah
Francouzi
Tit
##27
byte
pomohou
##štěno
zjem
Pohyb
shlu
##von
digitálních
Sad
##řídka
trpělivost
moct
větvi
plev
orné
chybějící
obchodník
zkoumat
zavřít
moduly
dětský
Cin
šedesáti
Skal
deter
navrhnout
jednáních
imi
nemusela
intenzity
Křesťan
Ní
sňat
koše
nikým
aristo
Pur
gáz
##ničním
JED
zbožím
Tet
odch
Brod
Podnik
postupuje
začínala
Zástupci
bydlet
církví
celky
hladinou
Začíná
ucho
nejedno
bater
Zpráva
podnikové
výztu
Udá
##ÉM
##řízně
hudbou
marketingový
zpře
Sé
Příslu
detailní
Soutěž
##energe
##jíždět
##rium
bydlel
pekel
##erů
senzor
##niček
vleč
zpívá
zábavy
##85
nejná
Věra
znechu
##hnutí
proniknout
omezen
Defin
juni
Zvlášť
##ůvě
donedávna
##ČEK
##mode
umístěné
výzkumných
Pták
MAT
infekcí
udělalo
dlaň
stárnutí
kyselin
vybrá
hetero
Nabídka
odli
##roby
majiteli
životnímu
Cast
režiséra
##óze
nechtělo
princ
turna
KRÁ
Táně
nejrychlejší
nejs
efektivitu
robustní
tónem
FC
##řicí
zeleně
##vete
Japonska
doporučujeme
mask
##čkala
slabě
podlaží
Slí
neméně
Fol
Vídně
ospravedl
obecný
operátor
datových
souvislostí
spadá
Minim
výbavou
tker
předkládá
páru
zahrada
poslala
##padek
léčit
trám
anglického
odesí
pasaž
ložnici
severozá
Luce
NDR
zho
přesvědčil
pověsti
stoprocent
paří
dospělí
cholestero
panuje
uznat
tmu
##děná
##ávám
##lečnost
Proces
realitu
Vzdělá
##HRA
pusu
doš
výuku
naznačil
##bot
krabici
##obi
pochval
zvolili
zašel
##číka
Jej
austral
růži
Výstava
mravní
##bost
mix
fisk
přispěl
vlákna
spořitelna
trub
##mací
krbu
čistou
##ýc
svařování
##štěnou
nadměr
informacemi
POL
zjednodušení
kapky
##kovní
projektech
založená
těsné
Reži
privi
Amaz
ena
##mostat
pláče
znamenala
Herceg
##leň
některou
Home
určená
Louis
ěn
nezl
##ovníka
kvalitativní
Wale
##atickou
pohlavní
dávala
##ingem
stanoviště
Hom
dnu
Št
kapitu
odmítají
zakládání
uko
barevný
městu
četla
periodi
přiblížil
##dobí
banku
Pali
Došlo
serverů
##dných
Divá
zárukou
##wen
spada
##DY
##nony
Holand
##harmo
balvan
##BO
VZ
##itida
hmyzu
Tepli
agresiv
oplo
podnikům
kotel
Celo
zamo
dotkl
##bach
trp
velikou
vysou
##padala
šak
ukončit
##atiky
společnostech
délkou
svalů
příbuzných
poezii
záležet
nejmladší
##skev
odbě
##nát
žádal
neutrální
torpé
Jedinou
Proz
##tečních
interakce
Porsche
osmě
velitele
mužstva
hranicích
připravovat
dokládá
zúčastnilo
otáčky
Sebasti
východo
plet
Nevi
nea
budoucím
Petro
problematika
##čna
Méně
vzdělávacích
jazz
##školá
mikroorganis
pocitů
zavolala
fenomén
vzpou
Možnosti
píř
písek
citlivost
Řecko
svatební
Rej
vypína
##děni
destru
rytmus
155
postará
retro
dochá
roč
opery
tip
##chaj
kultiva
mega
výpočetní
portrét
MÚ
##erý
Vojen
ukazatelů
nepova
úrazu
Určit
##kejte
gr
Čín
správného
##gur
Disku
sadu
sýr
perspektivy
##RT
##23
přimět
Komuni
##vanější
##terní
zbytků
dvojici
přenést
řeku
Děj
rezolu
sladké
páří
vyčká
zbylo
TI
stoupl
oslab
ohře
lavici
##mořské
zdlou
bič
křesť
##ML
##ovců
osvoj
##štit
poradenské
##lence
zjistíte
řpí
záh
časně
kufr
posmě
vojenský
upřeně
licenci
složitý
nástupem
vytrval
Židé
identity
osíd
##ae
náprava
rezig
CV
##vobo
Stavba
Vino
##řní
Nená
říši
odevzd
neode
zálivu
uzavřena
##kátor
Dosavad
bezkon
hřišti
vsi
Vale
nést
vydalo
zajímají
##dnout
volbami
maklé
vydělat
##iš
krám
legislativa
secí
Jmé
špí
černým
muk
##ativním
##kě
##DP
##chejte
naučí
Bavor
zvi
vyplně
předměstí
##fel
školních
Proce
Shakespe
česk
novodob
jezu
nazvat
cizinců
oznam
pavou
MC
##čátek
zři
zale
##divé
představitele
Lom
fav
##misť
Mlá
zajištěna
určí
Reuter
kontrover
odved
hřbet
výživu
lám
##byli
##jímalo
nejvyššího
##ür
uvidíte
slog
Řízení
přikývla
Bun
ujal
systémové
laska
opatřením
stačila
mluvčího
konkurenceschopnosti
##zant
zeměpis
##ňujících
ventila
Provo
##šící
následkem
Tomů
Vala
poží
prostran
neodpovídá
nehle
chováním
spustit
Ký
##lea
##alit
památek
přeprac
péčí
jablek
vypadaly
zaujmout
##kařské
ředitelství
##způsob
##ždit
Stal
##olo
motivaci
CL
barvách
##renské
##paný
elektroniky
něze
vyhově
vyto
##prou
jistém
hyster
neuvěřitelné
##bru
##divem
slavnostně
kladou
rezon
schodišti
prohře
##stánu
Děkuji
Běle
propuštění
konta
zpoždě
zaujímá
tempem
spolehlivé
##obe
převlá
důsledků
mírný
drav
##lte
##yr
ticha
strojem
zrani
LI
trhli
časovém
##logických
trávě
doplňují
##mluvy
šatů
zřiz
Rozhov
dceřin
souč
nezmění
vyrobené
##rne
oleji
Fou
##zám
tkání
##65
##nují
předse
žes
televizí
dodávku
výbavu
##EŠ
pátrání
##vemi
zvířete
tmavě
##covala
##orum
Opa
přivo
vlastníka
podotkl
##rada
kdoví
náměstka
##jez
nepov
písemné
##dák
fos
##pochyb
zahrnující
##ose
##pní
nezak
nesmějí
Sáz
Musíš
tlačítek
empir
nesti
zvýšením
Radek
rýs
##baj
pneum
takoví
dětského
dopřá
sce
důl
čerpadla
vyvolal
absolvoval
kned
televizního
krych
ztrosko
##šn
##líkem
Švédsku
Vis
renta
západu
ya
##řenější
##sourc
##lníci
##běhne
kvót
střídavě
kritiku
##ctva
Brown
neschopnost
násl
##anům
cích
Západu
potíž
suverén
Marka
molekuly
rozvor
vybavené
česneku
Umí
odpočinku
##wald
Berg
##psy
zainteres
koj
složka
divoké
Miroslava
červeného
zali
vyprodu
nějakému
linku
hudebních
Veletr
chvílích
Vzpomínám
Raku
##fen
světel
Slavia
##natě
rozhodují
##liz
zrno
Švej
výsledcích
zastupuje
tréninku
šek
jedu
skok
senior
##sis
##RS
uší
Odtud
##cembur
nutný
##ficiální
vysílá
##hnula
##yb
vůní
Lepší
procesoru
sběru
##rž
čerpat
medaili
Octav
rozzá
1963
otvory
reperto
organismů
##atřiceti
OT
##nikání
vyka
##koví
##těžší
spřá
Rol
silu
zaznamenala
##veru
dyna
platformy
##zak
OM
##čed
zvl
citro
##mínat
inhibit
odvy
nežl
##inových
nejpří
uo
vyskočil
občanský
mladou
##enského
##jov
pohor
potrvá
dávali
pomůcky
##pory
dlouze
##havi
nenáro
schůze
Otázkou
##tému
hospodářská
onemocněním
##hodilo
zamyš
věčné
plynou
Jeh
cvak
chmel
pronájmu
Jeruzal
fyzická
##21
Kamen
Zdůraz
##phi
rumun
režii
iPhone
##hává
opírá
sešit
##chalo
Českém
kognit
zachránil
Titu
oří
Nokia
kulturním
Můžu
Tábor
eura
Bím
##roce
identifikaci
cukrem
aparátu
schází
pahor
místopředsed
##ceném
podnikat
císaře
Kří
##orth
Srdce
zněla
špe
svědo
kory
sít
překvapilo
úsporu
nevysvět
##alýza
##blízka
abe
##hodnost
domníval
Niss
##nanou
vytáhla
horním
obyvatelstvo
postarat
ohy
spína
bavor
Lon
Thor
1952
##bes
Přede
kompromis
Yo
kartou
smutné
mužstvo
neodvá
záruku
usměr
Zavr
přispívají
toků
stíhání
mramor
kotle
centrali
efektivity
předčasně
play
import
chůze
##STAV
pokor
nadby
nadsá
zdali
podrobněji
přepravní
kruhy
Mrt
##host
připouští
staršího
SW
cukrovky
Šte
jisti
poloha
daňového
nenad
církvi
MTI
nedu
zvednout
nepatrně
vypořádat
obna
červených
čtyřikrát
medaile
Vzápětí
přítelem
ponděl
##ovkami
tmou
terá
##alis
smutně
bezvýznam
Kriti
sekundy
oa
výstře
přistoupit
řešen
naplnit
odejde
samozřejmé
TECH
##ÁŠ
lahvi
geny
zvýšená
nákladech
##zíme
Přiký
turnaje
klidné
leasingu
kyt
##covy
Izraele
##rálů
dozvěděli
srážek
značná
Neměla
symboly
páne
pohodlné
žert
vytvořené
nože
chytré
vyslovit
Liberec
litu
vytah
1961
Michaela
konkurencí
Maximální
povrchové
vzrostly
##AA
##lníky
zaměřena
podmínka
Španělska
kterej
jugoslá
ztratili
finální
Jup
závazek
pokrá
mnohém
nestane
Pražské
udržování
nedaří
##romy
narů
odkry
přát
1600
ostrý
naráž
prolí
nezávislosti
jakéhokoliv
nereag
Čtyř
##ekonomi
možného
napadá
půli
kapely
dlouhodobou
šálek
##ař
##ninách
měni
trestný
Maminka
Jiný
objednat
##tovou
##vačka
zrcadlo
Io
diskutovat
Popis
souroz
naděj
##čivé
pohyboval
normálních
rozdá
klasickým
teto
kapel
jejíchž
Pospí
##pustné
Video
mlékem
PŘED
nosil
Většinu
senti
Raději
lom
zamum
zloděj
Cítila
kněží
zanechá
Nato
##nině
onko
ocelových
vycházel
vínem
Líz
oloup
Nevý
##lostní
protokolu
opotřebení
kmeny
dcerou
ía
spadl
pojede
##luji
##bre
živého
měn
Stí
znělo
Téma
jeté
Dolní
manželé
Jame
gal
Podívejte
usiluje
##eg
stěže
plánované
##barev
##šlí
změnily
připraveno
výzva
hezká
celostátní
konkurenceschopnost
rostlinných
poskytla
závodech
##emí
rozva
intra
iPad
ková
Dopis
Otevřel
korupce
ušk
##lony
##ovýc
informacím
fází
vrstvě
Fla
##aké
potichu
##skových
hlase
manažery
tl
##vkami
odstře
Předtím
přítomen
účinkem
hlavními
Začala
hovězí
Sví
pravidelných
orgánem
Play
dojmu
lázně
tvou
##mez
##vne
##rské
Margar
táhnou
Zvedl
odu
uchazečů
přis
##tujeme
pomohlo
mužům
dirig
hrozné
tělu
ušetří
kandidátů
rekordní
CIC
roto
rozpou
##obeton
nezmi
generálním
studentům
hejt
roka
dodavateli
otáčení
ESP
básníka
Wy
přilep
##žitím
pták
miliardu
DEM
##nkem
##ňována
##skami
značení
odolnosti
Státního
est
zápal
volnou
půjčky
Vůz
budo
Pardubice
stejnojmen
označují
ea
Kaza
svatý
školou
##letém
spolku
##rátory
hraniční
Současné
nele
##ologové
vyznačují
intelektuální
nejkrásnější
šim
nalož
pochopitelné
Daniela
výtvarné
vlek
zvýšily
jedinec
tys
udiv
stad
nejšir
pláži
uvolnit
vzpomínek
Bývalý
##cor
střeva
ulo
týkat
##hlížela
insol
rozpoznat
Brou
záznamů
rozezná
Argent
stáhl
elektrotechni
dospělosti
počest
citu
##leční
překrá
Roberta
vaším
zlatou
##kčních
##zly
divák
Moder
neviděli
Podařilo
Stará
##vno
##pekt
##sau
Řidič
horských
kluby
##ARD
Frankfur
souboj
##íd
priority
všechen
##manem
##lei
vykro
experimentální
Nemůžu
##lema
odjakživa
##kátů
prodejů
mnoh
##ánských
Software
nezákon
##jistě
##gradu
Princip
úvaz
##čnic
koly
drželi
pořadů
statistik
rýže
Masaryk
neschopnosti
PH
vypro
kože
pohár
palác
ochut
sloužící
paží
vodního
vyř
pustila
biopotrav
trvalý
škálu
Příběh
varoval
tendru
Komunika
mužně
vyboj
velvyslanectví
pováleč
oď
##erou
výběrem
útěku
vtě
nedí
Říma
##čujeme
přestává
##ánský
slovenská
zmatek
whisky
cej
##ovních
Tenkrát
zpětné
zmíněného
ambice
refe
kyber
důvěrně
PF
##inec
hotelů
trvající
##rko
vysá
začínající
výběrové
tanky
zleva
ec
šech
##avě
dopadu
jídle
padne
Steph
Smě
úplat
toh
inov
prostý
budce
pokušení
Berlína
##šci
dít
modrý
doporučil
##hlédnutí
styky
dodavatelem
send
zpozor
schopno
##jka
vítá
náboj
hrdlo
Západě
srá
opustila
nádorů
levém
mnu
projevila
nylo
provozovatel
##jazy
osolíme
volantu
Jacqu
neru
pocítil
pouhá
ložis
postavena
##hradu
historický
zajetí
strýc
německým
CM
Kim
##šm
obrob
svet
nepůjde
provádějí
zavřené
režimy
ředitelů
##anému
dolaru
kaple
##žme
přeplně
##atost
MIL
spatřila
vlhké
žla
##atického
##alitou
slabá
hovořili
nahradil
rozměru
indexu
děláš
gau
obličejem
producentů
aliance
##enecké
Ježíše
propor
zámin
poučení
##ITA
svit
##ai
##rojích
právně
filtra
##zenu
prvními
přesun
ota
stodo
Převod
občerst
konstitu
surre
##ovem
odkou
##bosti
##jížděli
neřekla
podvoz
HOD
šampaň
##čes
##rození
pochopili
rezign
nepřetržitě
Poznámka
Dlu
punčo
##vic
rychlého
čtvrtinu
discipli
Gorba
Cos
řádově
sousedství
##sních
prohra
výkres
produktivity
Čo
##identa
zneužití
získávat
obejít
basket
řediteli
zelenina
##TÍ
odborně
Schop
lovu
##Sc
sezónu
tóny
agentuře
provedeno
280
Dag
podrobné
Cenu
##zním
prototy
Viděla
##alizací
považovali
Bílé
##tného
##ib
diskusí
Článek
řeši
milé
pozemcích
prezentovat
snou
##ňovány
hrůza
Budějovicích
##ovar
popro
##tekla
kytar
ameri
obsluhu
Novou
vymyslet
Míš
nevidím
čokolád
představě
159
##žě
kapli
prostou
usilovat
skalní
vzpomínka
Austrálii
Vor
pepře
teritori
vyra
Ústavní
Myslíš
pauš
kardiovasku
Tým
Vzd
naměř
dokončit
Kdybychom
nosné
leu
přesností
nezávislý
domnívají
napsáno
mont
ia
mlčen
zarazil
boudě
Oliv
##ento
teplotní
odstupem
nepřítel
Láska
##entům
Hun
kvá
konkurovat
manželem
SČ
mrak
vtr
klima
výchova
příjemce
##vějším
ráme
rtech
##zdní
MP3
nefunguje
vyrazit
vybo
Janou
vyrobí
útr
##logický
##venek
##novými
náhradních
doufat
směje
faš
samostatnou
fyzickou
##odra
opomí
##něm
Starší
vertikální
vystr
výhrady
dorazí
Tí
nečin
##col
energetickou
chladné
uspořádá
metodami
chlapi
bohatá
debu
pevná
ověření
ovládací
Otočil
Galerie
Kno
kabině
zvr
nič
##šném
Rot
celosvětově
moza
anglický
##zě
informuje
tímhle
Fá
konzist
strachem
posiluje
přiznává
zemětře
jabl
režie
##čký
neporu
světovém
napadne
lhůtě
pli
smi
Studio
Pravděpodobně
Dž
Kapitán
##Tube
zimních
##otě
##ózou
vyčist
##ÝCH
##ÁZ
prohlédl
usnul
sbírku
ponechat
##řovala
oblu
odnesl
patrný
cizině
otřá
Text
vracejí
##clav
Nejčastější
dopravního
osudy
Leg
zvedne
nemusejí
Well
dém
uká
zločinu
proudění
mobilního
výměn
Rock
Hrom
zastává
Tabu
podezí
regula
Sedlá
##začním
strávit
vyvinula
angličtině
##cházejícího
mluvím
subjektiv
Speciální
plicní
OE
##celi
hostin
sahá
tažení
zasloužil
Tok
komodity
business
##elekt
dobý
Sej
parkoviště
##gů
úzkosti
komunisté
porozumět
teror
troubě
##jeho
skutečných
##tet
nedob
##rans
hledala
vývojové
##fií
kupříkladu
Dlouhé
baterií
pustili
uloženy
Janu
##šlal
DNES
vyprávěla
##anásob
problematikou
katalogu
Mohlo
podstatnou
náročnosti
##kupectví
Smí
pozvolna
ČZ
##stad
##hodli
rizikové
správným
Sci
sú
vlou
##desk
přelé
nejne
Současný
##rátoři
použitých
obs
##itelná
ústní
Rodin
Členové
Ideální
nadšením
sedmnácti
zvedá
slovan
šířku
##árně
##spěch
dokladů
##aver
Návštěvní
osvědčení
snadná
stanoven
Beat
##letní
rozhlédl
televizor
takovými
Tradiční
obnovy
##indi
jmény
Červen
záměrem
poznali
##ničtí
snížením
výčit
parale
převlé
zaba
odbou
nebrání
##lárním
##entního
nepozor
kamarádi
protokol
nechut
sedadlo
Neexist
gramo
Jediným
končetin
arcibiskup
##važuje
sezóně
zasáhnout
ted
hospodě
zapůj
hrany
dálnic
jezdec
nechceme
nevel
##zvor
##door
koruna
##jedeme
##zaly
rt
zajímalo
optimalizaci
prémi
druho
##natá
dovolí
Dynami
sešel
příplatek
vodít
hospodár
hromadu
Vé
uvedená
úzko
Danny
##gor
VÚ
Namí
okresu
obsluha
vážný
roviny
trik
přestávce
skladeb
pracovišť
Cru
##cytů
Robin
slevy
perfektně
##cní
##láni
anonym
nejdel
klasická
ozu
Klub
pneumo
nemocní
chápu
apart
zjistíme
Sak
studijní
HIV
modrou
1929
něko
veřejno
RAD
tisková
sebez
chodbou
dys
odmítli
Čest
proza
nalezení
znek
plechu
emocí
kapaliny
odes
přejde
výrazněji
zdržen
lymf
poklesem
##chly
břiše
tabletu
Dana
členění
Ray
nemůžeš
Aj
spokojený
cizinci
divoce
Zmi
##ous
zastavili
reálný
rozpočtů
##ÁLNÍ
načer
##manna
sněmu
nepodaří
dezinfek
vařit
podepsat
talíře
Mistr
obrně
napětím
kontaktní
zavádí
##ktně
vyloučeno
lampy
Automobil
##čnímu
##ležitost
hlavami
svíti
zvyklý
šéfem
odep
dostupný
cítili
nedají
##oneč
kano
lineární
Táta
smíchem
1951
podnikatelských
Délka
prem
##rector
prvnímu
plného
##jevuje
upad
diskré
schůzce
Dlouhodob
bohoslu
udu
##éé
Dospě
samotném
kabinetu
##ás
prožívá
##nesou
Gera
ctě
širokým
vsu
dostanu
prči
##českého
##cenými
blond
tvářích
ús
záře
nepravděpodob
požadavkem
##nských
vyty
pseudo
##nim
kapal
uplatňují
Kristus
fasád
cek
odtamtud
mechanismu
ostrovy
visel
možným
nevěřil
Bli
účelům
nachy
Pomoc
smál
používáme
příslušníky
iž
opodstat
##ÁM
palet
potřebě
těžby
prodejci
zkušenostmi
zaměřen
chůzi
zásluhou
noze
##mysleli
moudro
majitelem
lokalitě
##cour
terori
adekvátní
zjištěno
neproz
zadního
interpretaci
Full
narušení
spustila
Flori
opačné
nedává
odří
165
kabely
prokázal
ječmen
ai
plen
##tící
##ělo
nejvýznamnějších
vidíš
##ěst
spál
americkým
uvažování
kolika
Řecku
kuri
kryt
Kenne
Kö
Využití
##pele
##roku
kdekoli
kvalitně
nádvoří
pěstitelé
sezení
výtisk
šampionátu
##vily
zajít
##šice
dneška
Johnson
Lenka
lůžka
##ákem
výsledkům
policista
##inový
spousty
NC
Prokop
svítil
##rovoz
Skvě
pál
##ges
poskak
nuceni
odhodla
nečist
pej
složitá
Ču
##dová
věšák
koncern
údaji
Dení
pokusila
Odborníci
řes
##jad
ušlechti
nask
##řekl
tyčin
Cad
##eté
izolační
důrazem
Jedině
kompoz
úrokové
Sára
tane
posuzovat
žene
záběry
zlý
France
Chro
nepoz
knižní
elektromagne
příslušnou
opotřeb
zasáhla
načež
projde
Ai
mol
##štěny
##mínal
strukturou
jakýkoliv
Milá
úmrt
topo
ms
plochách
##mdesát
nepodí
silného
spokojenost
tar
koči
1900
nezaměstnan
##jer
protestan
zlepšování
zajišťovat
umějí
Černé
##hru
##bohem
společným
Přítom
Minulý
##šního
utu
skóre
poboček
individuálních
##rovnal
Přístup
mapě
kvalifikov
datu
fascin
implementace
středem
mami
usadil
nebezpečných
nezaměstnanost
linka
##řku
vzájemných
sluší
námitky
samá
neposlou
následovala
##řadech
##érii
čerstvého
pěstí
NK
##elín
uzavře
Rozhodl
ustavi
Enter
Ný
kostní
frekvencí
##klade
úh
rozeh
Celkové
##ovačem
těst
kostky
fyziky
prvotní
chat
líčení
chromo
OEC
##sej
##telefon
políbil
zmizely
Čekal
domněn
tekutiny
husté
##horší
Alexandr
##žků
výchovu
jakýchkoli
účinný
následků
zaujala
konstantní
Fondu
svědkem
##ívní
páteř
šoku
##ráci
výstra
mrazu
omylem
Sli
Šeb
rozchod
trojnásob
Diag
stížnost
ylo
##paná
elektronicky
nevíte
dostáváme
Ukazuje
chtěly
ochutná
##árního
Time
Bit
komunity
pozůstat
krevního
Matěj
vrátím
nechod
jednoznačné
parf
Has
výjimku
ustál
##oper
servery
##řě
##iritu
Kau
arbit
rozšíří
Světlo
Dur
alba
strážní
Nal
šep
jdeme
##ávání
##žů
##ecky
strašné
##déle
samostatných
ohodno
Fire
##noti
##vobod
plyná
závislý
vytvořen
##LY
zkrou
nepovo
náskok
pochvá
legrace
ego
Charlot
křičel
Zep
Konkrétně
trim
vystavovatelů
Walter
Úko
##ďe
květiná
stíha
viditelné
zblízka
##telských
Jake
Rome
vlastníkem
ústavů
##šková
##čl
strnu
1936
laboratoři
příjezdu
atmosfér
Fakt
ujistil
udělení
fax
Zé
##hie
aud
úspěchů
ideál
vyrů
NF
Žo
konvenční
vystoupit
550
výrobním
gymna
švech
partici
řezu
využili
pozorovala
Norman
##přá
hlupá
dodatečné
tvaro
MMF
nadšeně
rizikových
zařídit
viceprezident
ela
kuřá
nádech
##ologickou
SZP
Carl
Philip
##dovat
překročení
Oskar
vyšli
klavír
genetické
živel
##atých
školním
pravidly
##škové
##jský
Německý
poklesl
samice
moskev
##stávající
nekončí
globali
##ják
poe
zacházet
Název
pohybů
vnitro
Scé
##bím
##bii
výchově
vzpomenout
pili
novináře
rev
rychlým
znevý
sousedů
Rade
hromád
skleněné
ukrajin
##ciť
kluka
##anedba
reformu
éry
koupili
západoevrop
oblíbený
identifikace
Novinkou
oza
Problem
Růst
zkom
##havý
slávy
orientovat
přidanou
definuje
1930
##KOVÁ
ró
##kod
studu
archivu
##kační
obrazovku
zamr
pestici
1962
Lékaři
náplň
Dejte
##wic
270
relevantní
zě
##ovských
##tivity
sklonku
Chybí
historik
nápadně
rav
omezený
narůstá
Německem
Monte
nacházíme
##choď
vzorem
FR
nako
##jue
##látku
##čcích
Máma
pánvi
ČK
##blém
##rábě
##mysli
rozdílů
##ctive
##fone
##nální
##terapeu
Holly
úkony
##číku
deale
ženskou
dělníků
ojet
##IKA
žijících
čáry
jog
##mla
jakému
Myslela
viru
penzijní
gigan
yla
##běhlo
YouTube
Klep
uče
ztrácejí
vroz
##ula
podu
zajistil
##šín
podko
vteřiny
kopu
školky
Panaso
Švédsko
##dž
##ons
provedla
##onová
##naky
pochopí
královna
uvolní
##nol
##zátoři
OECD
##tiko
obl
slabost
stanoveny
##enstvo
opeč
stovku
Milana
Paka
Tělo
inovativní
Avi
lehkých
splní
přehrávání
domorod
##čovací
melan
stylem
##éria
vzděláním
vložit
křivky
učebnice
Sebe
realitou
zkvalit
podstav
možn
krajích
směřující
zúčastnili
shodli
sluchátko
KAPIT
nastoupí
oddíl
##veze
650
vymyslel
standardním
avant
křídel
vkladů
##ciální
zatou
realizuje
leccos
sezony
Bytč
transformaci
filozofii
doleva
Arab
příkazy
nepozná
teleskop
klávesnici
Deb
šťávu
flash
##zum
ultraz
##hům
instan
zatla
Léčba
pet
bag
neprom
mnohá
Kanadě
uj
##idak
stranami
zveřejnění
posadila
##dam
Dane
granu
branky
otvoru
##tz
výdrž
útvar
odstraňování
bláz
pochlubit
Břez
začát
Federální
##těli
rozmaz
Zásadní
pomí
riskovat
##kánu
provedené
reprodukce
obráběcích
akcích
Maxi
výměnou
poradců
Centra
tragédie
hn
lihov
platil
věži
##ovnou
publikaci
Bluetooth
##šťál
žas
smlouvou
neznamen
##dáš
##99
klesly
tolerance
##átem
vědomi
1957
totální
##ňe
chytit
Histor
zbarvení
##ington
Prová
narozeniny
##covi
##pun
##zoně
kilogram
##nar
vytvořily
zodpovědný
pachatel
##kládalo
porno
rutin
vrou
Analy
GL
účinnou
svátek
nejlevnější
##sním
masku
devi
Této
Gri
##chej
TG
##tomy
značce
pražská
přehledu
Historie
proudí
televizním
Dosavadní
navenek
Vojá
lže
aristokra
vyhří
Santa
zev
váž
Kost
Franz
##lese
##rovanou
loket
karcin
Quin
transparent
diet
satelit
##EF
Info
##dk
Alši
kabinet
privátní
##žmo
došli
##ťan
přeu
chle
spád
##centa
tanec
##qua
zabezpečit
Ostravy
nevol
Regist
francouzská
Kolum
upozornění
stříbrné
hmyz
překladatel
válec
Podmín
severových
splatnosti
##gkon
##motnost
šťastně
koncepcí
vanil
judi
soustru
samosprávy
Cé
ručení
##onův
Hybrid
dřevin
elim
prk
##běhli
klasifikace
dohledem
Dopo
peče
umožnilo
preferen
sve
užít
480
čerstvý
Jav
Izraeli
##jun
nadříz
Box
územního
vjem
selat
##štěni
přijet
křičí
lini
funkcion
hrůzu
spoléhat
##jedou
slovech
švest
nevadilo
##ekl
zákonné
násilím
Aktuální
nápor
nábře
pistole
jednoty
připomínal
ruší
stereo
otevřen
Citroën
drs
Stou
rovně
nálada
Inc
##tn
##tných
netýká
##Pa
trý
uměním
navrhla
cenami
náhodně
##alisté
třídění
říkáš
legendární
špen
##stie
##žící
##berou
studiích
manager
Šet
##choval
##zujících
##tníků
výrazy
##menší
zaplacení
naznačují
odpovědný
Nemohu
cla
emit
živě
škrob
turnaj
smysly
##nulého
psychologické
tráva
předsedu
položku
kořenů
systematicky
Nil
##chli
los
##řeních
nico
##bývající
bankou
křeslo
turbo
zemřít
Libe
uplatní
ohrozit
prosla
zapu
nemáš
zklid
pedagogi
##nčí
přivést
honem
počátek
Mis
zaměřených
vyžadovat
nejenže
Pev
naučila
Banky
##robí
užitkových
spolehlivosti
##mář
řádek
rytmi
Hill
pera
realitě
aerodynami
laboratorní
prožil
Jiná
Um
lor
##fli
nálep
třetích
##úú
Janem
##dovi
jednoduchých
##zko
jmenování
poslouchá
##dete
těsta
obecná
nitro
zajímavější
##kánské
pokrývá
únik
centrech
rozes
Největším
větrem
ema
houf
kopy
skupinami
##rea
noži
anal
nár
nájmu
1800
##čké
Potě
přímém
chytrý
kWh
skladatel
náklon
písničky
##berger
ideo
povídat
1958
hustě
starosty
prostranství
##šních
ponor
nostal
chlupat
zotav
##snění
budek
##ders
vino
spolujezd
knihovna
šesté
úplný
Podívej
odstavce
uchý
##věr
dělostřele
Musil
neustálé
end
##Don
mokré
nevyře
Slovenská
definici
dýchat
děvč
Znoj
bílými
inciden
překry
vlakem
investora
Sher
##itních
výjimečné
rozhodnou
úsměvu
lymfo
##fl
##děně
špičku
ling
##vele
Andrej
ás
příloze
rozsudek
Koneckonců
prodejců
bytové
emu
##oč
vypa
přízra
PhDr
##mentech
##zdil
masem
uskutečnil
Uz
zml
nemocen
nevhodné
unavený
objektivně
ET
podo
klíčovou
přerušil
##ÍM
dolu
lišit
nočním
poštu
energ
českému
nebav
##atice
objednávky
##miňte
jakost
vědou
Paky
lhůta
Jones
angličtiny
trojice
Emil
zaob
spár
##syn
platů
Žlu
rozta
Fejích
##100
##podla
Vážně
nafou
##bytkem
využívající
CNC
ťe
průto
podnikových
jeviště
nt
##řejí
vytře
##hán
prvku
hodnotami
1919
Pes
##Ma
##alizovat
samotným
skladů
Budeč
obaly
energetického
##ceh
vydí
užas
merce
částkou
Mladí
##ináší
kompetencí
FOT
Rozvoj
Laur
260
volat
zkouška
##trem
ocha
exteri
jednotný
dráha
Linu
Rož
kurzů
rostoucím
RO
##gol
proj
režimů
##enská
proměnil
haz
##rovod
akredit
touhou
##soti
samoz
nabízených
pošle
zlí
mlčí
použito
úložiště
vozíků
##kladní
cesti
Pako
##rl
praktického
Novela
přísné
známa
trombo
TS
##čkům
mapa
##sult
strčil
pěstuje
##kátory
znečišť
Ská
lord
hlíny
##kářů
stání
obraze
papíře
Zadní
MIN
Cet
##tnější
Konstru
Amb
hora
denním
údě
##venou
vlastnímu
rp
##hyl
kult
svobodně
##louvá
zpětnou
alkoholi
Saint
##netu
barvami
kolekce
##200
##nité
usmívá
Eston
zástupcem
úspěšného
sebevraždu
Napole
tuk
válečných
oddílu
ruši
včerejším
vykládá
##měním
kafe
beta
vich
naučili
povstání
vlaky
písmena
přítomné
##áno
bála
učili
##inul
omezena
dodavatelé
##sak
jednotli
službou
##tenze
Moravskoslez
Major
čekalo
specifický
shodné
tyč
Mnichově
Bernard
čtve
zprávou
Budče
překročit
##cat
nazí
hradí
napojení
výškou
variabilní
##liti
Díval
prázdniny
mechanicky
eurozóny
##pách
##mínu
výborný
lokalitách
snáze
##zvo
točit
zási
Kája
nápadů
##orient
Množství
##kovité
časových
Paku
utvo
##ovného
lidským
zaměřený
útvaru
Job
přesnou
koncertu
Muzeum
fasády
rozeznat
##bný
##děk
Právo
Kia
Slova
vyšly
##STA
usp
blan
kilometr
PN
týdenní
Stati
ohý
spolehnout
netušil
základů
kontroluje
Sie
zdiva
komerčních
hmat
##šími
Východ
DĚ
eb
##bože
věcem
Ústřední
atp
Tvrdí
úte
##fú
##MT
puber
Agri
městský
stiskl
vězni
věrnost
lokalit
uhla
nekr
##deční
hadi
##ds
##work
konflikty
vyhlaš
příměří
jižním
Rozdí
stravování
uvězně
usaz
##aně
natu
spotřebitelé
##lovali
ješt
##nejte
##táhne
dalek
fosf
slavného
oprávněné
White
dojí
Young
Pilo
##KL
Prote
letý
period
pohádky
sdělila
##aktivní
uměleckého
zvyšující
smyslupl
isme
##nonu
pakt
Sei
Obdobně
##hry
##arem
zapomenu
##itostí
resor
domnívám
nálezy
dočkat
jevu
Předsed
rozvojových
##ÁNÍ
chovatele
levice
tisíců
Vilém
nemilosrd
švi
##vodit
korpor
bojuje
##uru
Mahle
volná
VĚ
rallye
delším
Mes
knihách
##linky
pásmo
databázi
##ther
výko
Láz
Oby
Ještěd
přehrávače
propůj
Kalou
##ROP
bzu
##život
1943
##zvu
##tifi
##piš
pramenů
niko
Inte
osobami
airba
Uživatel
čtvrtiny
##coh
měsícem
vykonává
mívají
dotýká
Hes
vypěst
##elle
výsti
ČSR
GA
zamy
##ania
tuzemsku
připomínky
kouře
připravená
materiální
Vikt
bizar
náruče
Rozšíření
umřel
vkus
##znout
rychlostní
yu
karo
##ktura
plodu
půjdou
katolické
Ukraji
##hajících
1937
skvělou
pohybovala
Malí
usnadňuje
sukni
dopadl
Mem
nezbytně
JEP
sprch
Kamil
ramene
rozsáhlou
LAN
Sala
Americká
objemy
opustí
hněv
zdravého
užitečná
Kva
##tevní
spojů
tramvaj
linek
analyzovat
karcinomu
lů
##tků
nastoupit
měnové
Poskyt
bezohled
dáli
koncerty
##kovací
nevědo
Kubec
ženi
##hovi
##ála
##míst
rovnoměrně
výtvarní
Cro
NG
operačních
bohatých
příznaků
vězňů
##věla
společn
Libor
##ňy
nadech
rozlo
zajisté
Noc
##HOD
Tera
známek
##stl
sesu
odříz
nejkra
##mentě
Moz
produkuje
ledové
formáty
Clo
##tává
##natého
podel
##cyklop
ocel
psala
žo
výta
##RAM
pacientovi
nebývá
##náním
přilož
leze
uvědomí
něh
přítomných
##vaku
velení
##ánku
MÍ
##celu
věží
##leyho
chlapců
městečka
připustil
##počt
prasata
dest
aplikační
obda
##časné
##hraničí
koberec
odlu
obrátí
chemiká
Iráku
Rem
##chající
racionali
úloha
nedělní
mráz
##TR
přípravou
rajčat
##etz
Posu
##blíže
KČ
zčer
nároku
zatěž
pin
##ecké
Nejvíc
Velikost
mistrů
shodě
shodují
has
##yho
korid
vnitřně
bydlo
##řském
##chta
chovatelé
RN
stříbro
pruhy
křídlo
zaměstnává
##šav
rozměrech
Česk
pokusech
železobeton
úhradu
##dikt
nevylu
Senátu
##rávání
PM
##brání
Law
ovladače
##fekt
důkazů
deforma
soustavu
překvapeně
klíně
řádků
úspěšných
sol
##ings
ředitelé
Ted
##racím
klinických
##čelí
úseky
poměř
##čníku
nálezu
ložisek
jela
vlasech
počítačových
Francis
Fischer
různorod
##dola
instituci
maximálním
mechanismů
dříví
požádá
otevřeno
It
NS
tvým
##aní
ukončil
dokázaly
stanovuje
problematické
mluvíme
kladen
zatep
zájezd
Čtená
sekundá
##ňový
nepřines
hotely
Integ
sovětských
Západní
##patí
upravené
posílá
normu
automobilka
žadatel
odpolední
##roda
bulo
naplní
Bosny
nemyslím
prameny
plýt
spojený
PRV
usmíval
policaj
rozprac
Můžeš
ptačí
pece
interval
koleje
zvířaty
deviz
optimalizace
kilometry
lum
labu
složil
DOM
##bíral
typická
Edward
evangeli
monu
splňovat
čelí
etapy
obvodů
hví
zábava
nejsi
stolek
uličky
kombinované
molekul
##térů
Komen
stálý
##náři
nevšiml
opakované
narodila
Vacu
Maso
aci
poříz
alternativu
Nemusí
Nevěděl
kavárny
Eduard
Čeští
##nina
vyplynulo
společenskou
heslem
Tig
dary
##Di
101
pedagogické
máslem
##plex
sloupy
odolné
maďarské
##neslo
vily
pouť
##agog
nahrazuje
naft
médium
sezon
klientovi
Technické
kreativ
pz
dočká
vzory
přinesly
rukavice
Fas
Kres
Opera
Evropou
dluhů
##bnou
prachy
##bičky
rozep
sada
##ntu
bezstarost
ucítil
proboha
opla
nabízel
požit
dalš
Slečna
##rovaly
licho
jednotkou
##ovačů
##num
představou
barvi
protektor
přejmen
tudy
nutností
jednotlivci
trénin
Mluvil
Německá
ČSA
nasvěd
primátor
podívá
komunistů
řády
Shel
##obslu
Vas
##pové
nejbohat
Wat
##rudi
jat
dosáhlo
##klonu
##jíždění
##ART
skvělá
porota
Wood
Ochrana
kořist
##klého
těžkým
bill
##hlašuje
mořem
traum
plodů
prosazuje
tle
POP
rota
potřetí
plynoucí
převzala
Toron
Gan
shled
konečný
##trů
##dry
##blá
neju
nedoporu
semináři
##čské
Lee
dodržení
##28
uvedlo
uplatňovat
filmových
posílat
onkolog
očekávané
hrst
veškerých
splňují
zasáhl
Slou
##oucím
##rurg
druhot
Šli
jmenovala
vítězů
jubi
záruka
otáčkách
hrubě
Pěk
hromadné
Zuzana
vystři
kamenem
dotknout
##ations
hmotu
benzinu
##ŮM
Pokou
herce
hrůzy
##tismu
předávání
Ferrari
eJ
Kó
tvrdá
příbuzné
dividen
Termín
dramatické
zrů
copak
##pací
kterás
vyru
##centi
##spívá
hloubce
postoji
pytle
dorazili
reálných
utekl
Udělal
horské
přístroji
Manu
well
restri
Průvod
Sedmi
komfortu
##gní
Strán
vyznání
kůry
zákonodár
Dak
neliší
barokní
dolar
konečnou
Ric
podmít
Index
hotovosti
nabízíme
##jímání
toxi
košil
##dig
obecného
Otto
farmáři
ozbrojených
ít
##měrem
trase
úřadem
zpěvu
zneužívání
zau
teplou
dvacátého
Christop
trhem
vstá
vzato
fosil
mnich
naráz
předcházející
ležely
Alli
zaznamenali
##ících
světo
Společenství
zvolte
úctu
váha
##myslem
##berte
přírodního
dokážeme
##kovský
národnost
bytových
konferen
Japonci
historií
předcházet
holí
oceni
vojenská
kino
ekonomie
##škodí
dutiny
##vzdor
##niků
kapitol
nájemného
##film
Greg
##talit
##DU
Vyst
##hlík
považovány
skončily
ptala
nastou
přít
Neob
Veleba
náročných
Americké
poklesla
Kut
##CA
čtyřicát
177
vyvolala
ochranných
px
voň
poloost
pláž
Museli
legraci
rati
vývod
výtahu
zemské
louky
pocí
##ind
##drem
zvýšený
mužské
apošto
Miloše
##rev
vymi
předa
1928
nitra
inscenace
sebral
Vyz
Vnější
##fial
Vybav
##ira
##deje
svěřil
nejistoty
##zol
autono
lžička
šířky
##baly
tajemníka
slev
pošta
##tičky
předs
mandá
Bay
Beck
##zemi
Chalup
humanitární
DU
pramení
nemalé
Konference
Říkám
aktéra
nbe
všecky
slz
1914
ŽE
přidrž
pivní
vho
##OVĚ
propust
nehodí
Gy
přepy
nabíje
Jazy
##ňme
##stry
parta
bezpečný
formátů
orchestr
Gö
##mod
staroby
náhrada
##nto
pomalejší
##stonu
novelu
##got
láká
původem
synovi
opustili
Ukrajině
jedi
##síc
nepoved
hleděla
přijata
nezapomenu
zadávání
přitisk
##ilech
vyříz
kondici
Místní
útoků
mokr
spj
106
stálého
Lt
##dea
jednoduchým
vynech
bylas
širším
kapu
##pěv
organických
provozem
pokojů
rozhlasové
##hart
##lome
Bayer
antivi
3500
kombinovat
specifika
kruzích
sát
dík
otest
přítomností
Plzně
nan
testo
pouští
elektronický
vyc
##ativ
bes
ztr
pláč
opravit
Značka
kráčel
vzducho
Krit
architekta
Monitor
dbá
##lékař
jemný
třebas
sena
ponu
##álnost
připojil
Pochopitelně
nemusím
genu
##tička
jakkoliv
uděláme
prostí
##tělo
měchý
vybavený
pesimi
ger
Pohon
příznivě
kvalitním
obecných
betonové
řo
##vavě
ara
pocházející
##žitá
zvládá
ponětí
ztí
##etnam
rostl
zásilek
sved
píse
Hře
čtvrtém
ukázky
##sedl
grafu
uložené
hřbitov
prose
##munic
variantě
vzestupu
stravy
##mato
##lovek
Hof
podstatou
šťastné
Zlatý
##ave
průměrného
nesmíme
Comp
lokálních
chytře
vytáhnout
Pň
##oly
republikou
otr
srovnat
##nav
Billy
holi
počítají
Komb
rozsáhlý
kmenů
útvary
jeď
##26
vyznamen
##tivá
pape
##tižá
Ruské
vypal
NAS
hrubého
##ýnské
odložil
přde
plavid
klientem
chleb
event
##žíval
dynamické
uspořádat
vyrazí
osci
propagace
čalou
##ženost
zaprá
projevilo
jistým
palce
odboj
rostlino
širokém
založeno
gla
##žalo
léty
##stace
kvalifi
postavou
překážek
##ovlá
##itými
svobodný
Jméno
##wat
##ňce
poniž
##mavě
Vik
funkčnost
rovnocen
partie
urb
hračky
věřící
Premiér
rtů
obědě
hudebního
Počítá
kormi
pokojí
procentu
kolikrát
Keň
hyp
plynem
##pkou
dome
skočil
módy
krej
knihkupectví
ASZ
Ultra
nj
sej
výbornou
Tatra
##iné
mohutné
exkur
Noho
Tesco
zanechal
Dubec
efektivnější
žací
##ivu
##ročním
##dveř
##chovi
##rona
navrch
ofen
AMD
konče
modli
Gabri
dočasné
Asus
Trav
dovolil
průmyslového
elektrickým
alternativních
hrdiny
##hovou
uzavřela
zavad
odlišných
falešné
##iných
turbodi
popadl
##peš
nádherný
zobrazuje
##pos
vztahem
##mnělo
Nechal
industri
metropole
robust
BUD
Nig
nezpůsob
chý
145
nepřijde
filmový
aké
sebere
##turu
##sna
##zovaným
1933
dostávat
polních
Cvi
neve
Zen
##pné
##nizace
Cože
##bid
ČST
zásuvky
##stor
##děného
stavbou
bradu
diploma
čtenářům
podzemních
##cházíme
linií
##iva
##žlout
lahů
smutku
tkví
##ark
nezbylo
kámo
##nď
##rodních
výuce
cizince
interaktivní
ples
náplní
Rai
příjmení
abece
Krum
##metrové
považováno
dovr
primitivní
přepravě
kašt
##bíhá
aktivních
zasko
##box
možném
lžičky
##haný
skel
##meru
zanedbá
cyklo
ptám
olejů
screen
##obili
studiem
uzavřených
zachytil
nejrozší
Shar
sklady
budiž
Samu
stoupla
Pozoru
kontam
pokračují
hloubi
vsaku
některém
##féra
neznámého
rentgen
##stikou
mok
Lidové
náhlé
trouby
pracujících
povstal
tradičního
Kvalitní
Svěd
tajemstvím
neroze
Trenér
##skýma
omezeným
CF
ateliéru
uvědomoval
##čuji
##rosti
založili
dálkové
správném
statků
Nechte
##mohlo
britská
evo
##desá
rozhled
Naším
Rozsah
dotazní
vnímají
modulů
bezpod
substan
charakterizuje
kriminální
LA
školá
vsaků
Poslanecké
výtah
##čkali
Noční
zkoušce
dlani
Hypo
##stupňovou
referenční
ANO
mísy
stříd
racho
naklonil
ČLS
obálku
pozoruje
Bag
pus
##litu
děs
koutě
stupněm
třem
zásobníku
přírodu
žalost
ostu
##flo
takovej
vrstevní
posunu
fázích
provedli
CRM
zakázáno
hvězdi
napravit
nevr
bylos
nyla
jihovýchodní
ekonomickým
otázkami
procentech
Holding
EB
##stavby
manželů
železnice
1955
designem
##šovi
léku
Libu
studio
regiony
nemusíme
##mluva
přeho
připis
Panasonic
Hně
##ŽE
přístupů
Vrcho
ČER
točivý
podk
toužil
Luci
štěrb
##CT
##ěr
##rij
Prakticky
turbodmych
##dechu
účastnit
Setkání
pomaleji
##vkách
Podobný
nájemce
tušit
internetového
komfortní
kolečka
dokonalosti
##ander
protější
nezku
ploché
dosahovat
Smo
ukládat
soudit
dáte
##ROM
formulace
královské
Ox
významného
##RC
důrazně
vykres
mích
rámce
teze
závěsu
senátu
##švi
vině
podléhá
##voé
předního
váze
cenzu
sedadle
zasmála
filosofie
vynalé
kypři
děvčata
vyti
Kostel
Michala
zvukové
balíku
laskavě
##bytky
zkuste
Tisk
Strana
šlechtění
zkrácení
dramaticky
bula
##inus
sledovaných
1959
vyzbroj
trestných
složitých
##mého
##ánského
158
##katé
formace
konfliktů
poký
snadnou
zajímavým
náboženských
španělské
odí
virus
nevyz
Hlava
Vypadal
Vodafone
##bera
roztomi
##ray
neohro
##lecké
spatřit
poplatku
pohřbu
##kap
Karlovar
mimořádnou
ort
##dlou
##gg
rudé
Graf
Sledu
xe
pátý
kardin
##šty
##ró
##ždím
##logové
akumulátor
##raných
vzrůst
stabilita
rozšiřovat
Prostřednictvím
108
studený
##ioni
ruch
firm
ohrožuje
irá
Ježi
stížnosti
zóně
hektaru
vat
nezmí
##UJE
rozdílem
normál
zúčastněných
různou
Matou
poděl
síni
pohledů
odlišit
zlomek
textem
##esearch
Bart
##ény
plastové
vsákl
sterá
##pady
chaos
maličko
TP
soukromá
##dílnou
podpat
spadla
Hub
diplom
Regionální
IK
##graci
odlišná
Návrat
##bájd
následují
##kú
všechně
sumu
nepřiměř
výběrového
úzký
ukazoval
poukazuje
slavnosti
smutný
poradci
Problémem
usoudil
přese
Rodina
Aero
nezra
snadněji
připevně
##žbu
##lovaného
společensky
tabule
vraždu
konsen
##šidel
křiž
svazky
rozlišit
##zeně
záliv
předpoví
procházel
mírové
bazén
cil
aktivitě
Explo
úroky
stoprocentně
Afghá
zamyšlení
přímá
párů
sušen
##lejším
výsk
vodop
automatickou
konto
usmr
správních
komponentů
trum
poř
Morava
tehdejšího
nepředví
choroba
vteřinu
Plí
upravovat
Lady
##diny
spjat
vib
arte
sestavy
nadě
bytostí
##alších
vnitroz
zákazníkem
Federálního
##lejších
vzorce
obzor
naprostá
##žející
kteř
##fordu
baude
omu
výkonného
minerálních
filtru
sýra
##ün
přístře
chladno
Angličan
Eti
Vzor
nezji
##píte
razí
známku
technologiemi
mrtví
Ah
ochro
signálů
Chlapec
zášt
##fet
autosa
##taktní
vstát
Ďá
užší
tahu
správou
Karlových
východním
vob
##slab
Hodnota
eN
zámě
volala
Taj
##bytí
krystali
ich
důvěra
výbuchu
jeo
proniká
ení
nadšen
##evro
postavené
##pusť
pořádný
evaku
nedala
vzkří
ideologie
potřebami
##čtování
Varša
nejpod
##dorf
Parlamentu
Clar
časop
##čy
##enkou
rozpla
otočí
schválil
připadat
vzácně
komentář
##lané
matek
Chris
Kdož
netradiční
exkluzi
soupeř
vsaj
##ion
##ctou
knihou
##ránci
horkou
dostupnosti
##avt
konsoli
recit
píce
zadavatele
tho
vědeckého
strojírenství
cle
nešet
bydla
oporu
modulu
##skalí
překo
přebírá
IPS
##sson
##ráte
platilo
obtíží
prozradil
poznámku
špinavé
vaří
překvapen
spoustou
přednášek
sovětského
hliníku
##stavuje
stavení
zásadních
píšu
dosavadního
pořady
vyvolávají
přenášet
předčasné
Sklo
##anne
zapomněli
Ern
výpravy
dobří
příbuzní
##imber
aminoky
prošli
vyší
ankety
názorem
vyjadřovat
horizontální
vsaky
projednávání
akademi
intervalech
##ČR
síně
několikanásob
soutěžní
oma
vyční
jezero
stoupající
##háněl
housle
Marshal
potravu
Pokaždé
autu
střetu
schématu
roztře
tvářil
vznikem
blízkých
logistiky
soudrž
Turbo
##dál
neze
##atickým
bulvá
Kob
výzvou
multimediální
##cnosti
přibližuje
kříd
setrva
##zrn
Vytvá
slunečního
Zlaté
##těné
##95
##rovaného
paty
pozorovatel
přihlásit
nasadil
spřízně
vzpomněla
zobrazit
##islava
##deček
##čníků
hrdla
šťávou
##ňský
##aki
oblek
stáj
vášeň
vytří
inspiraci
srovnávat
Kant
avi
nestál
##ier
##rst
Anči
pozemních
příjemná
elektronickou
mateřských
##jemi
jižních
výčet
##nesu
##rovské
hodinou
##valil
Takovou
základními
ampli
Nemohla
posp
uzpůsob
Haw
vozíky
turisty
organismy
přepína
##rika
lepších
zničení
##řezu
vyklou
##řic
##sice
dceři
Slaví
zrušil
použili
počínání
mlha
Bó
úbytek
##bůh
užívají
trendů
jídelny
Mít
##stavu
plynov
##LF
výhledem
adresa
odvahy
Otak
##bovat
oddech
autenti
poznámka
vyniká
odem
dílen
mezinárodně
blog
prej
rozvodu
vysvětlila
Rychlost
Roky
černými
realitní
trápení
pozoruhodné
speciálního
Absolu
tlaky
176
pochybovat
Dodnes
102
nechám
prohlídky
odmítal
##onst
Dopl
předvedl
nájemné
trpělivě
##ingo
kruhů
přestali
loupe
Kancelá
pravomocí
nenávisti
Pierre
Jet
skan
LB
vzdáleně
Mnichov
Gali
zdech
nehodě
něžně
čtyřvál
týmem
užitkovosti
##ňovou
##avosti
nejdéle
propast
udržel
Ble
Hop
##illy
Polí
grafika
elektrickou
hlída
Lenin
Era
nejtěžší
třetin
plevel
konferencí
radikálně
zátěži
##čete
léčebné
##řeš
##platit
parlamentních
nervózně
pojezd
Cham
starším
Patrick
zj
jezí
krajské
profilů
Dalšími
##řáté
dřívějších
Dro
inti
versus
chytrých
Hlí
Press
ují
prostřední
nalézá
Hled
##lezli
vystupují
pozitivním
##enů
vyči
zvolal
pěkná
zbývajících
fili
repres
textil
klíčem
zubní
transfer
ohromné
KSČM
##měrnou
##lezla
kapitána
bankovního
tví
##ECH
nezodpově
sucha
elektromobil
papírové
tašku
hlíz
vyhu
důle
aukce
koaliční
kukuřici
Zada
Holan
Vietnam
pracích
půdách
přílohy
zvrá
objetí
Táň
pultu
Sestra
##skytují
Roger
jablo
##ativního
zvolí
arom
nočních
blížící
ukrad
Zahraniční
strašli
čerpá
počítal
Druž
zrcadle
##ix
##ctu
##EP
prstu
sankcí
debaty
Skon
ŠK
##lita
chráněné
zastával
licencí
přečte
##mentálně
žádají
elektronického
publikací
##tle
##steri
přístupné
vyhovět
XII
lodní
1924
##wski
Frankfurtu
Ží
sebed
pig
páni
pokusili
květu
vykládat
zmizet
školi
přejí
spala
Nikde
dokt
jídlem
farmářů
mezin
italský
prádel
schválen
RP
##bury
nedale
parkovací
dvacátých
aN
kut
mzda
slovník
netradi
policejního
nezbytnou
přívod
Jiní
otázkám
běžet
##kantní
roztrou
protěj
dějích
##hlášení
MT
##ÁŘ
naklád
##nosy
chystají
Dala
vchodem
obohat
Virgin
Burg
zabar
italského
##terým
neumož
intervence
mlhy
Servis
grafiky
jeďte
Anny
privá
tvorbou
Stejný
Zdroj
Coca
aktivním
vzájemného
pronájem
předložil
mnohonásob
sbírka
medvěd
rozpouště
##kovské
aktualizace
překážkou
vložíme
pách
nedokázali
Sportovní
Vodi
vří
stoly
sousedních
##létl
outsourc
##ďo
Kotera
cestovat
kapitolu
Účastníci
Hudba
mluvilo
záběrem
ještěr
vypnout
nebudeš
odhalí
##fael
uvádět
bratrem
pozitivních
zvaný
nenahra
##kajíc
Husa
poctivě
Koz
výstupů
uších
strej
##čerpá
spojují
Míl
Kdepak
pozved
šťou
ie
##anové
neprov
šířit
dětská
maminky
Vydavatel
poskytovatele
##zií
Autodesk
Nm
opouští
starožit
znaku
Výrobci
dik
logistických
přivezl
flexibilní
Arthur
##sho
přežil
##tia
manifest
životopis
ló
##dávají
##ORT
dýchacích
souvisejí
dávkou
shromá
1925
Sparty
sblí
rož
přijatelné
##táme
##anic
brazil
##vák
hodila
intenzita
vsakl
Národním
Šed
##ilosti
##skuteč
Podmínky
strukturální
špit
##řov
##ismem
modrých
pěší
nepřehled
urg
##málně
##ŠTĚ
vektor
úzkých
Budd
Investiční
##ánky
obvody
Zdravotní
nezúčast
Konstrukce
kolektiv
zkří
Bala
psychoan
Jarosla
nezapla
Průzkum
alar
Nať
chybou
technickým
domluvit
epidemi
##ladit
truch
Regu
Příčinou
masové
odděl
bezrad
Ahoj
jistota
Lucembur
peklo
Pres
Ježích
nejdražší
aler
nepomůže
intervenční
Steve
výbuch
##řan
##enali
tichu
probíhal
hero
ael
nastupuje
##hází
masak
1934
tíži
cely
zpracováním
nejdůležitějším
projednání
mz
##vna
kamaráda
prospěchu
##mým
##měť
##idlem
Přibližně
zabrání
pevným
##ovači
dokončil
##furt
vykřikla
Američanů
##skalo
monitorování
ozdrav
vlastnit
celi
jevišti
##hlaví
křídly
menšího
Control
nejvýraz
úspora
uložil
##brán
soupravy
##vizí
sklem
cílovou
službami
platností
Julie
plukovník
živi
##tickému
drobná
zisků
dávkování
manažerka
souhlasem
kéž
přehodno
inspirace
FIM
semena
holčička
víčka
stabilizaci
Jerich
pánem
centrálního
variantou
studenou
##zerbájd
překážku
##děna
celému
nedokážu
Honza
každopádně
##count
rostly
koktej
velk
##kovic
úžasné
poschodí
existovala
pokut
##škám
##rez
snížily
1400
olympijské
##ňost
rodné
poločas
dostatečná
blude
Pana
pásky
sídle
realizací
Yu
tako
Některá
obratem
jedena
letoun
##fert
necí
nevede
zadek
zmíněná
blízký
dozoru
pohrá
##cept
vydra
světelné
##cíc
Jediná
sestavit
posluchačů
povídky
nekonečně
sousedy
opd
##korej
##ťou
podíváme
Ráda
přistupovat
RW
Malo
křičet
dluhopisy
rozdělena
sekretari
fakultu
Žď
procházejí
spoři
##stavy
vychutná
trénink
nástě
naslouchat
##plet
Mila
domek
bývalým
uskutečnila
vystudoval
výhru
tiskový
Zne
olympijských
mozkové
ocenit
soko
##vějších
balíky
příznivý
evoluce
##ÍN
##itky
##dávané
vzájemná
oženil
Čel
##GE
##zice
faktem
nekolí
monopol
řin
původce
kulturně
Belgii
lůžko
sněmovně
zápasů
břišní
šperky
##stině
uvědomu
biologie
rajčata
mlékáren
Lod
špičce
směřují
kše
##hří
potvrdilo
spekula
Obli
##tón
##enin
pamatovat
žlázy
PT
mex
wo
obklí
Zaměstna
odpis
minimálním
Poměrně
zkušenostech
zasahuje
##dela
unikát
lehká
##aktu
býků
Příbra
Daleko
úhrad
kusu
pomohli
Vztah
##árním
##anismus
člun
DB
neřeší
jezdci
LU
stolní
Deere
Představte
edice
ěv
závrat
##hrnuje
Pák
Tvůr
nepříjemný
negativních
Digital
rozlišovat
##doné
##žijí
procesory
privatizační
Obo
lepi
##haus
##níková
utlu
proveden
##čtěji
Award
LET
vkládá
usilovně
Ústavního
Nissan
##které
patri
VEL
##blu
Alt
připojištění
profesorem
Aristo
múze
Bom
zdání
##tnost
buj
platformu
ohledech
##cci
popoví
fakulta
Slováci
BT
Natu
snadný
jenomže
diváka
Považ
neopak
Pokr
myo
verš
Čl
nára
kumu
dětskou
zavrtěla
Uvedené
standardem
oznámit
Povo
##čkal
Naň
109
drahou
historickou
ohlaš
vyklo
sednout
tekutin
zásilky
Zlep
##žším
profesí
fazo
Express
104
##nělé
řecké
pokrýt
kývl
pouta
zapálil
melancho
tónu
naříz
##asing
Alb
schodi
necelé
náležitě
ukrý
uložena
Uvá
Zrych
obleku
repli
účastník
přinesli
1932
architektura
brýlí
Hlou
##sova
##šej
podobnými
krátkodobé
intervalu
##grafických
poštou
šíři
nedostatečně
navlé
letošních
Kver
šva
##íně
nahlédnout
myšlence
pytel
Partners
##divo
Komá
založeny
Andrew
identitu
##toky
Neří
provozovatele
implement
řped
přátelsky
##oné
časech
##zního
nepotvr
diabetu
chudé
##raným
kráse
##práci
prázdnou
týdnem
##gas
Jiřím
opravdové
kníž
tržních
novoroz
dokořán
ctižá
Řeč
##fektivně
Fyzi
autoriz
##chybně
kádě
vydávají
doplněk
obstará
DK
přež
platných
1954
desetiletích
závěs
zemětřesení
Dlouhá
zazvonil
závěsy
Švýcarsko
nejjednodušší
vydech
zaměřená
řetězci
Past
odlišuje
výpovědí
odhalil
##fty
##Co
##jisto
odhady
varuje
Mezinárodního
ovladač
Festi
##ÍR
##sost
nutri
tvůrců
##eo
##lava
sezoně
##bled
používali
výkřik
lázní
stanoveno
zdravotnického
obávat
nasadit
fau
Internetu
ÚK
rozsahem
pamatuje
prestiž
Úvod
Zkuste
ejich
pevného
Zved
idy
##mětem
přidejte
Morgan
Cim
lékařská
##manci
ocitla
skou
citlivě
##čě
dur
spaní
##hlav
omezením
Lotyš
organizacemi
dkg
chře
obýváku
očím
vm
státo
planetě
matematiky
PETR
didak
zó
protiklad
robot
mit
kabelu
padlo
policií
prudký
biopaliv
utéct
odkazy
##veným
oficiálních
připomínat
grote
zavedením
Aku
buch
##atic
Microsoftu
Netu
##ovách
líčí
netrouf
##ovných
Popu
předpokládal
Divo
oblouku
zpev
slevu
vynalož
Jirka
úspěšnou
Kanady
oslovil
vž
podzemí
156
následnou
Zemědělci
resort
##toho
ročním
Ješích
POZ
vraže
zahájen
náhrad
##cenění
Pokles
Pne
Řád
uvedeným
##linka
prohrál
zmr
vstupních
nebezpečná
anarch
přirozeného
##gové
soustavě
dosáhnou
nezávad
funkcemi
##if
píc
povaha
perspektivní
##edie
učiteli
##tinental
Šá
doplňků
žalobu
klesající
EM
mými
##gru
stupních
reformě
štáb
##hera
##uma
Skand
ciziny
##St
##elé
rozmar
musil
hlídat
Růži
zašeptal
BBC
nejznámější
obdélní
Hm
nastoupila
##těn
ověř
lať
položí
branou
##ginální
úmyslně
plevelů
vtisk
energetická
mimořádný
##čkův
převahu
Ut
výrobcům
Tip
fólií
Rumunsku
##yv
Programu
##pích
sudet
Samostat
Zákazníci
kovy
nastrou
nežádoucích
nado
##nea
Hlavá
opoždě
policisty
honit
přd
##logického
Hora
střídání
dlouhodobých
##balo
těžkého
experimentu
ostrovů
nadnárodní
Bot
pomalé
smluvních
stávajícího
##místění
hni
Nikola
trávu
Nemyslím
bezu
přesnější
králem
prokaz
malby
vlé
odcházel
odporem
slovníku
##etami
##nutými
bezvad
sloves
pojmenování
##lině
Nebe
Zvyš
##šna
nejslav
dlouhodobém
Antonína
##muž
##šedesát
ideálně
pravidelný
absenci
Economi
nekompromi
memo
deci
hřích
##šy
Strom
Anne
substrá
pedi
krajských
doví
gang
##mová
rozsudku
dele
zdála
lehkou
příslušná
zdivo
pood
##luj
povědo
rozprost
##átních
##začně
akred
nervoz
Investice
slibu
detailu
výcvik
##VO
vrchu
Konstan
montážní
Vypadalo
##ovnu
zavedla
kinemato
překrý
##bík
Reag
D1
##psi
##čových
##orální
mosty
##strada
Budapešti
provází
August
ace
ťa
##dného
prodalo
sedmé
průzkumů
Každou
KAPITOLA
lékařských
podlou
jednotu
[...]
