[PAD]
[CLS]
[SEP]
[UNK]
[MASK]
!
"
#
$
%
&
'
(
)
*
+
,
-
.
/
0
1
2
3
4
5
6
7
8
9
:
;
<
=
>
?
@
A
B
C
D
E
F
G
H
I
J
K
L
M
N
O
P
Q
R
S
T
U
V
W
X
Y
Z
[
\
]
^
_
`
a
b
c
d
e
f
g
h
i
j
k
l
m
n
o
p
q
r
s
t
u
v
w
x
y
z
{
}
~
¡
£
§
¨
©
ª
¬
®
°
±
²
³
µ
·
¹
º
¼
½
¾
¿
À
Á
Â
Ä
Å
Æ
Ç
È
É
Ë
Ì
Í
Î
Ï
Ð
Ñ
Ò
Ó
Ô
Ö
×
Ø
Ú
Ü
Ý
Þ
ß
à
á
â
ã
ä
å
æ
ç
è
é
ê
ë
ì
í
î
ï
ð
ñ
ò
ó
ô
õ
ö
÷
ø
ù
ú
û
ü
ý
þ
ÿ
Ā
ā
Ă
ă
Ą
ą
Ć
ć
Č
č
Ď
ď
Đ
đ
Ē
ē
ĕ
ė
Ę
ę
Ě
ě
ğ
ģ
ħ
ĩ
ī
ĭ
į
İ
ı
ķ
ĸ
Ĺ
ĺ
ļ
Ľ
ľ
Ł
ł
Ń
ń
ņ
Ň
ň
ŋ
ō
ŏ
Ő
ő
œ
Ŕ
ŕ
Ř
ř
Ś
ś
Ş
ş
Š
š
Ţ
ţ
Ť
ť
ũ
ū
ŭ
Ů
ů
Ű
ű
ų
Ź
ź
Ż
ż
Ž
ž
ƚ
ơ
ư
ǀ
ǎ
ǐ
ǒ
ǔ
ǫ
ǿ
ȃ
Ș
ș
Ț
ț
ə
ɛ
ɡ
ɪ
ʏ
ʹ
ʻ
ʼ
ʽ
˂
˃
ˇ
ˈ
ˊ
ˌ
˚
˝
̀
́
̈
̊
̌
̓
̧
̶
Ά
Ή
Ί
Ό
Ώ
Α
Γ
Δ
Ε
Η
Ι
Κ
Λ
Μ
Ν
Ο
Π
Ρ
Σ
Τ
Φ
ά
έ
ή
ί
α
β
γ
δ
ε
ζ
η
θ
ι
κ
λ
μ
ν
ξ
ο
π
ρ
ς
σ
τ
υ
φ
χ
ψ
ω
А
Б
В
Г
Д
Е
Ж
З
И
Й
К
Л
М
Н
О
П
Р
С
Т
У
Ф
Х
Ц
Ч
Ш
Э
Ю
Я
а
б
в
г
д
е
ж
з
и
й
к
л
м
н
о
п
р
с
т
у
ф
х
ц
ч
ш
щ
ъ
ы
ь
э
ю
я
ё
є
і
ї
ҫ
ӧ
մ
ְ
ִ
ֵ
ֶ
ַ
ָ
ֹ
ּ
־
ׁ
ׂ
ׅ
א
ב
ד
ה
ו
ז
ח
ט
י
ך
כ
ל
ם
מ
ן
נ
ס
ע
צ
ק
ר
ש
ת
״
ا
ب
ت
ح
ر
س
ش
ص
ض
ع
ك
ل
م
ن
ه
و
ى
ي
َ
ْ
ก
ง
บ
ว
า
แ
้
Ꭷ
Ꮦ
Ꮶ
᠆
ḱ
ḿ
ṇ
ṣ
ṭ
ạ
ả
ẩ
ẽ
ế
ề
ễ
ệ
ị
ồ
ổ
ộ
ờ
ở
ợ
ụ
ứ
ừ
ἀ
ἐ
ἡ
ἰ
ἴ
ὐ
ὰ
ὸ
ῶ
‐
‑
‒
―
‛
‟
†
•
‰
‱
′
″
›
‼
⁄
⁰
⁶
⁺
₂
€
⃣
№
™
⅓
⅔
→
∅
∇
−
∗
∙
∞
≈
⋌
⌀
⎔
⏩
⏪
─
■
▪
▲
▸
►
◄
◆
◎
●
◼
☀
★
☘
☛
☝
☯
☹
☺
♀
♂
♠
♡
♥
♦
⚕
⚗
⚠
⚪
⚰
⚽
⛓
✂
✅
✈
✉
✊
✋
✌
✔
✖
✗
✝
✨
✱
❄
❆
❓
❖
❗
❤
➕
➖
➡
➤
⠀
⤵
⬆
⬇
⭐
【
】
ア
イ
シ
ス
タ
チ
ツ
ド
ネ
ハ
モ
ン
ー
事
共
十
南
叶
呂
和
喫
国
圣
在
大
字
屁
崴
師
店
建
文
明
架
樂
河
油
洪
烧
熊
现
禪
简
総
经
茶
许
貓
酪
重
阪
靖
革
領
館
鸣
감
개
계
고
기
까
께
꽃
놓
니
다
동
드
들
디
랐
로
름
림
마
막
물
부
분
불
생
세
수
습
시
식
아
어
었
올
요
운
으
은
음
의
이
인
전
중
즐
지
창
터
평
포
픽
함
회
ﬁ
ﬂ
️
，
￼
🃏
🇦
🇨
🇩
🇪
🇬
🇮
🇰
🇱
🇳
🇵
🇷
🇸
🇹
🇺
🇿
🌈
🌊
🌑
🌞
🌡
🌪
🌹
🍀
🍎
🍒
🍝
🍳
🍺
🍻
🍾
🎆
🎈
🎉
🎊
🎤
🎥
🎩
🎬
🎭
🎯
🎶
🏅
🏆
🏖
🏳
🏻
🏼
🏽
🏾
🏿
🐎
🐠
🐿
👇
👈
👉
👊
👌
👍
👏
👑
👗
👦
👧
👨
👩
👭
👯
👸
💁
💃
💋
💎
💏
💖
💙
💚
💛
💜
💡
💣
💥
💪
💫
💭
💯
📌
📝
📷
📸
📺
📽
🔒
🔛
🔞
🔥
🔧
🔴
🔹
🕯
🕺
🖖
🖤
😀
😁
😂
😃
😄
😅
😈
😉
😊
😍
😎
😐
😒
😔
😘
😜
😢
😤
😥
😨
😫
😭
😮
😯
😱
😲
😳
🙂
🙃
🙄
🙅
🙈
🙉
🙊
🙋
🙌
🙏
🚒
🚿
🛥
🛫
🤑
🤔
🤗
🤘
🤙
🤞
🤟
🤣
🤦
🤪
🤬
🤷
🤺
🥂
🥇
🥈
🥉
🥊
🥤
🦃
🦄
🦋
🦌
##é
##d
##l
##o
##v
##u
##s
##a
##e
##r
##m
##í
##n
##k
##g
##y
##p
##j
##ú
##c
##i
##ě
##t
##á
##h
##ř
##ý
##ž
##ů
##b
##0
##1
##3
##f
##A
##U
##E
##R
##P
##č
##q
##z
##š
##ň
##x
##w
##S
##C
##ô
##ó
##K
##5
##2
##ę
##G
##J
##D
##6
##Ý
##L
##N
##T
##ď
##ü
##ť
##у
##с
##к
##и
##х
##F
##O
##X
##I
##Š
##Ě
##É
##M
##V
##H
##8
##B
##Í
##ľ
##Á
##Č
##7
##9
##Y
##ł
##ń
##4
##ä
##ö
##ъ
##ĺ
##́
##Z
##à
##о
##д
##ы
##ć
##ï
##Q
##è
##ŕ
##е
##т
##р
##з
##н
##Ú
##®
##ø
##ë
##Ř
##Ů
##ė
##️
##а
##п
##Ť
##W
##К
##ل
##ه
##ă
##ś
##ã
##õ
##ñ
##ț
##ő
##μ
##έ
##ρ
##α
##â
##̌
##ß
##ş
##ī
##ι
##ˇ
##œ
##в
##й
##Ž
##л
##ь
##ð
##ç
##æ
##동
##ʻ
##å
##ą
##ц
##Ó
##Ň
##☺
##ţ
##ș
##👇
##ğ
##Ă
##°
##ò
##ю
##😔
##ê
##я
##ż
##😍
##נ
##ך
##̊
##🌈
##Ρ
##Η
##Σ
##ф
##м
##💋
##ا
##♀
##😄
##ч
##⬆
##ź
##Ĺ
##🎬
##🎶
##🎥
##ı
##î
##❗
##Р
##ר
##א
##Ö
##ω
##ά
##ν
##ō
##ā
##🛥
##🥂
##🔒
##❖
##😂
##™
##ш
##Ľ
##ŭ
##щ
##ё
##Э
##Ü
##🇵
##Ί
##Α
##г
##ù
##🙂
##😊
##✖
##і
##ї
##☹
##ư
##П
##ņ
##ķ
##ứ
##ű
##Д
##🕺
##💃
##Ď
##ạ
##ū
##ả
##ļ
##ˊ
##ʼ
##Ä
##ж
##ų
##⚽
##י
##ו
##ì
##ǎ
##б
##♂
##계
##인
##의
##İ
##²
##ÿ
##Å
##ē
##צ
##ת
##û
##ִ
##ב
##ְ
##ǐ
##ש
##ׂ
##ל
##Ô
##Ż
##🤷
##￼
##Г
##Б
##👏
##🥇
##đ
##º
##🔴
##⁶
##👊
##ế
##ي
##🇺
##중
##로
##Ć
##ə
##Ń
##🌹
##ừ
##Μ
##Ή
##ộ
##ģ
##Ł
##☝
##ị
##ŏ
##þ
##🤗
##❤
##ה
##🏖
##🌞
##🌡
##Ñ
##ם
##👍
##💪
##ờ
##ὐ
##τ
##ὸ
##ς
##ד
##ﬁ
##ק
##ן
##師
##屁
##ũ
##̈
##🇱
##È
##ồ
##ĭ
##β
##π
##🎤
##이
##ḱ
##Ό
##Ν
##Ο
##є
##⬇
##ơ
##Ą
##س
##م
##δ
##С
##М
##О
##Ф
##Л
##Т
##ħ
##ׁ
##부
##터
##ĩ
##ή
##̶
##ى
##ر
##ب
##ن
##🐠
##♥
##🎉
##🎊
##ở
##ἰ
##ン
##ス
##タ
##ー
##ハ
##Ø
##γ
##ο
##ĕ
##Ę
##մ
##Ꮦ
##Ꭷ
##А
##¼
##랐
##습
##니
##다
##😉
##😅
##ɪ
##ˌ
##ʏ
##ك
##©
##🤙
##λ
##ί
##Â
##ṣ
##ṭ
##ề
##ệ
##회
##식
##🇩
##👭
##Φ
##Δ
##Τ
##😁
##ȃ
##ʹ
##¹
##⁰
##χ
##ζ
##ε
##🇸
##Ò
##Ï
##🙉
##🙊
##η
##熊
##貓
##Ц
##😨
##😳
##꽃
##으
##υ
##ǿ
##ƚ
##ע
##َ
##ْ
##👉
##🤞
##Н
##מ
##🔥
##В
##θ
##👗
##ụ
##🇿
##➕
##🇰
##💯
##ợ
##😐
##👌
##💚
##油
##明
##🇹
##🙈
##简
##👨
##👩
##👧
##👦
##建
##🥤
##κ
##💎
##ṇ
##❄
##🦌
##ֵ
##ּ
##ח
##올
##림
##픽
##🎆
##ֶ
##洪
##鸣
##ǒ
##大
##阪
##イ
##ド
##ネ
##シ
##ア
##共
##和
##国
##総
##領
##事
##館
##モ
##チ
##喫
##茶
##店
##💙
##ḿ
##̀
##ǔ
##ẩ
##😈
##σ
##У
##Й
##ὰ
##♡
##🔹
##🏆
##Ш
##כ
##포
##ễ
##🌊
##🥈
##🥉
##🎈
##ָ
##Æ
##Ś
##😥
##😢
##😫
##🚿
##µ
##🙏
##ˈ
##ט
##ַ
##ס
##ֹ
##창
##까
##지
##음
##은
##ז
##Ź
##📺
##靖
##崴
##놓
##아
##고
##ɡ
##Λ
##Ι
##Ç
##디
##어
##🇨
##ʽ
##ἴ
##들
##었
##河
##南
##文
##革
##重
##现
##ض
##ح
##🇷
##า
##ง
##แ
##ก
##้
##ว
##께
##즐
##기
##세
##요
##Я
##름
##운
##ﬂ
##😭
##😱
##🤬
##🤪
##😯
##😲
##😮
##🤣
##☘
##½
##و
##ت
##❓
##🔞
##Ì
##圣
##经
##十
##字
##架
##ῶ
##ӧ
##⃣
##ҫ
##ẽ
##🤦
##Ε
##Ώ
##🇳
##ổ
##🍾
##🍻
##Ŕ
##👸
##st
##ov
##ní
##ch
##le
##ou
##la
##ra
##en
po
##ro
##li
na
##te
ne
se
##ho
##em
##ed
##sk
##ak
##in
př
do
##ce
##an
##al
##ně
je
##at
pro
##rá
##it
##on
##or
##il
za
##ci
##od
to
st
##er
##ku
##et
##el
##ni
##no
##jí
##ad
vy
##ka
by
##lo
##ky
že
##ar
##ých
##ti
##je
##de
##ší
##né
##om
kte
##ře
ro
##na
##vě
##po
##va
##to
##ek
##ří
##ck
##id
ob
##dy
pr
od
##cí
js
pod
##lu
##es
##lá
##ru
##tě
##ová
##av
##mi
##ná
tak
##ez
zá
##ské
##sti
##ob
ná
##mě
kter
##me
##ko
##ent
##mu
##ení
##ové
ve
##by
##vo
si
##as
ně
vý
##ist
##ál
##ím
##vá
jak
ale
mě
##že
##dě
při
##am
##ři
##ví
před
##ým
##át
##uje
##is
mo
bu
##ká
##ova
##ji
##nu
pří
##rav
jed
roz
##da
##ech
##tí
##led
##tu
ch
nej
##ta
##lí
##bo
##ze
##vní
##nou
sv
##est
##ého
##ili
##ly
##ne
##ný
##ny
##ri
##čí
##ční
##du
##tel
##ovat
mu
##ém
kon
##pad
##bu
vš
##kon
Po
sou
spo
##im
##lad
##up
vě
in
##ej
##hod
sp
mí
##ním
už
ni
##ba
##ád
##ště
##ty
ko
##nost
##lov
##ick
má
re
jako
let
jsem
##oval
##ma
20
##ních
##ali
##rov
kdy
##oru
##ží
##mo
##dá
který
které
##ran
ho
vo
Na
##stav
##vr
##vy
##do
##ují
##ků
co
##lou
min
##ry
##sp
##sí
##ský
ví
##ut
vz
te
##řed
tr
##jší
ma
jsou
##mí
bude
##prav
##ila
lid
##vět
nebo
##bě
##kou
##ec
jen
##nosti
##ev
##ič
##sta
ka
##ie
##sled
##rát
##stup
jsme
poli
##tá
##ování
aby
##lav
prá
##ilo
##kov
jeho
##má
##sob
##pu
##sto
pot
##pe
##ter
##iz
##alší
##še
dě
##ního
##ům
také
##ných
##hu
pra
ji
##ud
##bí
podle
##ved
Če
vel
##klad
##vod
Je
bý
##iv
byl
##os
##ského
kom
##raz
##sku
##ovan
##ve
##oz
##lem
##dou
cel
##ská
##leč
##op
ze
poz
další
če
##re
hod
nap
##ot
tu
ří
tě
##jem
##ené
zp
až
##žit
##ala
##ina
le
která
##alo
##ám
##dí
##ir
##ální
##ově
201
moh
##my
##ských
než
Pod
##ab
##ruh
bez
nep
##iná
##hra
##cích
Pro
proto
##rů
mili
##koli
##ného
##ha
##emi
##kem
##ůže
##val
##řej
##itu
##lat
##iny
##ět
##tek
##ový
Pra
##hy
řek
##ok
##ic
něj
##zí
op
##zna
první
pů
##se
když
##ost
mez
##ství
stra
jin
přes
##lé
##ig
ak
##rop
##men
##si
společ
##pr
##há
##sla
##nes
bylo
nez
uved
být
##un
tom
dů
##sa
##for
bo
##oup
##ace
zd
##kt
či
##cent
něk
##cké
##last
##chá
druh
ži
##00
ještě
##sko
To
vlá
kde
ani
##čas
pou
byla
pře
stát
##chod
není
zač
dost
pak
##ste
##ena
##itel
dob
##ia
##ol
19
hla
St
však
roce
##jich
##dr
##nější
té
##ul
##ur
##len
koru
tý
zem
##ich
mož
##rod
toho
##vrop
##ezid
##stí
##če
##ček
roku
##vat
tím
##zi
budou
ten
##kud
může
své
##nit
##stě
##eme
proti
##art
dí
rozhod
Ne
##ových
##ys
##ct
##ovala
mezi
##mé
##ovi
##zení
ved
sk
všech
vys
případ
stá
##ska
##let
##rit
##isí
jedno
korun
jejich
##ana
##čně
##ár
ex
##di
##ovou
##spě
##pl
##luv
##mer
politi
##gra
##kaz
kteří
##hrá
##ového
de
sku
vá
##ezident
##hled
##cie
Podle
##bli
pa
##tem
procent
sy
mi
nad
##vů
##inu
##ců
řekl
##ži
##či
##us
##ily
svě
##řeba
Jak
##vají
os
jí
##co
##zd
##vot
sa
##ovali
tam
##tej
ru
##án
lé
##ená
Za
rod
##nout
##ině
##šení
##um
##and
čá
##edy
An
##rat
sam
##rg
ty
des
prav
vět
minist
fir
nás
##ený
vlast
##tech
##žd
##hem
##ké
její
##čit
##stat
dva
tomu
Ale
##ším
Ma
více
zv
##oci
##hla
##bor
##čet
tisí
hra
posled
##pa
##ady
prezident
##nice
mno
ní
##ing
##log
čt
prac
ta
##skou
##ver
##ným
##iš
pov
Ně
prost
##ické
##říklad
lidí
bě
##vé
##ik
záp
tři
protože
několi
Ch
Do
aut
##lep
di
##vůli
milion
zat
měl
##lém
##ych
##sed
##ští
mají
##ub
kra
##aly
čer
##kla
##chy
čas
prob
Evrop
cest
stav
infor
##řet
##ast
Kdy
žád
nemo
##ření
##mp
##tor
sta
##lení
##sky
Mo
spolu
##kra
##eny
##van
##chu
##ion
##sou
##nutí
##ském
Nej
dá
tra
čty
hrá
musí
##jící
##vali
zápas
##pom
slu
nov
Ve
##roz
ře
vů
##káz
##su
uvedl
##ši
##nil
##řel
sto
##rob
##vou
##hlá
nich
au
tedy
Ji
##eně
##ber
##čka
osob
##žel
vyš
##ková
pat
dnes
stej
##ice
##řad
třeba
prů
kvůli
##vu
dlou
ško
chy
##ner
mluv
pop
Bab
##loven
##ými
##ležit
rad
##žení
Mar
například
sch
nějak
ke
##jed
Ka
seb
sil
##ném
tisíc
sm
##měr
Zá
##ard
představ
kam
nech
neby
##tní
##ující
an
Tak
##čil
##aci
zna
##álně
##zor
ov
##lní
čtvr
##nění
sí
vol
zí
pla
##stoup
nedo
proje
##tiž
##ůst
##oni
##zná
každ
##zy
Vy
totiž
##ér
##měst
již
##tr
míst
##tiv
bych
dem
##sté
##sil
##ané
par
problém
změ
##por
nabí
prov
mod
podob
##nik
##fi
zahra
##lán
##jen
##čení
pomo
##řád
velmi
místo
##ách
##inan
##rch
##cký
což
##yní
fun
nám
dvě
##pra
asi
nic
##ag
Když
Ru
##měř
##rom
mít
Zem
##ít
##ovní
##liv
kont
bod
střed
nik
##nov
týd
vod
##kr
říká
Pr
In
Od
##ráv
##tele
##ává
vid
Ná
##entu
##hle
chtě
##ene
tele
úč
##jde
cz
##hl
##ždy
##pí
lidé
lo
##sá
##rost
##eno
situ
mé
##peč
##dal
sna
##ůsob
den
##rán
By
několik
jim
soci
##děli
##ností
##eň
##teč
úto
##nání
##nat
##sad
Pet
nes
##věd
dom
##nici
##bra
##man
##ník
##stra
##ane
měsí
li
letech
##publi
bud
##lik
met
Bo
##uni
svět
skup
soud
##šel
zatím
##čky
mluvčí
amer
##ovo
pá
zná
org
##šem
##ii
kole
15
Jed
##ale
kterou
##zem
##řit
##imo
##lož
neu
##roj
rok
minu
něco
##šť
obchod
Co
šp
##inou
stud
ur
##řejmě
##ůj
##oda
Pokud
hlav
dokon
tvr
##NO
##lově
součas
sob
##víc
mus
Re
##ari
##ín
měla
nev
mal
Babiš
kli
sed
nebu
##erst
klu
cí
##rad
ČS
ag
jste
informa
rych
##jeme
jeden
třet
##ání
život
##zu
Jan
byly
##bec
##zku
##ence
premi
hlavní
dál
10
Při
##děl
zdra
##cky
veřej
ote
finan
nevy
společnosti
chce
přest
##řeb
zákon
##losti
republi
stále
dvou
##tra
##cha
##ory
##kové
##enci
pě
ANO
řad
nyní
##lád
##za
obje
právě
fil
nové
ti
země
vyp
200
##nd
##vi
##hru
deset
vyu
Te
Br
zak
##ity
##cem
##té
##éf
##tká
##anou
Ko
mlad
##vis
červ
##ůž
větš
##aniz
##ati
Tru
##ckého
Fran
přek
US
##aně
man
krá
měli
získ
odp
trest
pl
způsob
##voj
tech
mohou
##ckých
Před
##fer
##az
ode
zab
Vý
##ským
době
zahrani
##lit
tro
někter
hlas
Spo
##odu
##těz
##ický
čtyři
doprav
dop
oprav
velk
##rt
uni
pouze
Ten
##eb
ča
##enou
těch
postup
pět
##sal
tým
milionů
##istor
sez
část
##mat
##sle
cent
Ja
kolem
##mou
##oto
připrav
násled
##vatel
##nan
##slav
prostřed
řed
nepo
moc
fot
##ort
pož
rek
konce
nem
##cká
##lekt
mimo
12
##gu
strany
##ák
##ených
##kách
muž
star
Kar
nemá
##leb
##dní
byli
##nem
nemoc
##krát
dobr
##vyš
##esti
##ůz
##roveň
##žil
náv
posla
kro
Bu
och
##šlo
##race
cen
teď
rá
##onu
##děla
oko
skon
##ktu
led
tento
dr
##átku
##větší
během
případě
člen
##tů
##vý
člově
Tom
##šit
##stá
Ob
##sem
práce
poslední
histor
##ované
no
zaměst
domá
##čních
kraj
##řil
vlastní
##SD
gó
##oš
##he
##son
kou
stan
těž
lí
svou
šéf
uz
jiné
pokud
##konom
##rodní
jde
Mu
##nad
USA
dne
18
##sy
dobře
Li
##kce
hodno
elekt
podni
##eni
##hruba
ban
##ato
navíc
živo
progra
hodně
##opak
Praze
organiz
Pře
##mín
##níků
vždy
všechny
##chází
Jen
##vání
Lu
##čer
zda
dalších
kdo
##au
Zeman
svého
##liš
##bal
této
##hov
býval
mys
přit
11
pí
##ář
##jít
rov
vyt
komuni
podí
vysvět
##ráž
zap
provoz
vůbec
my
up
##slu
tří
postav
##ceti
spe
Sou
##ned
pořád
vše
měst
##prá
ministerst
něm
2018
demok
##sah
ekonom
České
##ovém
Mě
##pli
víc
du
výro
##nila
##čku
ČSSD
Vá
##ňuje
##ron
##ment
zhruba
auto
druhé
nemě
30
jas
##žně
##dek
list
##lon
Něme
základ
##cela
úspě
##ději
vlády
##stru
##obil
##plo
šest
##spo
##raž
Ho
##tkání
##jet
##dob
krit
##net
boj
##andid
##ga
půl
svých
Mart
##hou
##lil
##teri
br
služ
Jiří
##lez
děti
zprá
poku
##řilo
##tivní
kvali
##hdy
otá
obě
letos
plat
##inky
##tal
##lek
díky
her
já
##letí
##níci
praž
##evším
zde
kan
##hlí
##čan
##plně
##bav
##lepší
zůst
##drž
zku
bezpeč
čin
závod
otev
světa
##čá
Praha
oby
Trump
##ond
vyj
chví
policie
##lím
zra
##rál
úda
##omet
rád
takže
přím
##icky
med
firmy
##krač
##idič
hor
téměř
##eč
##št
Nov
##nými
##cím
##ichni
##ovalo
umě
Pav
vás
inter
kr
om
Roz
největší
prohlá
vi
ček
##ických
##áz
nejen
čtvrt
dokonce
uli
nabíd
svůj
stejně
vedení
dří
ku
##znam
Sp
##šet
##nal
##ata
mist
města
##dil
pos
návr
sice
for
##jist
důvod
##oví
polici
##ely
potvr
pár
13
sebe
EU
přitom
poč
##vid
14
sr
##nict
soutě
zvý
##álních
zdravot
uvedla
Mich
##ezent
Ta
často
kandid
především
vám
mohl
loni
bran
vítěz
##inále
Já
předsed
růz
##pozi
spí
úřad
evrop
Le
výkon
působ
jednot
každý
Česku
odmí
pokrač
nakon
Amer
ja
##ích
zase
miliar
Brit
##ici
Pří
výraz
nebude
Kr
ostat
oh
určit
##ivní
##ývá
##min
dodal
div
nakonec
va
autor
##hat
##lan
možné
##ozřejmě
ředitel
da
##ména
větší
výsled
##ckou
fak
##stli
##aví
##én
trené
tur
vla
##stém
roky
hlavně
dos
##les
16
odbor
17
části
místě
původ
##kod
##ise
Kon
##lý
autom
##méně
##tečně
##kro
##koliv
##ovaly
lety
ovšem
vyšet
plán
pan
25
##stu
al
naše
patří
##čila
##aj
neb
##pis
pravid
Sloven
##ef
pode
kap
##dala
##sty
##uk
##mys
začí
speci
##poč
##novu
posledních
chod
tady
##ovatel
voleb
ar
Pa
##pozor
##átor
##rati
české
##ge
##teli
##kup
##dělá
důležit
vypad
##ovky
Má
reg
procenta
##mov
přev
##hor
prode
##ony
##eníze
kontro
##ického
voz
vál
zákaz
ozná
jist
##šla
lep
ČR
máme
dis
##per
##cou
noviná
ktor
##cti
##osti
Bar
pon
plá
Petr
polov
##vest
jej
##vky
##kci
Mi
Lid
jedin
žen
##čního
so
zt
##pě
Al
minul
návště
##kům
ozna
objev
##kal
produ
##ovým
##skyt
Pl
##cen
společnost
obdob
##byt
##ij
jednání
letoš
nejlepší
prý
Už
##álu
opět
##nů
##šek
Poli
on
blí
vzta
##bou
pad
##šen
gene
##viz
##ická
Rad
dosta
nikdy
údaj
poté
##cení
##kli
##olog
per
ps
hled
##ovy
##četně
velké
prof
##zra
systém
řidič
úplně
##ovaž
##jím
##cit
##cet
##prvé
práci
celé
počí
##rou
ost
podmín
##rní
připom
##isk
svo
##klá
##nic
neza
ČT
trochu
Čech
Tomá
##hli
fung
využí
výrob
opravdu
##jení
##raci
sně
svým
obla
##gy
třetí
náro
potřeb
##uj
su
##aliz
léka
Ba
rám
##end
slov
schop
chvíli
##dit
dodá
kni
svém
včetně
peníze
osm
prezidenta
##šil
snad
hodin
upozor
Ví
přij
sport
sám
řekla
zástup
pre
##mů
dopl
##stů
##žší
šan
sedm
foto
muse
jedn
bře
##ff
všechno
##vala
agentu
##padu
Cel
##řů
men
vyh
stojí
##štění
##ovaný
zví
##koho
##py
##lů
hned
později
##šli
premiér
znovu
##ilomet
manžel
pu
##prac
##teg
##ton
vyz
použí
všichni
zaměstnan
květ
##otu
##pod
##kam
Prá
Proto
bar
##elu
dostal
##nej
závě
nedá
špat
miliardy
##ejména
ukáz
abych
nav
něme
repr
několika
##prve
aktiv
##rie
člověk
ot
##běh
nejsou
zách
dota
##lost
##řá
##cház
pohy
Vel
zároveň
jestli
čí
Min
##čem
pěti
##kovi
mig
veli
##čním
##atím
otáz
##hrál
tomto
##nému
loň
utkání
sní
pri
ba
##vyšší
##jní
Par
vláda
věci
##čů
občan
Čí
##éra
##kami
proč
rámci
někdo
kri
umí
možná
##poru
Ku
##ca
##lin
##žní
##ince
pohled
##letý
##chop
pracovní
komp
##nerg
lá
ver
týden
##spoň
Martin
##řízení
hosp
uzav
kul
sociální
dola
Něk
##kají
tehdy
jedna
situace
##líb
smlou
50
hok
##žen
##cháze
Nem
##her
lepší
dobu
hy
koup
ním
##rální
##rem
part
##áni
##eta
##asič
##zeň
dlouho
kilomet
sebou
##luje
##bs
Ber
poda
##ant
##mená
lig
##xi
čtyř
odh
Prahy
světě
Jeho
##vyk
krát
jednou
##lech
mám
zájem
považ
##enti
mělo
reprezent
tvrdí
přid
Vo
naopak
2016
rychle
##res
zemi
sled
Sam
##átu
doby
Mez
zastup
mohli
správ
vých
##řes
nový
týmu
vyšetř
vznik
##vap
##tom
Jaro
##lová
000
Dav
##něž
##vesti
oblasti
aj
možnost
začátku
příští
zahraničí
zcela
21
příliš
leg
ser
##kraj
pros
situaci
tla
řízení
And
vysok
zejména
##kyně
počet
samozřejmě
as
arch
##hodu
##ude
##zni
##nolog
##veřej
přímo
doma
Kč
##ani
dra
##lých
lze
rozhodnutí
nemu
Další
##ler
##be
##las
##ovací
sko
##ujeme
poprvé
soudu
##ord
##lymp
Let
titu
##nech
Au
jinak
Milo
##rání
odpově
stí
Vš
##zemí
Se
Ro
bychom
##skos
##rně
vytvo
skuteč
obra
ter
Ty
celý
##čné
##šní
nikdo
##kti
voj
##met
techni
##eru
##alu
##ede
slav
lidi
podpor
mat
##pust
##važ
oček
prvním
nut
minut
##zv
rodič
res
brit
##hledem
pom
##tila
##hnout
zemí
##ps
##ouf
nimi
##xu
domácí
kdyby
##ký
poslan
##ren
takové
##šky
omez
období
hnutí
účast
199
ČTK
##lova
energ
Zatím
##inci
##elo
zach
Sa
vstup
##tím
##hodob
obv
rozdí
těchto
##vaz
dříve
##dělí
maji
investi
akci
úter
##ií
vrát
mohla
zlo
rak
večer
sobě
bezpečnost
##ickou
##kat
fotbal
jednoho
tohoto
##sek
Sta
státní
##ary
##oucí
100
státu
hokej
poskyt
škol
pi
vnit
poš
bodů
internet
##couz
inform
##kace
sprá
##zdu
Pe
jich
méně
spoluprá
tém
poh
Bě
dítě
koali
informace
##lín
##kali
Jo
budouc
První
##jišť
##čník
Du
at
nebyl
film
projekt
##ůvod
##ůžeme
Sch
##vola
##rd
vzni
gól
opat
##ška
Vě
22
##čen
soupe
##bali
jež
##jezd
##kré
polo
podpo
##cko
profes
sú
ope
dět
požad
##dále
voli
abs
##pro
spoj
##verz
Němec
telef
kultu
mas
##lie
stří
růst
##dají
sen
##hody
##pon
vlastně
##estival
názor
##dat
##bách
##ita
ok
konci
můžete
řešení
##obod
##spí
Tr
vyjád
##ke
rež
pred
dolarů
peně
lev
navr
##han
##podob
##graf
odmít
##řila
republiky
jaké
##ekt
skupiny
parla
obyvatel
##romě
trhu
miliard
invest
##rii
##mil
smě
##hlas
rozhov
Evropské
##ostí
stře
televiz
##dejší
problémy
##čili
##zvan
tuto
čeká
##ován
skvě
sc
##onal
prostředí
2017
##čin
pozor
září
Pi
##pově
kar
mnoho
technolog
Tomáš
dlouhodob
##lání
program
hrát
Ham
Británi
24
##hů
právní
Mat
milionu
budeme
sobotu
##ten
##vím
Kom
snaží
znám
výstav
dovo
pátek
vyšší
Tu
##nili
služby
##hé
##leg
##něn
##avy
##vědom
ves
##ral
##ovaných
prim
##razil
##sně
##stické
měly
středu
##var
dopad
eu
##ůmys
00
hasič
##entů
firma
sla
##ější
fanou
##dět
##alí
##DS
olymp
střel
dětí
##dání
##poj
Me
byd
dub
##amp
##lomou
začal
Jos
##ore
vide
##poled
tri
Ar
40
některé
##žila
zmí
##děpodob
sty
Čer
eur
##klady
běž
##áci
##átky
##vno
jehož
Jenže
##teř
jednodu
dce
nebylo
##nictví
říj
listo
##jímav
##bní
minulosti
zveřej
smr
umo
##stva
partner
David
##žili
ústav
##isté
věn
pondělí
žádné
Mí
aktu
moder
ven
exist
##dech
##více
Vác
uvá
ned
pok
tisk
##jíž
la
##io
pam
Hra
přesto
##kám
spou
##smu
##aný
##ará
akce
##skosloven
jednu
některých
##oc
českých
rovněž
jedné
podstat
ry
Pak
nepři
blíz
vra
##átní
Zd
##ika
zásad
zkou
us
##dali
##ľa
##lej
popu
okam
police
##blí
nor
23
roli
##lené
##ES
zne
les
nejd
##dce
##boru
##teří
ženy
součá
##ada
##ceme
tradi
význam
povin
divá
přístup
doku
město
místa
vl
času
##jedná
stup
plo
kterým
stal
ide
Andr
divad
celou
Pavel
nového
sděli
zru
metrů
níž
My
velký
##oby
naš
zvo
ochra
##ang
##celá
podporu
dělat
tyto
vyso
chtějí
stě
století
ODS
Šp
##álním
naj
kterého
##ong
##íme
nějaké
##nos
##ara
překvap
Ju
##řím
zřejmě
##ine
deseti
prakti
zvlá
##dom
Kromě
samot
##og
##mysl
jmé
Není
vidě
##uji
zastav
minim
##mají
Ze
##nám
trenér
života
##roje
dobré
##řili
##kom
hroz
základní
platí
předch
##vor
zby
##acebo
pravidel
přesvěd
spíše
zákona
##kovou
##kových
sloven
##éru
proce
Mys
kor
předseda
jmen
meziná
##fici
úterý
kari
Jako
otevř
tvo
##skými
nechtě
##níky
podařilo
kterých
##ají
##rozí
##zdy
##endu
Novinky
zbra
hvě
chtěl
skutečně
rez
##gli
##líč
strán
naší
##chyb
##kově
So
ciz
stavu
zastupitel
ministr
##vající
Kra
úspěš
desít
konkré
kau
trén
konku
koment
Vz
mil
obrov
školy
jenž
festival
nových
##mit
tran
scé
##roni
udá
celkem
##cům
##kl
východ
domu
##enty
kab
zákla
##žal
slo
průmys
ako
##ezpeč
zahá
Dom
vidět
##ními
souvis
informací
##městí
Dra
rodin
motor
region
Op
fran
čtvrtek
##vek
povo
##mentu
##saz
udě
vystoup
nemocnice
druhou
uděla
##vak
psych
rest
pořad
##edl
##tý
prostor
médi
srp
zav
nejvyšší
test
výrazně
centru
zalo
##hr
##hužel
prote
New
opak
##ovaná
automobil
prostě
rozdíl
prod
výbě
vr
tou
pomá
vozid
vzpom
##til
nena
mnohem
druhý
Af
teplo
Dí
Dě
hospod
dostat
##any
##ckém
vyhlá
oba
nád
##iky
##ův
##ismu
listopadu
##skem
##ap
##tili
pát
SP
##rý
kandidát
##káže
národ
žena
##ja
##lace
podnika
záj
pohyb
PR
##žství
##řebu
sním
The
var
neděli
##hlé
##zní
##telem
##stře
##rovna
klub
vody
Evropě
##ash
Mal
Rak
sprav
##měrně
##žeb
nemůže
Praž
##aná
Minist
nezá
ply
obec
Mezi
2015
vojen
mohlo
uži
##álního
##finále
##hoda
mistrov
nepří
##žití
##ckým
slou
přin
##ováním
dosud
dokáz
##koj
pravděpodob
kromě
Rob
60
území
##esát
Byl
prohlásil
##iše
přišel
28
dov
resp
Andrej
dvěma
##telé
došlo
Česká
kaž
vrch
Jsem
západ
klubu
##tou
tá
staveb
##kor
##ujících
##br
mar
poru
##ovu
Andre
Pol
Nap
někdy
věc
##šti
jíd
##poledne
kilometrů
dále
málo
ceny
ukaz
##ších
##ID
okolí
Slav
##mb
Sev
##adva
Takže
Ond
musel
ší
##náct
De
směr
porad
Vi
auta
Spar
taky
určitě
##ránit
Di
Liber
nevě
##stal
Ad
cenu
vlád
firem
Olomou
sé
server
##rac
toto
##úč
ad
##hrad
##ýš
##vka
zajímav
zařízení
ministerstva
Babiše
##šku
dosá
##ket
straně
takzvan
ztrá
děla
obou
##onstru
vrá
##chodu
##jú
##stili
##lap
prodej
čím
Ti
27
Evropy
vedle
asist
muže
##ávají
body
Jana
pé
moci
Sk
26
ohled
No
##ampion
výji
##tora
ať
pomoc
vzá
vyhrá
##vit
##atu
napsal
takový
La
##ému
finanční
městě
materi
##aných
##lila
##ropo
##znamen
výbor
staro
Právě
##nul
##řem
unie
##eného
Rom
alespoň
##jev
pohá
popis
zo
armá
domů
90
znamená
##lel
zas
Rozhod
čín
##aněl
dělá
##čný
##car
##ini
Dnes
univerz
náměstí
dlu
##bit
spor
začala
důvě
ministerstvo
pomoci
jasné
##enu
místní
přá
tolik
ukon
##řka
peněz
přesně
##fek
Česko
Teď
francouz
zakáz
organizace
##ály
##latí
nová
##div
##kol
vliv
##jak
##tně
Bylo
##hi
vítězství
způsobem
konfer
##vám
##íná
202
Uni
##iku
paci
návrh
turna
##něné
35
##rych
deb
Mer
zvlád
He
zpět
potom
##čuje
všem
##valo
vůči
obraz
hru
##žná
stranu
odhad
svá
##bud
insp
##ejte
##uper
reak
český
kapit
mana
riz
model
Ex
příprav
##rož
velkou
systé
##inku
komise
Rusko
##ovit
##kový
pozem
##ktor
kola
##hodno
##střed
##pozici
Va
konz
finále
##teční
sami
##red
##rus
reag
ulici
##zrael
##vku
##rb
obvině
napad
posí
postupně
##rig
ráno
Vlad
záchra
zmi
##třeb
cit
dat
předchoz
sever
autobu
jedná
abychom
sociálních
##řech
##zá
následně
##véd
##oně
zranění
##sen
prí
##skému
hry
##ďar
Tě
kamará
##voji
volby
cy
##HL
Josef
ště
člán
současné
##mr
##pt
svobod
kolo
potřeba
##ativní
podez
Ha
součástí
tex
##ank
##nek
##avíc
systému
probí
##inka
Navíc
Put
policejní
of
dokument
vězení
množství
##anu
##zně
spoluprac
##lib
Ned
práv
doporu
volbách
příležit
dodává
set
##sledek
hodiny
základě
##itek
##hání
státy
roční
Nic
##lada
tato
##fin
##stří
napro
rozhodl
Přesto
##koda
ofici
poved
198
vík
neod
Ani
##rali
bi
trá
##zkum
##šila
osmi
##TO
programu
nemusí
dal
lidem
Sy
leh
2014
bí
čist
přiz
##dub
##čilo
##aleko
rodiny
diplo
Be
jiných
šampion
tř
nichž
##ratu
zlep
šanci
##olu
novou
##hne
jiného
##ivně
##vič
##NES
##bý
Tento
##ňují
##inách
schvá
kur
různých
kterém
úvod
##our
Sý
Ukraj
Že
přem
Foto
Rus
odvo
dny
vládě
zkuš
exper
kancelá
jít
##risti
předpo
zemřel
##tov
většinou
rozší
Stra
##žné
hrozí
skoro
reali
##cemi
##luví
##boj
##ista
Plzeň
žádný
ledna
##qu
##ací
##jištění
telefon
udělat
spolupráci
mom
nebyla
##wit
strana
většina
prodá
dře
šesti
nemají
Vět
Kan
##ros
osla
sněmov
##kty
##oku
umož
##hodě
##jených
##ondý
Lidé
80
##iště
##nách
oblast
mobil
##před
##áti
##lob
nejvíce
##ert
Facebo
řadu
Michal
dní
mistrovství
##ením
výsledky
kontak
##iska
jezd
Tur
##ča
Ra
##kaci
##dia
politické
##zim
##kládá
přist
demokra
jiný
konkur
are
říct
##ujete
29
úrov
Pat
Jin
##šk
ly
vysvětluje
budu
služeb
##ven
##níka
##nácti
post
čem
##cetiletý
##isi
Jsou
čís
##seda
inst
fanouš
##vější
##nějších
Ještě
rozhodně
Stej
##stvo
##žela
června
můžeme
##sme
hlu
##dění
republice
premiéra
důležité
red
Man
##xim
máte
##běhu
ostatní
jenom
žal
sva
Něm
nato
70
společně
##hn
lépe
##aty
získal
věcí
obsah
##vize
politiky
měsíců
českého
Mlad
restau
##ela
Například
45
návštěvní
Nech
##dělení
##vaná
##ona
sama
stran
##cov
##kala
##itele
Nik
Hla
vyrá
myslí
dení
##ávat
sezoně
klid
proz
##šně
stalo
##che
para
kraji
KS
mnoha
##počtu
dvoj
řadě
kup
posu
dru
pochop
##rovnání
sezony
##hal
prohlášení
Zatímco
Gu
přijde
Sen
##ters
Jde
nějaký
##cho
potrav
Hav
jejím
šlo
ši
##enosti
našich
##omu
války
americké
Sv
letad
projektu
št
Tam
funkci
neda
musíme
##ilan
zeměděl
desítky
pen
##toři
soutěže
vním
##ickým
bývalý
##mení
##měru
Miro
zaved
fy
disku
##ers
##port
Vys
daleko
Václav
##cii
SPD
Myslím
##prava
počas
živ
##ese
Nová
jednotliv
zvíř
nabízí
##ld
ovliv
začne
stala
náklad
Mosk
##EO
tvá
##říž
spíš
vari
přibli
pocit
architek
##lec
museli
daň
##řské
##sala
##rk
myš
Každ
tero
trh
KSČ
působí
Bí
##zen
##ft
mag
##avor
dev
Češi
věku
vede
syn
##řen
##adí
muset
minutě
úřadu
krás
Ostra
příj
mon
zdroj
##zuje
příjem
vzdělá
##hlo
Morav
podzim
nadále
##vil
pal
muži
května
neměl
zbo
zim
stoup
druhém
komu
##haj
půj
##stila
údajně
##zda
##teľ
##cházejí
ky
##řům
seri
Hu
migran
196
byť
zprav
##mar
níz
agentury
##tat
##ovať
svat
Svět
##nec
zjist
Českosloven
práva
dé
extra
kolik
dostala
##řít
##vakrát
##rand
##lého
##pou
podmínky
celá
apli
odsou
Donal
stop
##lík
pomocí
cestu
Draho
stro
Brno
dát
zi
filmu
Brně
přece
března
VID
získat
násil
pracov
zpě
nicméně
velká
inf
pozna
získá
Mas
##mila
31
želez
##nilo
##stoupil
řada
uvádí
##říd
##ple
Aut
##řady
obžal
dostali
##enta
noci
##rátor
udrž
##živ
##íte
##účast
tisíce
VIDEO
ital
neob
##áků
##ována
počíta
Go
##čitel
jedním
zpráva
##niční
##lor
Itá
##čera
téma
##hléd
Os
podobně
dopravy
hráči
##ráz
##stala
hráč
##hlíd
hraje
Petra
##prch
Druh
dve
muze
hři
televize
Pom
##stava
kateg
##slava
Kdo
Fili
typ
hospodář
lod
hlad
nepře
##gi
pozici
řešit
nově
Ser
Her
Ste
##entem
##telů
síd
Proč
října
##nú
opatření
vybav
Všech
##gan
##bul
Sně
hlá
cena
##nické
slova
kritiz
dnech
napo
##rací
Podob
nepro
Su
starost
##OP
##tit
sem
09
Hamá
me
pokus
pražské
naši
sly
kry
škod
##ingu
Společ
Nyní
rekonstru
osobní
ligy
##vol
Eu
olympij
##telné
Bud
##elí
Mon
##éry
pokračovat
##pla
Zemana
por
nu
doz
bou
pas
##zal
##aru
vhod
dodala
Ved
zkušen
alkoho
historii
##řela
Bez
rozhovoru
mrt
maxim
titul
##mbo
příspě
klíč
němž
hude
pově
##etu
vyž
pracovat
blo
kategor
nesmí
malé
medi
chlap
pozit
##ovaného
nen
hud
##sluš
##lili
##zo
##istů
dalším
opozi
Miloš
##děj
Ak
dohod
menší
##ička
dnešní
Kdyby
vývoj
##štěstí
chybě
myslím
nezávis
##žet
čele
Ag
policisté
demokracie
Američ
Hrad
úno
dospě
##sf
Micha
##ickém
právo
průměr
500
Pri
Ben
start
starší
režis
##násob
##ashing
##výcar
publi
Díky
konf
Pardub
##stoj
plánu
králov
států
Británie
poměrně
##ader
nos
##jte
úspěch
##kář
##ýval
měsíce
Reu
očekává
skupina
sho
těžké
souvislosti
taj
prová
ministra
lete
##nič
výsledek
Karlov
pol
Také
spad
fotograf
změny
zápasy
hovo
Policie
světové
náš
mlá
usku
dopravní
##teru
teprve
vybra
##ero
potřebu
vydá
Reuters
chtěli
vyrov
extr
##ger
Větš
uprch
##udí
##rostřed
nechce
fakt
klas
##den
zatímco
odpoví
banky
Ter
Da
dvakrát
oblíb
dům
Putin
Ble
národní
##stěji
kři
##ovými
němu
člověka
kraje
##žer
##ster
podot
nastav
we
prvního
Ště
Dob
dubna
##ung
útoku
##lám
kle
##nají
nom
angli
Bude
nechá
rádi
vzdu
Stu
jez
dispozici
Německu
Ří
zraně
##razí
##deme
##kých
##go
Hor
obchodní
naprosto
Během
dlouhodobě
zvyš
lu
zajist
##slan
kus
sportov
čo
cílem
##hdejší
Vol
jednoduch
nevid
zdravotní
Ry
léta
náměst
útočník
##alý
příro
Slová
odv
Král
jednom
Wil
centra
##tky
##žitě
##nak
tem
##jel
neví
Washing
##čím
##dci
skončil
zaměř
demon
hrd
##ance
##ety
nižší
##esu
července
současnosti
##livé
##alyti
##pá
dro
Nak
Ov
vypadá
dostane
výz
##land
##tvr
##str
##jezdu
brá
2013
KSČM
rost
194
začíná
##ěji
##har
super
koncer
nástup
sbí
Nev
refer
##ep
okolo
Chtě
##ile
zdraví
##orů
Kvůli
Musí
kla
Zároveň
##ečně
Její
##ůraz
##váme
píše
přišla
##anta
hlasů
občas
##nictvím
##atisti
institu
str
Asi
vraž
devět
prázd
Londý
mezinárodní
##nalo
vedoucí
cesty
vztah
někteří
prosince
##ju
##adu
začali
nebezpeč
Až
Rusku
Švéd
polovině
vládu
agentura
bohužel
jméno
svými
zprac
důsled
##nami
jazy
zů
soused
obnov
komb
Vždy
nutné
počtu
Hod
Pan
projev
##ostat
sedmi
##ročně
spojen
##olv
protest
proces
smlouvy
##zel
kop
##hají
rekla
civ
##mem
různé
jaký
nějakou
poch
Jaroslav
##oun
Střed
Sněmov
##ůležit
##ovanou
Každý
proved
##we
##lze
výši
Hlavní
##roti
okol
Mac
mohly
meda
Har
##ňovat
smí
##ír
mimořád
NA
letošního
velice
poško
tref
sítí
##plat
##sud
vždycky
sdělil
##níku
##krá
mladí
řád
Jakub
brat
play
stejné
##něl
podnik
byste
zahraniční
##kání
rodiče
##ktivní
NHL
HN
##káž
##mosf
Rakou
##itě
rady
##dru
spl
záležit
##rají
32
##lové
##esáti
směrem
##ezpe
požadav
média
Ni
podobě
##idu
##nímu
Stan
##etě
brzy
potvrdil
srpna
pohledu
gra
##lena
Ča
##sahu
##andard
prostoru
dobrý
smrti
##zích
Car
Lig
tehdejší
##volu
věří
provozu
příběh
měsíc
sá
Máme
Mil
##zny
Luká
##žené
Jejich
druhého
střední
požá
zdá
žije
##vin
##nitř
sexu
fin
odpoledne
neú
##DU
##áme
úřed
prodlou
vaše
kat
##ternat
tiskové
Aby
del
nesou
dostup
února
vysoké
lit
extrali
Byla
Česka
uvědom
koncem
300
Ge
drá
zástupce
##vatele
uží
##nějším
Možná
něho
##kázal
Fir
##ham
##ést
záchran
doh
najít
obvyk
pís
##fa
kompli
zprávy
##oli
nesp
ročně
náz
chu
zaznamen
##zkumu
nejméně
off
tvoří
Maďar
bohat
Kore
##žuje
Nez
nelze
jakou
##enými
tzv
##avad
začít
Ke
iD
Kim
počasí
bre
nejde
potvrd
Rod
minulý
Voj
svěd
##tivně
As
poho
svoji
bydlení
vyšetřování
složit
##des
reži
For
výh
##rny
funguje
##skej
##odaj
brněn
festivalu
##růst
jader
nebudou
náklady
##ex
parlamentu
zboží
hlavním
##berg
sestav
vylou
##kova
##slední
oce
##HA
##TA
symbo
majet
##šili
##cy
zápasu
manažer
zrovna
##kosti
Kam
slož
Alex
##forma
promě
Yor
zisk
Slovensku
končí
##mon
vaz
Franti
napl
odst
##lenou
##ozem
hráče
##isty
vnitra
podíl
norm
zápasů
dek
přech
Kou
zůstává
Mus
oz
Prezident
##éře
kost
obrany
přibližně
##nicích
prostřednictvím
##říz
nedávno
prakticky
vyře
chceme
##ovce
Nad
prohrá
médií
utr
##ovět
funkce
ruce
dvacet
oč
douf
Bel
stovky
##nom
##sledy
##ora
krimin
setkání
nákup
zpo
##ováno
šť
posti
##pravě
Tím
veřejnosti
konstat
urč
konferenci
##tali
zji
Hol
##išti
financí
předtím
poznamen
TOP
výběr
##kož
strateg
33
svoje
##ré
zemích
značky
Var
průběhu
Fi
##ičky
důkaz
nest
mluví
obce
případně
webu
rodina
speciální
##žím
tohle
zaměstnanců
Ost
takto
jiho
rekord
úrovni
##vedl
##ino
celého
atmosf
uživatel
Star
možnosti
pev
společen
úřady
##šker
taková
arg
Hy
ber
jediný
##tají
papí
Stejně
Vít
OS
tun
můj
##sedy
sítě
nim
##hradní
těm
střet
dvaná
parlament
Dan
nená
##hý
Mám
získala
##rek
myšlen
##razit
popisuje
zamí
##kres
krok
##žovat
##vací
##huje
tvrd
neboť
##tera
letošní
byt
hráčů
##lína
##áky
##ery
rukou
prvních
zúčast
here
Naopak
##hly
##šné
zneu
vyb
loňského
financ
mladší
bit
demokrat
našeho
internetu
Protože
##vce
chybí
vládní
oznámil
Mc
anti
doplnil
statisti
neg
##lii
##livě
##lynu
py
prezid
##bora
##ign
funk
přítom
vyhrál
zkušenosti
místopřed
##nosť
##zace
##kového
nesta
##bami
podobné
##omo
emi
hranice
##jednou
##pustil
ml
životě
Sever
vrátit
há
navští
Sest
zad
##arma
##raží
evropské
spravedl
nejspí
fotbali
majitel
##čná
pravděpodobně
neo
##říve
Nor
ane
moment
celém
Český
hlí
stad
záchraná
Pla
Spoj
##ceně
##padá
##kán
přísluš
Škoda
vyprá
Sto
děj
Jeden
stanov
fyz
##ks
slib
životní
hol
##OV
##jišťov
##chov
amb
##lostí
nepod
radost
rom
web
Vl
##inaci
popsal
ostrov
jejichž
dneš
##jímá
stanice
tentokrát
Tra
##vok
zdůraz
vytvá
špatně
ruské
Ano
##žený
zápase
Spojených
##cu
Letos
##ádu
najde
paní
ministry
Mod
ktoré
podstatě
##pat
##čej
evropských
podvod
moje
##kající
nemocnici
původně
kamp
podľa
amerického
##ňů
##hodou
host
Španěl
most
vybí
##inace
##korej
Miroslav
nemovit
jednat
##šie
Nav
zod
zapo
číslo
profesion
##álů
mam
PRA
##hých
Mno
docela
třech
Váno
##krom
##form
##tít
Ministerst
iDNES
##mot
musela
##era
zástupci
místech
Dá
##zovat
většinu
Fin
##rovol
bole
##želi
velkých
Or
každé
id
propa
výročí
automat
viz
křes
34
fá
##kel
doda
létě
Jest
plav
vrátil
stane
krátce
##úd
jistě
##ley
nijak
tělo
vysvětlil
##voje
znamen
důvodů
disk
závěru
Filip
cho
pracuje
mand
denně
řeší
Lit
zasá
škole
##ěl
demokrati
obrán
samo
PRAHA
##adr
##mut
##ell
kapa
##cid
cesta
adr
##letá
hu
miliony
2019
##řitel
Ruska
##pal
##žování
díl
Francie
##čkou
spotřeb
##počet
##líně
kterému
##lená
změnu
důchod
##rab
dokáže
nahra
dohody
samostat
##řené
hranici
36
ce
##eš
Králové
##ón
výboru
km
defin
##ovány
televizi
##iu
nejvíc
prosad
rozvoj
##lus
AP
budete
obchodu
55
##stoupit
řeč
##až
##vůr
af
konečně
##grafi
soustřed
##ťan
unik
vysí
##mech
platit
##mír
##bur
##rovi
stab
trag
hrom
označil
##ym
energet
rokem
poráž
zan
Por
Třeba
rozpočtu
kvalifi
koleg
##rační
minimálně
kamarád
koalice
spoustu
Lo
lékař
##oved
Sed
##kování
Ži
česká
##stroj
##lim
##šené
##valy
##oro
cestě
##stavě
ráda
Jsme
kouč
##átkem
Ga
ut
oproti
##ladu
##lovat
případech
##tyři
Sil
členů
person
neroz
##isla
Premi
##ňa
Může
zásadní
původní
##ovaní
hlavy
Loni
Karel
Gr
seve
ovlád
nau
##razili
Japon
podrob
uprav
ner
San
vešker
stráž
##mpa
absolv
##lený
##dec
elektroni
##čemž
chem
okamžitě
mně
jízd
americký
magist
Ky
naci
##onec
##bá
Per
##čce
##bývá
drob
##láda
##plývá
šéfa
##ablon
chování
někde
Prů
Jestli
Samozřejmě
rizi
štěstí
potenci
Německo
bá
dnů
přines
Andreje
Původ
##tová
nejprve
vyrob
konstru
vzájem
bývalého
mužů
kampa
typu
2012
nas
natá
##ýt
##ind
##aného
##rách
hře
využít
pamě
##razila
nápad
výjim
nece
##nutím
##klid
nekon
Vladim
##iat
demisi
Zlín
odmítl
Den
zapom
mó
učitel
uspo
Slovensko
Místo
léč
odpad
spol
##igit
##psal
starosta
##chem
38
žalob
##leny
takovou
##áž
syna
##ovka
oslav
hlavního
##witteru
prou
the
minulého
197
umístě
ktorý
případu
##ůžu
sdí
ká
Autor
##fu
uvid
amerických
dosavad
kles
žádná
##lev
nedosta
##kop
pozice
##čítá
šance
Ře
Merkel
areálu
režim
konec
Nakonec
přičemž
Han
pochyb
stráv
seni
##rok
dod
##etro
půjde
Roman
tan
regist
chystá
##ív
##ůl
##jetí
formu
drží
Marek
Národní
Oba
Martina
zám
deta
pojišťov
##kuje
vědom
video
stadion
úvě
##exist
raději
nechal
##kolog
hodinu
Prob
##óny
jasně
Lukáš
##ža
##pravy
ukazuje
společností
opti
jem
oddělení
prospě
tvor
##držel
##are
May
předmě
Sob
analyti
Proti
góly
Nebo
váno
Chy
##aka
ubyt
tabul
seku
##zet
##pověd
hlavu
##jede
námi
37
##leté
##teré
bav
##ram
několikrát
zpravodaj
hasiči
pozitivní
regu
##stále
nádraží
elektri
transp
odehrá
výše
jezdí
##čích
46
evid
75
##ervat
##sit
tuzem
lou
volební
okamži
vybud
týdny
návrhu
Char
sklad
útok
poj
Trumpa
svému
##mile
pravidla
metropo
lidmi
přízni
zastá
Nový
budovy
##leží
##ilní
síly
buď
žid
##pi
Rich
mne
Muž
##kamu
##ama
##enější
odpověd
neměli
efek
Pou
tram
prově
soukro
ředitele
emo
oni
skutečnosti
smysl
každého
primátor
domác
##isu
##esta
smlouvu
vzniku
sportovní
tradiční
potr
ún
Jiřího
##ovaně
##kací
potí
jednotlivých
průmyslu
vidí
lim
jejího
##cházet
vzdále
hlediska
##mez
osoby
bankov
Izrael
Poz
vnitř
Dod
Jiho
Všichni
jedená
Bole
generál
Švýcar
shod
Sna
##imi
##sová
Hon
obli
šed
##cia
skončila
ztra
##eněk
##likož
nachází
břez
kuchy
pravda
upozornil
##štní
##fik
otázku
##sila
##af
##tiva
zbraní
bezpečnostní
Cí
cít
sub
přiroz
hum
##lub
přen
##romady
##tické
hlasování
považuje
neček
##eto
##ink
rela
dle
##cího
takového
##chodem
zvýšení
změnit
##erem
začalo
Velké
##ele
naz
legen
vyjádření
##rodního
On
##ismus
Med
soukrom
tímto
sum
reál
##BC
fakul
pravidelně
potřebuje
##lární
Polici
váž
Stá
##xus
umění
##astro
##ovský
neře
šel
závis
Dost
##šak
výmě
činnosti
vystoupení
Zdeněk
##stvím
propad
Ústav
65
roze
##ejt
##lid
Dva
těžko
brex
ročníku
##rum
vzhledem
Poté
trans
semi
##jích
dává
obleč
vážně
Ur
vyjedná
hypo
mistrů
##eli
##nily
najednou
politici
OSN
eta
##maz
400
někoho
DP
##tečné
ju
##livo
##minist
##adě
##eným
sme
Násled
sti
ochranu
##tro
ohledně
čase
dlouhé
##ána
inten
argum
ona
peč
##oč
odkaz
John
vystav
představuje
předchozí
někdejší
prezidentem
režimu
##rech
Slov
Afri
smy
42
39
Ondřej
com
objem
zvyk
analý
##ační
Bla
dobrovol
ste
##klád
uměle
Žád
zdrav
otázka
##vem
zabý
nast
konkrétní
chtěla
##ori
byzny
##ay
připomíná
##šetř
##ánu
Nejvyšší
serveru
strom
Tři
##átek
Německa
zaplat
At
san
odstra
výzkum
Drahoš
##áty
převá
podniku
##elní
##enie
stat
##klo
2010
schůz
městské
Okamu
prv
##bi
2011
is
zavá
péče
tajem
Ministerstvo
uprchlí
dár
žádnou
růstu
##sia
ků
cestou
obětí
##lených
diplomat
pořádku
Někteří
Kry
ano
##terá
šťast
stroj
musím
##ilu
##arak
##ovku
##pustit
vyvo
Největší
##vést
delší
##itou
lize
zbav
##nově
syr
##EZ
Problém
úro
##stin
domě
představit
ohrož
##gn
Evropská
hasičů
##háj
Len
investice
##ína
odmě
hní
odmítá
##jíma
##stoupí
zla
útoční
veřejné
přesu
Tato
##lod
energie
##ph
skupině
vzrost
Poslední
##větším
bur
charak
Donald
Krá
##ňování
##kola
dramat
ohro
fon
autobus
##adem
stavby
vyrábě
posil
představitel
##šuje
Masary
stál
##níkům
favor
Robert
soutěž
posledním
výjime
nejspíš
##entní
dvoji
bytů
sezonu
stru
neustále
nazna
Air
Ostrav
Milan
##eku
##gr
##ghá
##něný
##čková
##bere
nahrá
##of
Británii
kabin
Fer
##ktů
zvítěz
##islav
##drží
44
Brus
##áka
digit
##chová
nedě
revolu
druhá
##kovat
spolupráce
vyv
dalšího
agent
ochot
obvin
otec
mého
účin
Sýrii
neexist
částe
osobně
Jablon
Sal
Řek
hlou
##encí
dot
cykli
dalšími
Hamáček
##hro
##inové
hrál
pohybu
Brati
fa
NATO
oslov
far
##ovatelé
prezent
týká
##idla
přišlo
##esel
vzor
Kla
##cová
přís
mluvit
kontrolu
hov
Měl
německé
Lé
##neme
Západ
extrém
leží
kvalitní
##lépe
##kého
##mili
aktivní
Auto
redak
aspoň
##zivní
označ
##deň
##bro
opu
##voz
Ros
narod
radnice
moderní
##mana
veřejnost
poro
ulice
Euro
Pirá
##čík
rozhodla
přihlá
Patri
spu
##cher
všeho
##mun
názv
režisér
Kor
stačí
##působ
problémů
##jeli
zaslou
podeps
knihy
domov
##stan
150
##letého
jednozna
##ted
##lex
##rky
jiná
parku
generace
Si
jaře
počítá
hez
trvá
olympi
jinde
ukraj
48
Prav
silnice
Spojené
hle
##jících
uměl
speku
Zu
pilo
nalez
##nie
##ctví
takhle
##ota
zkušenost
Ir
##fe
Fil
##šková
##anů
##ody
##oče
přispě
dopravu
policii
tep
##tka
##řetí
chtít
##gram
##telu
údajů
pe
dohromady
##odní
log
data
##die
zachy
Lab
##énu
ČSL
Prostě
Fot
závěre
##sat
obvykle
poslanci
cvič
vydání
Blesk
prozrad
##horší
##kým
obvinění
spravedlnosti
##aniel
republika
##nář
víkendu
podezřel
##mout
poslanců
Nicméně
mění
##stro
lav
##ckými
Ač
Býval
##něji
obč
vztahy
přijít
desí
KDU
špič
neměla
##zdory
Terez
##těž
##smě
příklad
zved
poko
řetě
skó
##broj
historie
2020
podnikatel
proh
dali
zasah
##ivu
##šly
##jela
##jat
Washington
##sazení
##rí
kampaň
uzavř
izrael
##vnitř
##smus
soupeře
naposledy
nechat
uplynu
ukrajin
Přes
standard
LN
##laci
Bor
dô
Kateř
přestup
krize
přátel
##hav
##ovek
incid
zdravotnictví
propu
##tip
kol
bezpečnosti
aktuální
##řeli
jejíž
##ktiv
##něných
Con
výš
Adam
Bohu
obtí
voda
naho
Ap
som
kolegy
##lejší
##ěj
odvola
Izra
##však
Miloše
pozornost
Facebooku
rozhodli
##enz
péči
průměru
lednu
Většina
##DR
##řin
agres
##sť
##víti
žeb
třemi
Vla
přišli
důvodu
Dvo
cuk
Sparta
Net
názvem
Aktu
předsedy
##nka
glob
##leli
dodnes
chrá
##čily
příč
##mal
lokali
fond
##ski
otázky
MS
našli
##atři
Mora
mode
elektrá
dotace
##škod
##řením
pěk
##ess
Francii
problem
informoval
vyvola
šet
památ
uvol
dětmi
alternat
usil
Soud
pobo
plast
případů
Ivan
ač
hlubo
desítek
##vách
chodí
##bře
troj
ČEZ
tlak
##dra
nedale
omezení
nejbli
Senátu
Cho
##enky
##ovič
řidiče
pit
##ráček
novým
Itálie
mô
Některé
vítě
příležitost
43
informovala
sérii
hodnoty
Kraj
udělal
##stický
mír
Společnost
Nové
fotografi
hr
účet
říkal
oceně
nebyly
kto
padesát
advok
trium
přiznal
Počet
ture
##rátu
pana
193
činnost
sítích
nie
děje
českou
požád
bal
zdarma
##rala
srovnání
slovo
Vše
násilí
kami
vozů
Ver
školství
princi
##ovic
vyjad
##hnu
počátku
diváků
zlat
##ladatel
##ip
Chor
kterými
Přit
##alou
výrobce
vrchol
##znamu
##slane
události
Bohužel
trenéra
vystup
Šéf
##ujú
naroz
Lidovky
##lal
obránce
nábo
přiblí
mostu
41
časem
##cené
roste
##čných
nehod
##vých
##nali
všude
českosloven
našem
rece
##ruhé
chci
##zev
##rovná
uvaž
kriminali
mou
##řky
ženu
##visí
sel
měsících
dvaceti
ohledu
rem
Všechny
třetím
prací
Jihla
Jižní
Facebook
těsně
##clé
poháru
##nová
##ány
týdne
nedostat
směru
Brna
členové
kilo
##lig
Goog
zpátky
zahr
Pu
spokoj
##městnan
Tim
plánuje
voličů
menš
cíl
cíle
série
Boleslav
##rin
##kojen
##jícím
Pel
klimat
nepoda
technologie
Kub
říci
##ujícím
regionu
spis
těla
rezer
##ociace
přizná
vedl
Bru
##ředu
překon
směř
posta
##krátka
##nál
elektř
řady
velvy
civili
Policisté
stanovi
Sestavy
##DP
nejvý
zápasech
Buděj
květnu
##mění
politice
##tla
koncert
Lí
Klad
semifinále
studie
dřív
##tvar
Is
udělá
##leh
##zech
přiná
armády
##lent
činu
ran
##hlasí
Gó
49
##ill
Ostravě
minuty
muzi
časop
Kali
##gres
hav
luxus
El
přemýš
##alizace
##icích
##ády
lékaři
zauj
##řily
##čko
bývá
negativní
##hel
ostatních
odliš
ins
##klu
velkým
##mluv
poslal
##itelně
nájem
bol
##časně
##desát
##nce
##nemoc
nejča
inici
čtvrtfinále
vzpomín
Přitom
politiků
stejný
mali
##burg
##reg
závodu
dodrž
Er
kauze
přet
Tehdy
teror
##ovice
Slu
zadrž
březnu
vrace
##ach
sig
zdrojů
##nam
piv
Nes
nejlépe
##nové
milió
zvířat
##družení
Plzni
kontra
Bro
širo
oto
vznikla
nevím
nedáv
severo
tvůr
vez
##tala
polož
zábav
odchodu
##čnou
vyžad
##jiště
pomalu
politika
čtená
##pit
celkové
vrátí
upozorňuje
##pů
španěl
žebří
hlavou
úz
atra
největším
teploty
firmu
zahraničních
váš
Daniel
prodeje
soutěži
centrum
deníku
vodu
nedost
politiku
nef
inspek
Ca
##poz
##kan
##advaceti
západní
##dějí
##isa
vytvořit
zadr
Firma
##oboda
začaly
podezření
rakou
Václa
bom
hudební
##ládá
viděl
nemohl
herec
konzervat
zásob
Ed
##jong
podotkl
zprávě
mnou
slá
##pán
Qu
zni
silnici
Des
##čel
dohodu
spousta
navá
##ecku
reakci
rodinu
##cker
##timet
anga
Val
##stem
novinářům
Tro
klad
##růz
staré
Čína
povolení
ruského
Karo
stavební
článku
plné
horší
##tují
vyd
Vojtě
##ovicích
zdroje
psa
Pch
uplat
##znamená
nemám
##telig
195
možností
vrací
oznámení
ústavu
nechtěl
pán
úse
výda
Čá
##cát
Vzhledem
##tře
##kazuje
dokázal
Přestože
Fak
Fal
Krej
##letě
přesvědč
letiště
Řidič
##žas
výroby
anebo
##nete
##tví
##ložit
převez
ptá
hot
generální
věz
oslab
fron
mr
oči
##žnost
Prahu
##eda
respek
schů
Kat
vytá
napsala
zaměstna
přítel
Cent
neúspě
zůstat
##itelné
Určit
##átů
Vid
vyzkou
respekt
chcete
##hala
Bra
onemoc
varian
pád
Musíme
baz
##zaci
souhlas
Francouz
##pas
jednotky
ich
neuvě
alebo
exeku
Ostat
##rant
kru
poločas
##kladu
existuje
##one
kos
senátor
##ůležitější
role
hřišti
čerst
kroky
##ipu
zaměstnanci
##ott
představení
##skok
##ade
##line
podpis
market
teor
malý
skončí
uzná
##čené
politických
občanů
Severní
srdce
zased
Výsled
##lích
##iac
zajistit
ministryně
demokraci
působil
pokračuje
úpl
vojáků
Ovšem
lik
##ární
##strá
##stit
doprov
správy
##nera
azy
pojištění
chud
vozidla
##úto
Sim
Kaž
##lému
noc
univerzity
seriálu
##hraje
jakým
zájmu
zodpověd
mzdy
sni
oznámila
najdete
slab
Olomouc
Československa
Niz
opakovaně
kdysi
barev
##ovatele
##ovaným
výrobu
kampaně
žít
saz
branky
##poví
dětem
musíte
##ima
úko
círk
eli
zní
výkonu
Belg
úroveň
52
chvíle
STA
##kém
We
nábožen
Barto
pohod
dávno
devíti
rozum
navý
poznamenal
míří
II
zvláštní
Čechů
každém
nehody
##kin
pru
lok
##řídit
snadno
víkend
##cel
zálož
##mali
##ht
##koval
nejbližší
zůstane
poplat
##loval
47
Důvod
matka
##nostní
intelig
Wal
##lar
každou
prev
sledovat
##ah
##teoro
sobot
prior
Viktor
jednoduché
##hodné
pravdu
Jam
životního
zu
Českého
Met
prosaz
takových
kultury
##dividu
Ostrava
firmě
dosah
##xe
osud
demonstra
názory
územ
veľ
##ito
##gal
strašně
spojení
nepříjem
návrat
##kry
##jších
druhým
červnu
centimet
příštího
pó
rozsá
Pavla
##NB
hypoté
polovinu
Více
vozu
obsad
vykon
Ture
koneč
Neby
hvězd
týdnů
Sport
##áři
Most
##áře
vyhrát
dist
##šte
plně
Číně
hledat
Rozhodčí
balí
Dlou
Obě
fotografie
Tá
ruku
dozvě
##lom
Bul
poc
obhaj
Boh
imp
poptá
státního
podmínek
vést
jaká
Div
##čkem
191
Czech
##jila
podívat
komplet
bet
51
doba
##lár
nemohou
pomáhá
dotaz
##mum
věd
##ávan
prosinci
Kde
tramva
dala
Zač
hejt
##nodu
##lela
branká
rostli
Nep
##čného
Dán
##lým
zbraně
připo
##slech
jím
žá
dojde
nebezpe
ekolog
představí
poškoz
sjezd
##šením
místních
##oty
verze
euro
každo
Willi
##iru
obavy
válce
53
pracoval
legisla
pomohl
TV
boji
##čením
Tedy
##ban
student
dubnu
František
sociali
##star
míní
kře
kanclé
vysoko
šampionátu
absolu
událost
59
čekají
přez
meziročně
##řaz
Mimo
##der
nechy
##ica
STAN
58
##šený
trval
##ňák
nárůst
##iče
Jedno
ideální
##átora
Měli
##dol
fi
strach
vojenské
zemědělství
Piráti
fo
Dop
proběh
Peter
Naše
vyjadř
##ult
budoucnosti
Vláda
##gen
rodině
úča
objeví
Paří
Úřad
kontakt
Pchjong
Ban
uvnitř
jinou
čtvrtletí
Com
referendu
proná
dopis
ukázal
len
##inc
Chceme
libe
zůstal
čeho
největších
utrpě
##níkem
majetku
##nicí
##řídil
alkoholu
baví
ekonomiky
oblečení
zdr
ra
řidiči
vrtu
vedením
svobody
deník
nevz
budoucí
##hrát
snažil
údaje
čekat
vir
individu
57
##šný
hotelu
##vát
smyslu
##jdou
obháj
2008
##dem
migrantů
##EF
##rigin
mak
##tách
Zprá
stupňů
dopředu
bytu
představen
riziko
##ribu
vůz
rychlost
armáda
únoru
společné
mladé
zkla
radik
##rové
prostředky
návratu
postavit
obecně
koho
mech
těší
pacha
likvid
Ange
Írán
##žívá
dvanáct
nehodě
skr
gen
namí
##ša
85
pora
##lách
Mag
úsmě
lin
přichází
##vied
průvod
tábor
##nět
míru
##moř
síť
fungovat
Dem
bojovat
východní
bru
doč
použit
jenže
poně
##sket
komun
odkud
aniž
600
##šování
##kost
názoru
##tt
Státní
zapoj
britské
říjnu
příležitosti
snížení
hou
##mysle
nikoliv
nohy
ple
vím
nabídku
##áta
osobních
moře
duel
##kcí
úžas
doslova
zábě
divadla
##iss
městech
form
vědět
Vysoč
Určitě
##alé
York
jezdit
týmy
dél
domluv
muslim
zajišť
##iť
průzkumu
##zejí
ztrat
částečně
jelikož
hráli
Mluv
trend
##rátil
jisté
věnovat
zr
dělají
nejmen
schod
Toto
##jícího
dobrou
novináře
##ria
56
pokro
##žby
odvá
Kur
##IN
tvar
praxi
novin
svoj
##lepším
Václava
tová
##bus
##áč
##ávání
jména
##žíme
Arg
žlu
prodloužení
používá
##vad
##ovej
seznam
show
##jas
Skri
Bal
spolo
##VO
přestože
posou
Pí
##cku
Př
jiným
pau
nikoli
##vó
##rový
stabili
nezná
poslou
robo
##teorolog
slouží
##dej
Twitteru
Pot
jídlo
dostanou
motiv
ohrožení
fanoušci
náměstek
##sson
pes
projekty
##žích
smrt
podě
Polá
vyslov
##angu
##amat
zajímavé
banka
Afghá
chytr
##uju
vyhrála
nemáme
##tonu
desig
hranic
coby
##pravu
letošním
stávající
druž
ras
správně
divo
obcí
zákro
maximálně
##enom
opozice
struktu
Ať
výhru
zabí
korup
ram
přeru
Iv
Tech
podání
zásah
silné
mladých
zakon
důvěru
uspě
##žily
nejdříve
##rátů
uzaví
zaháj
tvrzení
ped
##spod
refor
hmot
spočí
Vladimír
##stoupila
ryb
ga
Sám
vylep
##ove
čtr
budoucnu
##šilo
Plí
patnáct
Podobně
hudeb
hromad
sráž
dar
jménem
svaz
54
gale
disci
##tin
financování
##leně
##ww
našel
koncent
třicet
##lových
##kovým
##nička
pražských
všet
soupeř
reprezentace
Gene
KL
##ola
vztahu
zprávu
dcera
plynu
Premiér
využití
kapitán
slíb
##dič
televizní
chá
pojist
využívá
##čtí
##anti
administ
##stvu
2000
jediné
dveře
obo
dobrá
nějaká
ovo
www
Případ
ČNB
##řív
chlad
nedaleko
mateř
malých
Cup
CS
ori
zdo
Van
ročník
##hlav
rozu
Sobot
hlavních
Neu
sdělila
##rka
##ickými
infra
chyb
známý
Ústí
Čapí
čemu
chuť
silný
Spolu
známé
##vlád
povede
Hlav
včera
##ýká
##advacetiletý
šir
postoj
závaz
##nut
##tar
interi
boje
vteř
sněmovny
rovnou
subje
pohád
trati
##eném
správní
##ER
týdnu
smut
Group
##hali
venku
2009
Tyto
jedenáct
koaliční
členy
konkrét
Stav
odvolá
##ood
Dy
pole
Douf
stíhání
Nikdo
zast
aktivity
##atel
brankář
##stických
daří
lehce
ruských
Nejd
Flor
Rych
##nesl
Tepli
##ěh
činí
##lením
Ligy
trestní
angaž
##bek
veřejných
třiná
vychází
cítí
Vedle
hledá
##rova
získali
zbyt
společného
Liberec
En
hníz
aplikace
výbu
rozhodu
závěr
klidně
##ovatelů
budoucnost
vozidel
##rna
##stického
##rover
daně
naje
minulých
Bran
##oden
##ičku
##ovské
obyčej
odhali
domní
zmen
požáru
vedou
přechod
štá
vyví
prázdn
navrh
##jili
spá
lídr
dolů
##oři
##nuti
oboru
přednost
Tohle
Jedna
ledě
kousek
servis
##evrop
##žky
centrální
##letou
Open
jejích
##agu
minimální
ulož
neleg
realiz
povrch
Meziná
blog
současně
Hok
vydal
zpěvá
nepodařilo
zhor
Moskva
Tady
kre
pali
dokáž
keď
##šová
kariéru
Jednou
##ík
##hrady
státech
vraždy
opa
Dokon
##ovému
pozn
pořádně
1989
##ivé
Nejvíce
##stil
odvolání
dosáhnout
BBC
zkrátka
##onom
Dení
kav
##ťa
vymě
niek
tí
##áku
##táz
Finan
##ase
Slavia
Eva
naru
normální
##vahu
Karla
aktuálně
vrtulní
##dři
vyhled
Komet
připravit
dvojnásob
##stům
Mari
turnaj
##esla
kulturní
zpěva
vozy
pozdě
závaž
začátkem
definit
##lina
##hol
váleč
mláde
zločin
lyža
verzi
kanceláře
##ůvě
##zují
Českou
1968
vyvá
##bod
startu
zapla
předem
výsledku
koupit
##čují
##rák
změna
oficiální
Tomáše
termín
##ovacích
Země
argument
mezinárod
přidal
zvy
##top
klient
čtver
##set
letní
zaplatí
Šu
čeští
Gi
bab
sovět
slyšet
pokr
Nizozem
zjev
vyho
dovoz
vzduchu
akcí
planet
Sc
##ňky
##enia
Krist
Hru
fede
volbami
vodou
členem
ci
##obodu
Kateřina
Hrá
##áva
muzea
##ával
Tvr
##tah
rakov
svazu
sví
proku
fanoušky
objevil
rozhodne
##stická
Gab
rekor
Prov
veřejně
jar
Americký
čímž
shro
vyjde
##žilo
spoluhrá
běžné
##ováni
Skup
pokles
vzal
Bene
dalo
obvod
sílu
klá
rozpočet
°C
##sili
nejhorší
skvěle
výhře
vzpomíná
škoda
špatné
##tení
chodit
debat
##att
blízko
potvrdila
ekonomické
64
třídy
##nických
najevo
##cka
hovoří
Lucie
cizí
potravin
port
##krad
##eho
Předseda
posád
stupně
MF
vyhráli
pivo
venkov
##čnosti
##pol
částí
pořadí
Chorvat
Red
ocit
žádost
nenech
##átka
podruhé
hlavě
tomuto
fanoušků
oficiálně
musejí
##xy
sest
##žít
##ling
ově
Tour
##ůžou
postupu
tenis
zpří
##th
stylu
přesil
##avou
##tev
loňském
Ang
hovor
KLDR
většině
Google
##jším
důsledku
zaplatit
Madr
dostatečně
##nějšího
##štím
zvaž
##hnou
##erová
nejdůležitější
gu
Číny
uskuteč
Macron
##rné
bezp
novináři
zoo
##struktu
škola
promí
přel
hodině
zpí
srpnu
##bar
##zt
komunikace
tamní
Celkem
##ced
sebev
křesťan
Itálii
narozen
setká
im
působení
##ws
orgán
Tho
ukázalo
Bývalý
der
zes
##nický
pěst
Změ
kříd
vyjádřil
odchod
mobilní
dlouhá
odborníků
Lou
sal
##álne
Pá
Štěpán
Dos
postavení
potře
Lad
trpí
školu
##tku
nikoho
např
##pří
and
podporuje
povinnost
čelí
sle
##itím
hřiště
elektro
služba
klidu
speciali
polovina
řečeno
##áno
čtyřmi
prípad
novém
Ot
záležitost
Jedná
úsp
prokáz
přenos
Ab
pražském
příspěvek
uskuteční
Geor
##spek
čet
sezná
kal
odpor
ilu
demokracii
##vkou
hodnocení
##SS
vypo
manipu
Jinak
Am
##lti
##inga
dopoledne
poslanec
##žije
##kas
dostává
procesu
strav
změně
omluv
zrušení
ny
duelu
starosti
mim
Slovenska
poloviny
68
podpory
nedostatek
pravom
##ujícího
příbu
##ždění
vznikl
infrastruktu
vánoční
archiv
vzít
Gar
##vlá
Soci
řekli
požár
plány
Austrá
pomůže
umožňuje
Win
odpoč
název
třikrát
konkrétně
letadla
Kuci
budoucna
##pho
státních
Richard
sli
##leka
rodičů
Nikdy
zvířata
popsala
nesk
hospoda
víme
čtyřech
Město
stavbu
pražského
stejnou
udržet
zvíře
schopni
vypu
věde
navzdory
rozdě
##illa
demokraté
zm
drog
unii
Krejčí
##fekt
škody
##nské
prince
domácím
katastro
##sel
koncep
upřes
##chom
##ničky
pracovních
dosavadní
Žid
trestu
##chou
zaměstnance
ocenění
origin
2006
##brid
##stroje
silnic
dřevě
##fy
Jaké
velko
začnou
primátora
fig
##něte
skupinu
Postup
nebyli
podla
##hradu
reagoval
##spět
##itelný
Dne
##ris
reakce
zachrá
prefer
restaurace
poví
turnaje
##balisté
soudce
šla
PRÁ
nezbyt
dálnice
kariéry
fondu
Bruselu
##cin
nejčastěji
bron
vyst
##bytek
jednotlivé
##jmu
##orem
##řích
jedinou
skupin
konflik
##stánu
##střelil
přede
Stát
bodu
převážně
Plzně
##tex
##wa
českém
japon
řetěz
Bře
vym
lah
stránkách
William
dojít
imi
míry
sportu
##pozice
malá
kvalitu
zbytek
##gem
##zou
##chat
účel
##rej
styl
##mitu
##itní
zjistili
en
##vez
##tive
Ital
zob
podaří
##ovci
##šeli
##stky
premiérem
Angli
plzeň
penal
Náv
policistů
gólman
mlé
##lovou
vtip
určité
ocen
pokou
PRÁVO
##BA
##ans
Svat
povedlo
poby
Prac
pacient
vych
třetiny
##reag
##tace
odešel
draž
##vent
##hot
službu
nebezpečí
českým
Saúd
vstupu
dané
Cor
šk
Hasič
##seli
avšak
Pale
nejsem
repor
žijí
politickou
kamen
herečka
Již
soudní
stanici
63
##hlasu
zamě
##ovaném
##rozu
##dor
##pp
trpě
čísla
předchozích
pochází
Což
800
síti
##nova
##enské
Českých
##cházející
kluci
##hlédnout
ha
maje
blíží
titulu
technologií
##časné
symboli
##ilí
##vedla
hodinách
##ářů
dostatek
2007
operaci
jednoznačně
Chá
##istka
zavedení
##álové
nechtějí
veškeré
##ráb
záměr
tane
##lok
um
listu
vysokou
dosko
##stran
důraz
Em
tera
##inami
Svoboda
park
##anie
takovém
branku
slaví
ředitelka
Hokej
##člen
míč
všim
Podív
koalici
vhodné
nese
##ciu
vlaj
identi
nepřed
stavět
##cházel
120
podnikání
svobodu
Poche
77
pry
##něná
neh
vyplývá
zvu
častěji
předpis
byznys
projektů
manželství
Góly
Anto
##lis
opra
dest
akcií
Ven
vybrat
Merkelová
brexitu
Podľa
konstatoval
nespo
výsledků
##war
soubo
uvied
##telný
ukázat
##rku
##olf
Základ
pobře
Dr
výpově
komplex
probíhá
potřebují
##ávali
zpom
presti
62
domy
chyby
stává
##znala
##šťast
kád
nejlepším
spole
žebříčku
hlasy
raket
##adlo
snímku
potě
Vítkov
72
naštěstí
hodnotu
sedí
##ruje
Vojtěch
Org
##SA
Inter
orient
net
stará
budú
přináší
Kru
rozhodnout
192
FO
##říme
Původní
přístav
be
použití
pek
ohledem
maďar
##ano
##mání
inspi
##ens
momentálně
Vond
juni
vin
Úto
konzu
slovy
stadionu
medaili
##bil
poslane
takzvané
iP
##ier
##žují
Ježí
zvýšil
vojáci
naf
250
věnuje
##něla
ruský
##pětí
Afgháni
##lový
komory
nemoci
Alexand
pořadu
prospěch
##slanec
##livu
ktorá
kavár
současný
prohlíd
##produ
hnízdo
stranou
Bur
centimetrů
sněhu
důstoj
##běž
##hráli
modelu
dítěte
Michael
SR
Times
připravuje
bateri
##čtyři
tréninku
Pek
##ďte
vypadat
týmem
tie
zimní
náskok
telefonu
##rově
##izace
##ortu
premié
účasti
látky
organizací
Tat
samotné
všemi
hodnota
Hned
##pel
##cií
Někdy
##rová
##ránu
##kovy
Jon
vyhodno
Vždyť
##áda
##jednodu
mý
##ET
ali
Vladimi
##vist
Vítěz
rekonstrukce
##par
Hradec
dia
neznám
smart
vnitřní
##com
něhož
projevu
Fr
dvo
Marie
devad
Vlast
##ať
nakup
##lují
hrají
skutečnost
úlo
def
##domí
měsíčně
počítač
znásil
pohybuje
fázi
minister
Sez
moderni
severu
##ckem
relativně
zam
nabídky
říkají
sdružení
hlásí
Jar
dochází
materiál
##ění
Aktuálně
Sko
cestující
##stoupili
Fed
##žená
Ev
natolik
##mám
vyvolá
pres
##ško
nejrůz
psycholog
poněkud
Situ
koste
pracují
odehrál
přízniv
Jedním
překáž
rozví
Ministr
##lice
zařad
zk
##něním
##dělal
top
správa
pozná
prezidentských
porod
dozor
udělali
##had
Evropa
Radek
Chtěl
Mik
Mark
Polsku
facebo
vyzval
##šily
přestá
##jíždí
kryp
vozí
hodlá
představenstva
Člově
nejed
řídí
autem
jediná
rozhovor
Kop
vlastních
distribu
výhod
opráv
nádher
##dox
diploma
Snad
##óp
přej
##dám
nepřá
okru
dojem
čtvrté
náročné
bránit
díla
veřejného
slad
vystří
turisti
zvýšit
##ňoval
##enout
Donalda
kategorii
##rovou
##BS
Měst
##mrz
obrovské
rekonstrukci
char
nezaměstnan
duše
##tes
##hynu
otevřel
poznat
výzkumu
touto
úseku
neop
přijdou
snažit
Věřím
ge
kariéře
kapac
obrovský
61
ri
##aku
##hned
Les
skvělé
Jas
netu
uzavřel
obrá
trošku
dez
Univerz
##ney
Politi
použít
důvěry
##RA
přípravy
přírody
##obec
výtvar
pivov
kontrover
vzác
zimě
faktor
Miku
##nín
Hou
##álí
prezidentské
plný
vzdělávání
vybavení
Agro
rada
Fis
dostalo
kin
##itelem
Ol
čtvere
Lede
dokud
##jímat
manželka
tlu
znalo
bývalé
intenz
vlastním
Londýně
Marké
výběru
##KA
povedal
celkově
##káři
obsahuje
##ecka
stres
##pres
Rober
uspořád
Jí
zran
bezpečnostních
zájmů
virtu
úkol
předlo
dovolenou
##obily
zámku
spon
oteví
neuvěřitel
pohla
##čeb
nepat
fale
##EN
ono
investiční
moto
ruka
##ston
horní
jednoduše
vydat
##žitek
ostatně
##vet
##obu
nechci
každá
zjistit
vyprávě
ostrav
Arch
Bi
##esto
kandidátů
99
bl
##kované
majitele
příštím
červenci
##oba
##padlo
biat
kontaktu
Pal
##rád
nejlepších
limit
##KO
##tivy
bilan
konference
mnozí
odborníci
##obili
poškod
##čt
Dol
řádu
##noj
těmi
73
okres
předsedou
nárok
Druhý
##řa
též
lidské
##nického
používat
basket
kní
nabídne
Vr
sank
zdaleka
byty
okr
##ole
##stoupení
Mot
##šší
##ovského
Proje
Míst
pryč
##tl
konkurence
skóre
##rození
##itor
věřím
##arch
##kládat
Bank
šat
hrad
posledního
Veroni
Náhradní
##now
americká
procen
doprovod
Chce
pracovníků
dálnici
mírně
trvat
Či
Michaela
Čechy
vze
doprava
místopředseda
summitu
potřeby
částku
Němci
zabývat
##mera
##tud
Orb
spokojen
zelen
maso
případy
tradič
pet
##pem
patnácti
hejtman
vítr
jízdy
studentů
skand
úspěchu
piva
##knout
##onů
kamer
otce
divadlo
tragé
bezpe
Stále
onemocnění
66
fotbalové
##blíž
Podívejte
okolností
nah
déle
týče
správné
populi
##nuje
obdiv
koní
Harry
##so
##lilo
obyvatelé
Vů
poklad
triumf
Kvit
Nevím
popí
zó
##pil
stroje
věděl
##kční
hodnotě
Organiz
tab
##stickou
sekun
azyl
Celý
odpověď
uživatelů
kapacit
##jedou
Dokonce
dresu
Cena
hotel
##nky
rána
železniční
potrest
Pre
Babišovi
Čong
##sch
##átoři
radní
očekávání
76
nejsil
kolon
700
##čném
Poslane
nahoru
Řed
##IS
##inová
jdou
studia
prud
Obec
War
oku
ochran
obří
zákazníků
Američan
požadavky
Důležit
dohled
Děti
dokázali
pokoj
Mur
dám
Sm
přeprav
##mrtí
legendá
##oti
Odbor
nebudu
kanad
majetek
ep
am
čínské
podobný
##ujte
rozpoč
kontroly
diskut
brání
komunisté
Indi
mnohé
dovolené
rozhodčí
##mpat
##livý
třiceti
nesmysl
dvojice
67
##ation
objevila
##šená
zahájení
Mak
Divá
začátek
odpo
Fic
Mor
naplán
překro
##vědomí
Sýrie
or
místnosti
zloč
takřka
základních
zastavit
připomín
přípravě
krásné
plyn
produkce
nástroj
všechna
marketing
##čch
exp
##kázala
##tější
odvez
##centní
Čím
neom
pádu
##skom
##votní
iPho
snažili
filmů
Bou
Byli
sebevraž
Men
bon
##kono
##mann
kvalit
vidění
##vaku
##aným
posto
nemůžeme
neznamená
jižní
snímek
vlivem
text
##wag
zůstala
poled
dílo
viděli
Bost
verdi
mediální
##zer
Sněmovny
ochrany
Fo
záleží
Máte
##ble
##onali
##razilo
##právní
##NA
horách
Sparty
##cové
##taci
Apple
You
staví
##zat
technické
##eld
abyste
domácích
Domin
##udíž
nastoupil
##gh
##ráží
připomněl
Řím
vyprac
podpořit
experim
##bám
##žením
oblastech
unikátní
zneuží
mechan
seznamu
uprostřed
Čtyři
##říč
##lební
pamat
Yorku
připoj
nejstar
novinář
nejrych
případné
nezapom
historické
trefil
klí
##avu
Čechách
chybu
nešlo
platfor
Zlat
Trené
Cy
##tugal
Mexi
##nika
Barce
porušení
line
zážit
senát
Skupina
##nia
Aráb
Srb
loď
zopak
tvář
nezisk
##nav
##antní
odbo
##agog
##kují
transak
78
##elů
bronz
Cal
inkas
dají
##cena
Pož
koruny
Vide
dělal
zájmy
##tomě
přání
##kolik
metra
záchranáři
##yer
gólů
odpovídá
##pád
velkého
můžu
##esa
splá
desát
zabývá
##rám
týdnech
očekávat
lic
tru
##él
dopr
vyčí
dění
útoky
jemu
neexistuje
informaci
elektrom
##lář
jediným
ukončení
odstart
Spe
uči
ulicích
krizi
schopnost
modely
rostou
##ademie
##hové
oblé
mnohdy
##mála
dlouhou
##vatelé
europo
ideolog
Ph
Sh
uvedli
##kyni
##zela
obranu
studi
Bohemi
Babišem
manže
sezon
##ádě
školách
náhodou
policej
##kswag
potíže
schopen
úspěšně
##stříc
zasedání
bul
operace
##nala
Rusové
předvá
maxi
Super
místy
článek
brát
Afghánistánu
arab
současného
##čín
sporu
zjišť
##uel
neho
smartpho
##žených
jíz
talent
minulé
##skal
71
zřej
##posud
##endy
##int
obci
souboj
mladý
minulém
CN
turnaji
##ose
ošet
##elop
##vost
oběti
Hodně
##telná
výkony
cvičení
tvrdil
akcie
##šiř
Meg
Často
vyřešit
spotřebitel
příjmy
dých
##žek
náhradní
##řený
měnit
spojené
##ey
##zené
Národního
zákony
příštích
Dále
globální
sbě
##nická
##tební
šli
mikro
zvlášť
Zuz
##rot
objedná
Washingtonu
Mluvčí
oběma
discip
Klu
včas
##šných
necelých
kilogra
švéd
##icí
skle
Náhradníci
učin
zázra
politik
Pchjongčch
Vesel
sbor
##mád
souladu
běžně
Ředitel
##lají
vzdělání
moz
tisíci
osoba
lékařů
umožní
vyjednávání
Důvodem
Agrofer
transpar
pravic
změn
vyda
dávat
Jedin
Představ
vyni
vraždu
řídit
stromy
vysoká
Mezinárodní
##nižší
občany
fanta
Klaus
kov
palá
čest
pokutu
ruky
blá
##dro
zep
##dka
Svobod
Olomouci
instituce
propo
politického
vazby
linky
##bat
lidských
pokry
Severo
Růž
hon
Velká
příbě
Liv
##niku
Americe
##raných
využívat
##omě
hom
rokov
blízkosti
##žitel
připad
rodinou
stavba
nou
Nabí
znal
Labem
Rek
sáz
##leš
##dách
##teriná
řem
vidím
##tám
##měry
aktivit
moderátor
##leno
průzkum
rychlosti
##gas
termí
začínají
teroristi
rozvod
letou
okruhu
deleg
návrhy
Ri
vývoje
studenti
##wn
letý
dech
objed
Duk
Ronal
ušet
##čným
zabránit
Kni
Zájem
Tele
přípravu
natáčení
Žena
##šan
Kli
Lev
hrozně
##čeho
Novot
dřívější
##kupu
multi
Stud
##ivě
##LA
Volkswag
##nych
účtu
údrž
môže
fas
komunistů
ľudí
##mní
##rické
následky
jihu
Bus
videa
našla
Všechno
problemat
##kne
projedná
dcery
Mila
mraz
Vých
tradičně
jesky
vína
Vedení
koná
politický
počítat
přistoup
##vané
elektřiny
##EC
##řiz
tlačí
lodi
vstříc
motiva
severokorej
takovým
##ložil
doprová
sjed
okna
skončit
soft
výu
##arů
Nejen
Cest
ihned
##žena
##utná
napě
Gre
##žnosti
##enda
vůdce
konkuren
##erční
##moc
kultur
shromá
doved
úmrtí
##likt
##ráku
##řená
trhy
95
##čený
Ant
Nejprve
podpora
ambas
inspekce
Člověk
úsek
sankce
přehled
Blesku
vodní
hudby
##oment
štát
kryptomě
Kalou
maj
##lant
##HD
Mají
noční
voliči
následujících
Škod
prvky
Egy
##letu
neprav
turistů
zisku
##dic
výsledkem
ucha
Pořád
##éně
recep
nařízení
##ktoru
asistent
předpokládá
##idel
##nar
Gol
##morav
národního
kusů
respektive
přijetí
Jaroslava
Zdeň
utek
přírodní
snížit
kategorie
Los
evaku
##lali
naplno
výrobky
návštěvníci
FOTO
nemohli
válka
##rátit
Can
Rumun
Budeme
islám
Tereza
nešťast
skončilo
Gra
stála
Část
dohoda
čela
##rových
Reg
přední
##řák
pohodl
rozsud
vodě
kontrol
dceru
spot
##vajících
##též
Kri
zadní
##tolog
souvisí
poradce
Plíšková
##äč
##jez
úřadů
Karlovy
Cílem
politická
celek
kabinetu
remí
poměr
Nejlepší
Té
znát
patrně
chvil
klientů
##desá
dovolit
rozšíření
asociace
##nesení
uvě
odvět
vytr
specif
Cla
Šim
ministrem
finančních
Osob
##lala
Paříži
##IA
Chu
přizpůsob
##pen
##kus
usmí
textu
plu
##šovat
vypl
Meghan
poblíž
přil
hvězdy
doty
nechala
Hlavně
mluvil
zaměstnání
Don
##ille
Cha
nebudeme
britský
opera
Josefa
##sní
řeky
většiny
##adla
forma
vyrábí
nalé
prosadit
vědci
otázkou
střede
zlepšení
69
##niky
##iskup
potřebné
překvapení
složení
Litví
zpracování
dy
##ára
Kolik
Hasiči
přehlíd
průkaz
střetu
gym
specializ
propag
zrych
autě
81
Třetí
##gue
Staro
##slanci
sjezdu
vyšetření
##řeš
##ete
jasno
##něna
##atiky
##ovanie
rozšiř
křižovat
paměti
pochval
nákladů
##mav
##ůr
nemělo
nemovitostí
pô
nasaz
světových
##áb
##aném
Nedá
írán
##šná
záslu
##šela
ukáže
odmítla
zážitek
##asy
knih
migrace
rostoucí
fungování
##EFC
profesor
sněmovně
##udi
materiálu
opoziční
veče
City
##enční
volič
závody
##léze
maximální
Návr
kruh
##elka
profesionální
bolesti
Sla
##pala
##štěv
cestujících
##proti
Pardubice
##sadil
podmínkách
bla
nastup
##vedli
cizin
##tečný
vysoký
##gar
##dající
##pela
James
tudíž
obráz
bolo
Moravě
Uber
nedůvě
armád
populární
hlava
předvo
vlak
Polsko
vydělá
dětství
východě
pouhých
sexuální
zdi
##aněk
komunál
zabezpe
Výsledky
tráv
Pospí
celos
doplnila
adresu
původu
magistrátu
propoj
Jeru
velkém
důvodem
problémem
provedení
##ráže
vyhov
CEFC
Kost
nechali
formou
kurz
##zeb
osobnosti
nabídnout
##míru
využívají
koord
##desáti
dotá
děl
##díl
automaticky
diplomacie
filmy
vlasy
knihov
mohu
migraci
soupeři
Hel
##och
stovek
Napo
muselo
##IC
vyč
##noucí
důležitý
##kalo
##líme
silně
##bert
zaměstná
zdůraznil
vice
takti
Otáz
##běžně
obyvatele
Jindři
chybět
hygi
pacientů
aku
##oevrop
Ostatně
sl
změní
2005
jídla
##skup
diváci
vztahů
##nula
##chař
Vánoce
potenciál
##šed
lékaře
##gnó
předná
metropole
Krem
hospodářství
viac
architektu
bratr
říkám
ukázala
velikosti
lek
poste
##isíce
důvody
výstavy
Blog
##chra
zásahu
##telně
držet
barvy
kancelář
městem
##počátku
prodeji
vrátila
muzeum
chla
Insta
Hradci
SE
rozhodovat
soukromé
preto
##adi
obrat
Liberci
##nku
##naj
Léka
zhodno
##liště
bytě
design
prozradil
##kační
přiví
190
##ristické
formě
Bol
stránky
Madrid
##roční
podobu
zmínil
pochopitelně
růž
##řice
Zemanovi
návštěvníků
##wer
Chci
povinnosti
Vyplývá
Rov
hř
##roval
##leji
večera
dívky
##letr
prostory
třetině
Vlt
angažmá
prostředků
percent
Sku
okra
potvrzuje
2004
##pádně
osv
přijmout
doktor
hvězda
zázemí
Poprvé
##íra
matky
fyzi
zkušeností
maximum
84
prezidentovi
##zací
nastavení
okup
podal
Velmi
domova
knihu
průmysl
Exist
mandát
hů
##fon
letišti
Ruskem
branek
atmosféru
Následně
##cený
##vateli
##myš
ohlá
výjimkou
polí
odboru
##strační
jiní
novič
##praví
##cházelo
Islám
Vrch
tat
kvality
Řekl
Rád
htt
##lic
mrtvých
jel
jsi
přihrá
##líte
šedesát
tich
trať
Příbra
rychleji
##éri
Dar
##kaly
Invest
##ývají
##cion
techniky
##ůh
plno
médiích
jednotek
zveřejnil
napětí
Sig
##lesk
nekom
odejít
Pit
zákazníky
slavnost
Inform
podepsal
rozlou
##bude
##klada
extraligy
##enek
malí
Součá
švýcar
##itka
##okrati
širší
##plá
slovenské
BM
spal
Naštěstí
republiku
třídě
vývoji
podiv
vědí
nápis
hodnotí
##odár
stanic
##und
osvět
komed
záchranné
někomu
vedla
pás
investovat
Past
devadesát
##caj
navaz
Hus
nemys
uklid
##ánek
Pala
zaru
bitco
rozvoje
nezvlád
událostí
##kův
strávil
námoř
opravy
##běhl
Domá
74
##pež
odhod
podporou
levic
Karlovar
výrobě
úvodní
isla
nek
slovenský
nomin
Turecko
vypro
zahrá
připomí
Ková
hro
##iller
##ejme
HDP
##pek
sekund
Ivana
bili
uhlí
návštěvě
reprezentant
Sams
černo
klasické
hodnot
##líbí
podniky
smrtí
vyžád
Frý
##cuje
bojovní
zlato
Dvě
německý
Prostěj
82
DNES
ekonomika
ulic
sloužit
dráhy
zpochyb
konfliktu
francouzské
nazvan
##ania
kauzy
místopředsed
AF
Zo
líbí
Zvlá
Matěj
přezdí
oživ
Ček
alkohol
Předpo
Moje
dotací
zjistil
Argent
##leného
lite
karty
Erdo
Doufám
Součástí
##ěli
Hua
obor
Původně
Blí
zdejší
Moni
akcion
pořada
Připom
komunikaci
online
ind
Své
##org
důkazy
tabulky
neschop
vypráví
utká
těšit
##eri
převz
uj
##váte
praxe
dikt
metropoli
##anem
soubor
narodil
dělní
řidičů
dnešním
##taj
##gor
maminka
stejném
Mayová
čast
pohon
ovoce
Diváci
silnější
##ida
produkty
ministerstvu
Jir
moři
##ičce
neuspě
nejm
důležitá
dohodě
##ložení
podobných
Tý
##každ
mini
zpráv
úvodu
Stačí
dvanácti
skla
Jakmile
##witter
detek
místem
##board
dostaly
##ínek
olomou
Američané
někam
bank
Pen
bolest
raz
filo
černé
tváří
pobyt
metru
matur
nestalo
Beneš
##chest
##los
justi
nedošlo
vysoce
Video
##pení
odha
knize
vdě
##teb
##cest
kres
##skoslez
##řeny
##ľad
nevyu
producent
konzervativní
Hnutí
shr
domácího
##každé
netr
hlasovat
systémy
meteorolog
spolupracovat
Okamura
IS
Pět
malou
přepočtu
ukazují
Svě
Šest
##entně
problému
částky
Res
##atoli
skvělý
okamžiku
##lovi
Sněmovně
##muje
##tečná
##šíme
populace
Lá
zjištění
těle
88
desetiletí
složité
dres
##ropu
##inský
##tání
měsíci
lhů
jet
##jedině
sý
záv
založení
nejist
druhů
dobou
Veli
surov
##koviště
automobilů
umístění
##fie
Můj
zaví
výhled
říkat
pobytu
ešte
zbý
Boj
mysli
zvyšuje
ponech
nepoved
jistotu
##mus
##diční
biatlon
zouf
##zvlá
Musím
Těž
tajné
Zku
Zav
##áček
##rovat
přispí
##formace
##ouště
týmů
italské
udr
##šim
nadě
doposud
dneska
dokumentu
zmiň
výdaje
##alán
oblastí
Zna
doporučení
Dodal
pódi
05
86
soudem
Rakousku
Evropskou
##stou
pokračoval
Jaromír
kombin
Bulhar
vyboj
Jaký
uchaze
skří
krajiny
ceně
vadí
##kvap
hosté
##stají
##meny
změnil
spolupracovní
##ben
##ovně
jakých
##vého
##bran
##čnost
něčem
objevily
##ózní
Jeruzal
##stěh
Rudol
odpovědnost
##ingapu
Pchjongčchangu
porovnání
postavil
výstavbu
IT
##nuté
předchů
Huawe
Lub
risk
Měla
inspir
##stka
Později
Thom
druhy
ktorí
Eur
otevřít
prověř
scéně
##ins
zřejmé
out
vlastního
evropského
##alizaci
používají
tole
odstup
##bral
##něného
narození
dostav
taxi
##bylo
vyšlo
Evropu
Veronika
opustit
pova
žil
spách
řekne
nabízejí
občané
83
Ram
Kau
kráde
bere
organ
##lona
##rim
Prof
nestačí
výhrad
##šenou
britského
Hum
jih
hvěz
druhu
můžou
##ávám
poškození
##IT
nějakým
junior
veteriná
bavit
pojmen
léky
medicí
definitivně
##ždě
pokračování
zří
nízké
79
ztráty
##klí
##dky
Komuni
Dou
Ker
##árně
známá
pomáhat
##elem
##ité
##silí
Pirátů
nemohla
komentovat
ztrácí
##pera
metod
pracovníci
vesmír
Malá
připsal
##redit
žada
mužstvo
Dvořák
napříč
snaha
medaile
Tře
odpůr
vaší
přírodě
Kos
klesl
lan
jmenuje
nefung
miz
daní
Průměr
cig
##iteli
bojí
aktivně
##vale
##sudek
Pov
padesáti
manželkou
domácnosti
put
přivez
Zak
##ženou
Film
##zka
volit
novinářů
fó
rychlé
zkon
obe
vysvětlit
jednalo
Lenka
organizaci
prohráli
##éma
Michala
##pání
vydala
##ičtí
Čas
Chod
popla
tlaku
stromů
##etnam
digitální
existují
uprchlíků
jakého
budov
Markéta
van
osu
migrační
ústavní
kapely
##čeno
zaúto
ropy
2003
liga
##padl
ztrát
dávají
součást
stopro
detail
zlod
vysvětlila
Hit
##řík
omy
Projekt
##sné
##iel
češt
medzi
záložník
Bak
příbuz
brus
pobřeží
rozhodování
následující
Miroslava
human
slune
šaty
založil
mých
učí
##AR
krátké
##irurg
boli
##sche
potká
vlaky
energii
zastupitelstva
87
##čová
kontin
areál
##ěla
##dík
dole
mluvčího
otevření
trénin
hrála
slibuje
nahradit
Boleslavi
##rný
uví
žádosti
zákonem
stránce
chyba
aplikaci
##AM
konat
Karvin
##émi
##ló
##ktem
##vač
##kázali
přístupu
Aleš
##vaný
Polska
ovlivnit
pojišťovny
kó
postavy
##čených
denní
interpr
nabídka
zbytečně
vysílání
nebezpečné
Bratisla
suver
##něnou
Horá
Cam
hrách
scény
##hopis
vyšel
smlouva
grand
2002
diskuse
náraz
Novák
srovná
prohrál
##měsí
věděli
nevý
Tou
##rami
Součas
prodávat
##šu
návštěv
Smer
Tř
výlet
stálo
starý
Far
zastře
ostatními
stíha
alternativní
uch
##alup
##luvy
Drahoše
Ali
pne
boku
světového
schopnosti
##áš
##hová
cha
lidská
Moc
zahradě
vysokých
reagovat
investic
Ovčá
Tran
linku
##mách
každoročně
odpověděl
vědomí
Isla
cla
##äť
naději
značně
posléze
doufám
Zde
značka
vyčer
fotografií
benz
zajištění
situací
Londýn
89
Kot
Samot
Manchest
ztratil
Fu
George
šancí
Nemoc
##AS
plochy
ident
##stev
Dalším
pobí
pale
diváky
cca
ská
partnera
##izaci
disple
zrušil
konstrukce
přístroj
Davida
zaznamenal
##áte
##něk
zemřela
dlouh
Šlo
##inací
zahrady
doplňuje
trápí
odškod
výstup
rozp
incidentu
nasazení
odsouz
Pau
gig
skončení
euroz
##ňující
rezign
MHD
povz
konkurenci
čisté
##stral
##álem
##dář
##tami
produkt
kompletní
Hana
samé
##abili
stolu
mimořádně
rizika
##livost
Mir
ženou
##ardi
třetinu
voliče
jaderné
asistencí
zaned
optimi
motocy
##tové
inžený
palu
vnu
Moto
paradox
Orbán
##ass
dějin
přelomu
##ED
vydě
zdůvod
záznam
obchodních
##grafie
návštěvníky
cítit
přijel
kandidáta
snímky
vypadalo
kniha
##jan
##OS
zůstávají
úpravy
nejnově
oper
Anna
dosa
volné
Ameriky
##cházela
koupil
bra
sex
týkající
podniků
duchu
teda
zásadně
nemovitosti
Krát
porazil
známo
majitelé
platy
130
##tok
hoke
hostů
soli
pořá
pohř
angličt
slep
##onem
##érů
nakou
vzkaz
sezona
hledání
komentoval
soukromí
Vil
sektoru
nejnižší
grandsla
Ceny
Vod
hně
##lými
trestné
Dal
##hnat
##romi
informační
všeobec
ojedině
zpravidla
##vice
##vejte
inde
Klá
##žu
##čne
přiznala
pohybovat
Sovět
hold
##imb
obchodů
krou
Slavie
kombinaci
##níček
cyk
skry
Měsí
##kyní
matem
nějakého
čistě
dnešního
Hil
zahynu
##pul
Zajímav
světlo
Trenér
01
vina
proslu
vypoví
pokle
Ren
Tentokrát
dřeva
##spodář
Uher
##artou
psychiat
návštěvy
sazby
rozli
místního
partnery
rodinné
Manžel
Volkswagen
celosvět
návštěvu
liší
neumí
okruh
##šev
brexit
zvě
prodává
##lák
##gazí
Letoš
soutěží
##cvič
masa
Andrea
rozhlas
voľ
##vení
Mnoho
naps
automobilky
Ačkoliv
##ream
plus
##dlí
Maji
AFP
kritiku
brz
nimiž
zálo
nikomu
studenty
##brž
##livosti
rý
##mět
##ajn
Festival
nesku
Ladislav
val
dodat
pokusu
Poslanecké
##nální
migranty
páte
bola
koně
Zákon
##ivý
Návrh
##nují
čekal
fáze
ukrad
zjednodu
silnicích
Nečas
německého
restauraci
nejsilnější
Opa
půlno
##tisk
léto
klasi
##ákem
zajímá
varuje
zakázky
Huawei
kriti
##sím
nehoda
zastavil
##loni
výpad
štábu
Kvitová
zlepšit
##jo
Celsia
příjmů
Krit
bílé
Vysok
uplynulých
Amaz
varianta
Host
prohlí
manželem
vicepr
develop
jimi
##odob
koupel
bankovní
šok
páté
severní
reportá
poslance
Karolína
nelíbí
paramet
časopis
vytvořil
et
připraven
německých
kompromi
kritizoval
podobného
závodě
##ologické
##gramu
Třin
Nejde
##seň
Než
##ts
dostávají
Zdá
##obi
záchranu
Mladé
##ovosti
potraviny
##cených
##entální
##bili
##atená
tramvaj
malo
cigar
##ála
##burku
propagan
krve
reprezentační
Col
Řada
neboli
líčí
Eri
Sem
##rativní
##anech
způsobil
starých
vytvoření
přesvědčen
cu
zkrá
##dku
bli
Republi
Jablonec
##šena
##nomi
prvo
mozku
##ome
čoko
rekordní
třetího
upozornila
dokumenty
##rchu
lesa
Středoče
hli
troji
londý
##rist
fondů
##ere
jasný
##asu
kontex
trvalo
otevřené
třináct
##wal
dominan
Lib
zbraň
izo
##běhla
Rada
dosáhl
záležitosti
Skripal
Ukrajině
##zační
##sona
jedineč
demokratů
Izraele
střele
vyžaduje
Íránu
odvoláním
objemu
místosta
##dav
dívka
školní
vznikne
##úspě
##tálu
pozemky
ný
##NS
devá
příběhu
pilot
tiež
doru
Lip
Bed
vzd
přesvědčit
Provoz
lodě
brankáře
ozd
výroba
hrub
SD
Čeští
důchodu
představil
##komuni
##ádza
##skočil
považují
##astav
neut
##lací
brut
mezd
fan
##lera
zástupců
##mec
upřím
Jes
stavě
vzniknout
obžaloby
##livá
obslu
premiéru
scéná
Návště
Gal
jednak
los
pracovi
Domácí
##rnu
prodat
režiséra
##évod
přišly
Pospíšil
olympijských
boty
bojuje
terénu
Ukrajiny
naděje
patřil
zákonů
ohrom
bezprostřed
stanovisko
vyznamen
dobrod
anket
zvlášt
generálního
##mest
minutách
Ká
sleduje
holč
hledají
Roberta
nále
zdro
potá
Fotbalisté
Toron
skal
charakteri
čtverečních
Potom
vzhled
magistrát
Hal
jád
mistr
puk
čtrnáct
modelů
Pelleg
fra
osobnost
nepochyb
menších
království
Spí
vším
Zda
##MS
pravé
světla
kilometru
Čtvr
##amer
##átorů
vle
##dila
##iela
##usu
témata
přinesl
porazili
##inem
##elou
##ladel
sympat
diskusi
Moskvě
Bartoš
Kul
úsilí
věřit
Oh
Troj
##ovny
Cupu
Koz
sestavě
##mější
Takové
Zdroj
bydlí
Králov
žiad
Libor
národa
monitor
dokážou
domin
promluv
duch
Juli
znak
vládou
Národ
francouzský
spokojený
kolegové
učit
obliče
literatu
zvýšila
Jer
uvedlo
Bílého
seriál
pravomoc
Brazí
firmou
zákonodár
nýbrž
Jun
Ostravy
pedagog
spat
protesty
produktů
referendum
Up
úraz
##jmy
##ware
každoden
špatný
věnoval
nesouhlasí
útočníka
Kol
##ití
GB
##jistili
Druhá
Gott
##apa
##něny
zvýší
možno
výroky
priv
Angeles
Nat
nedovo
Mni
##unda
gólu
labora
vynikající
##kovém
oběť
logi
těžce
Fakul
Dis
##ng
výborně
Vždycky
nahraz
Muze
zveřejnila
bomb
nynější
věk
Portugal
zemřelo
Chtěli
Bos
orgány
volebním
Tým
tržby
zvláště
podnikatele
odol
značek
verej
dluhopis
##hen
klíčové
Cap
Jist
komik
##ker
vyhra
##vár
##telství
Lar
zachránit
SU
cestování
Slez
dl
Real
obran
středních
souvise
zaklada
pomáhají
vrcho
představitelé
zobraz
Ide
NOV
kob
měste
třetina
180
zákazníci
doplň
tabulce
Il
##anec
chyst
atd
zavraž
Nedo
Fischer
##čena
##šejí
tej
ul
integ
vybral
módní
##ovkou
překvapivě
vozidlo
Jestliže
Singapu
snahu
otrav
Budou
##ničku
Ther
vážné
levnější
kilogramů
ap
mise
bun
dětské
Lin
mezitím
snadné
jede
klesá
##ovanec
nasad
tvrdě
Oprav
kým
tenhle
vlaku
hospodářské
nenávist
Olymp
zh
##sport
nepř
Slavii
extrémně
derby
jakékoliv
Mana
podílel
vyjádřit
znamenalo
známe
výrobků
Ilu
kluby
prohlásila
##esátiletý
##opo
##atřicetiletý
Mit
##cování
##toru
letu
pohár
zah
osobu
Ind
Náš
albu
kabinet
Sá
##riz
##ovanější
kartu
rozsudku
##skupení
výhodu
Chic
emoce
úva
##ovská
půdě
##hách
Patrik
Nig
cm
ošetř
##lily
##nuli
ovlá
bývalá
debaty
Deník
##šer
plod
líto
Mladá
Úste
##nickou
ubytování
##emp
ligu
1998
regionální
pohlaví
Ci
##íd
##zky
vesmíru
##AL
postaví
škodu
ház
kritiky
GI
zamil
Nově
odsouzen
Nevid
stíhan
navrhl
penzi
06
##lumb
kot
nepou
Valen
fakulty
výhradně
##áváme
dla
##ovanými
Sky
osobností
liber
nesmírně
atraktivní
Ly
ničem
horo
lásky
agentú
##osexu
##rály
žádá
současných
Rozhodně
Maďarsko
veletr
ekonomiku
kontrolou
snížil
Asad
útě
##fil
##ryně
Vyšetř
malého
narazil
Situace
nejstarší
##icemi
jiném
Motor
##kodob
senior
CDU
jízdu
jara
tradice
Stanislav
projíž
oblíbené
odbě
záru
spolé
nímž
příběhy
odhadů
##organiz
##čování
důklad
fotky
Dev
kondi
Petro
opravd
držel
##ratší
News
konflikt
myšlenky
stali
##neho
Post
snaze
Vůbec
míře
léká
vyplá
jistý
dokázala
Fico
##fal
##reb
Procház
málok
vytváří
beton
dopravních
ředitelem
výstavby
navýšení
##rchest
nesmě
uvidíme
##inový
anony
volně
sociálně
připraveni
záko
dezin
##vik
zažil
##kládají
Fre
hekt
víte
zvolen
##řazení
musely
blízké
brněnské
zadá
trasy
elektrárny
##IE
##ademi
rychlostí
zakladatel
Letošní
urych
pověst
pneum
noviny
útoků
dálnic
har
nevadí
Zemanem
##denní
trestně
##ender
vyhlásil
požádal
##enku
sestra
##ont
##jením
finančně
komunisty
fotbalu
jihokorej
##ičkou
Evropského
výrobci
FC
parkoviště
zmíněné
DPH
schůzce
##grace
schval
Velkou
naprost
zprostřed
významné
přinese
vítěze
Lan
twitteru
##graci
rychlejší
partnerem
Blo
Zlíně
ub
##jně
##čkách
budově
Barrand
udělala
900
neplatí
##TV
vojáky
Guardi
91
nejsme
detaily
neštěstí
##ozí
volný
psát
teoret
přestěh
potřebujeme
Mes
NBA
celku
žádostí
odev
odstran
zpěvačka
##ající
výc
##cházeli
smluv
slovenského
Zuzana
##rini
látek
funkcí
Pě
##čata
dozví
mail
Sprá
##oboz
##ánské
daňové
Mad
neděl
rybní
odchy
Max
letadlo
neobvyk
předpově
městských
přiznává
OK
metr
##střel
Mont
##zav
Maďarsku
spisovatel
Zprávy
##zimu
vámi
reprezentaci
##zie
stížnost
miliónů
gymná
BMW
##žný
jev
##kum
1990
bak
##loží
přírod
slíbil
##ovců
krajské
Nechci
luxusní
uviedol
kvó
vyf
##ovacího
podporovat
Starost
##obí
hodí
jinými
potřetí
CSU
dok
obsahu
odlož
Jágr
hudba
Zby
rozsahu
Fiala
Há
budova
nákupu
policisty
##CO
2001
Afriky
##álka
domácností
##mel
univerzitě
účastníků
Pastr
pozd
##sey
pomohla
analytik
hřbit
Kun
##odě
kalen
mem
##nané
loňský
samotný
ztrátu
Hlavním
rostlin
08
Korea
vyrábět
jeze
poskytuje
##něli
##amin
Doprav
krab
drah
pečlivě
ochraně
##pov
podstatně
referenda
mládež
zavola
změnila
zbavit
našt
##lot
Naposledy
provozuje
uvidí
##jímají
absur
letecké
Faltý
Blan
klienty
##lka
GIBS
Vím
Noviná
navštív
komunálních
Histor
kyber
žán
nedělá
přijal
Peli
směje
testy
analýzy
hosty
Asociace
##toch
##tečnou
národů
Zákaz
Naj
osmdesát
kompet
Kod
poky
##eslo
vyšla
podpoře
Nym
magazí
hmo
vteřin
##OL
Zástup
obchody
ohroz
funkční
lodí
odvětví
usnesení
obrovskou
znamenat
skrze
##žto
svěř
Vegas
zkra
kolega
Jihlava
##ami
víno
##čela
Ger
kříž
##tef
Žiž
##cú
nezmě
hudbu
zjistila
##item
##ónu
Takový
uzavření
##ize
##nuto
Brněn
Kolem
trestního
získání
vyzkoušet
trzích
objektu
vyhrož
videu
##kři
2021
vzduch
##imbled
Vary
soudy
panel
ostře
##BI
Výstav
válku
zaslouží
pěkně
Rat
##nese
členských
vzniká
doporuč
komunik
Ženy
Rakousko
virtuální
Nova
výstava
##landu
záchranářů
designé
Hen
Oproti
fenom
Phi
hnutím
pokaždé
investor
eti
Šlech
ref
působit
taneční
##gon
rozporu
trénink
materiály
intenzivní
92
lob
zkom
súčas
nejdřív
podzimu
Autom
vad
manžela
Gaz
advokát
##roid
fotoapa
mladík
Lud
##lejí
##haz
##ford
herní
opatr
##inek
##eze
Putina
1000
##ella
oddě
představují
myslet
odě
najdou
příjemné
nominaci
čtení
využil
zabil
předsedu
divadle
zvládnout
příjmu
dlouhý
autonom
pozoru
dokonale
dodávky
dveří
##ovkách
chránit
##udr
##advacet
Spor
##vami
incident
Oček
připadá
Alena
slunce
nabídl
##rambor
Kalifor
samoz
Ako
tari
tuhle
vyřad
čtyřicet
vysvětlení
potvrdit
##řídí
jejímž
cokoliv
informá
##eolog
##žoval
bene
Čín
chirurg
půli
##ago
Občas
Havel
úst
##kými
##bírá
nezab
používání
zlom
zpěvák
Pred
samy
astro
pozemků
Zdeňka
vlastnictví
stret
vzala
jab
##sticky
##kojení
favorit
hub
##klon
##char
měsíční
Janda
Koreji
vst
Takhle
čtvrtý
opo
##vníci
agresivní
Pellegrini
##ulý
Gala
jarní
homosexu
##řských
zajiště
##cená
##hoten
##štěn
##hraniční
hradu
Několik
komunistické
Barbora
##šených
##inásob
převzal
Červ
úspěšný
##nutie
spory
##alog
císa
ikon
##žívají
sklo
vrátili
kvalifikaci
used
strá
státě
Berlíně
úsměvem
pest
##átem
morav
státem
só
##řát
dorazil
obsa
smet
závodů
větších
rozhodující
##erpo
německá
očima
seg
volba
vyhý
krátkodob
tradici
nástupu
Dyna
podzem
bezmála
miest
ostatním
Rou
projed
vyhod
##sů
přicházejí
britská
úspěšné
Dole
##pky
##čák
pohodě
očí
fyzicky
charakter
bři
turisty
tlakem
Dub
Kup
aviz
##otva
galerie
nepotřeb
Většinou
Dvořá
##OVÉ
Každá
Bohemians
hory
##ril
##jízd
##dejte
hrade
sedmdesát
šampionát
silná
Rež
částka
Uvid
vydrží
##ardu
##padla
pražský
kampani
##šují
##šík
poukaz
Krymu
##iaľ
dalšímu
olympijské
obrovská
schválila
potrvá
Ves
##covat
nádob
tabu
prosadil
https
dopadne
oslabení
duševní
krajského
objevili
1948
Kuciaka
Av
##šnou
vyjed
klubů
Moravy
mezinárodních
hospodaření
##škem
trestného
Para
strategie
##rona
navštěv
zrušit
ozbro
Jane
##ňovali
dispon
vazbě
prípade
některá
vybírat
personální
doskoků
Univerzity
žádném
United
##PS
Paříž
Karlových
individuální
cir
rozděli
solid
vlh
projít
staly
##vaj
zájemci
Moravskoslez
řez
##ovec
každým
americkým
institucí
neděle
aero
souhlasí
líb
přítomnost
háj
07
vyslech
politicky
srov
sprin
komfor
Konkré
naučit
dynami
komunální
církve
vit
Kongres
interpret
##šeně
prošel
pokuty
Každo
zvá
stříbr
jídel
dělali
letadel
Europe
1918
Jez
těžší
##ira
##čnější
##nau
líd
##rich
síla
vypově
hokejové
Philadel
LID
tend
stejná
toleran
nezas
modré
nikde
hloub
CZ
ude
výhra
zneči
posílení
zraněných
vzrostl
##dl
vyvr
chová
vidíme
historických
Gru
Jem
##čků
dluh
extralig
humanit
Zí
fajn
jo
##číme
pardub
##ratislav
snažíme
##enec
vzbu
neměly
zákazu
DPA
filozo
Zimo
půdy
žalobu
##enka
110
Víd
vesnice
stopy
Zhruba
##ider
příkaz
odsu
myslel
spolku
Ester
##ret
nadá
měření
such
Velký
demokratické
soustředit
##omír
osobního
Philadelph
Kad
Mic
##stojí
záběry
##acích
##ally
správný
##INY
##TE
##OH
prozatím
ostrově
Oni
##ovést
brý
dotaci
Samsung
nabídce
vzápětí
##wy
zjevně
##ženo
##avil
přeč
snažila
posun
starosty
##ůjde
opon
Zdra
Spartě
těmto
##řský
##ons
##ube
šéfem
autobusu
umělé
Vala
srovna
Senát
uva
##něno
vymez
##ount
efekt
známých
varoval
Zad
přínos
Obchod
různými
stěh
katastrof
Istan
hráčem
##armo
šikov
sníh
údo
##nových
odstav
Začí
čtvrti
podpořil
sval
procenty
nedokázal
veľmi
##kot
poznám
povrchu
##ality
převod
divadelní
##jek
přijímá
vlasti
správce
tribu
Malé
příspěv
Fab
řeči
pokut
Moskvy
milo
bývají
bezdom
tématem
demonstrace
Ona
##anová
odpadu
policaj
označení
vystoupí
poloost
zavraždě
ští
##žbě
dědic
pozadí
nahradí
popula
Sociální
zareag
Program
tématu
hád
##trá
fungují
nacionali
setr
##myslel
Ilustrační
##čená
zítra
dražší
West
Rakouska
byznysu
Erdogan
úmysl
##igna
firmám
##ies
dočasně
##ckej
nedostal
Americká
Vítkovice
Seznam
Energ
klo
##lum
expert
ukončil
brány
##tec
kůži
dobrodru
Hej
nosí
Pražský
ačkoliv
##UD
##myslet
devatená
Téměř
koč
posud
přidat
##orní
náhrad
##kovič
box
atmosféra
bor
vyrost
Ačkoli
Bre
Vin
##plej
##alisté
skutečné
bloku
ký
podél
právník
Smit
plní
ženě
##olven
##tré
zanech
Kav
nesti
majú
Karv
##que
inteligence
písně
generaci
sud
nada
budovu
predstav
výzvy
Play
opustil
zlín
zóny
##vatelů
kandidatu
Grand
##chů
zatá
Zápas
ovzdu
odborné
Jihoče
revoluce
ska
It
úc
##ss
Analyti
legendární
psal
svědomí
objevují
mm
##škol
studií
otevře
neviděl
předlož
kontě
větším
nevěděl
##ardy
dopravního
evropský
Soko
NOVINY
##řství
##chvat
##lyw
radí
ránu
Austrálie
LIDOVÉ
objas
okolnosti
kvalifikace
Můžete
krev
masivní
navrhuje
hrdin
Blíz
Monika
příprava
##likvid
nedaří
##inovou
parti
lát
##ôr
##niť
podat
Právo
studiu
nevidí
svědčí
sobotní
Tri
snow
sklon
##teľov
výšky
Liberce
Eli
##řek
##vůj
##čkami
sídlí
seniory
dopravě
značné
šestnáct
určitou
##nést
objekt
vrcholu
Merced
Sice
Člen
##áže
##antů
příčku
člověku
Dukla
variant
afri
Rudolf
současná
kauza
graf
vyskyt
pokusí
Austra
##zkou
osvěd
kapacity
debu
##vník
##lement
krajských
výdaj
##stál
vzali
trase
příchodu
StB
průzku
chlapce
pocity
02
představu
##mito
##tovost
vývo
pádem
Mist
kmen
##tých
Kiska
brambor
sf
##ávala
##číst
každému
trenérem
osmifinále
kouče
##ženého
Ledecká
sjedno
otázce
pátrání
Šaf
##pustí
dívat
připravil
absolutně
##razily
scénář
spraved
narozeniny
imu
##gran
kvalita
označuje
Číň
zastupitelství
Koreje
Iráku
##kladů
##chání
časy
světovou
##ves
vylož
Branky
Liverpo
americkou
členství
hybrid
sazeb
##verné
jakém
ministrů
architekt
uděli
ľud
těhoten
výzvu
Veselý
##nesla
líst
Agrofert
austral
Především
samotného
Nedávno
party
zákazníkům
uzavřela
zajímavý
silni
##hlíží
mes
stred
kuchyně
Sněmovna
Peníze
Pozor
volno
nerv
Byly
navštívil
##oné
výhody
výnos
Francou
nepochop
výkonem
stupeň
Thomas
hrob
nezí
Topo
spojit
Adri
##jímavější
Tes
##žem
##ovanému
Společně
přinést
redakce
bari
zvyšování
vyhnout
šíří
##rované
pozastav
snažím
dostupné
brig
necí
ofen
značku
Běl
pozemku
Nebylo
Mráz
shodu
vévod
##slov
svojí
autobusy
Wor
kated
oslavy
mzda
##way
prád
přeh
sebevědomí
Vstup
bot
šoku
##isko
Nehoda
podobná
nohou
vzniklo
Agentu
jízdě
zma
##cech
minus
těžký
kritizuje
Black
##tak
vysla
volej
starších
životem
Vzpom
pobočky
poločase
Št
chovat
vaši
97
Plán
špin
odpovědi
Světového
kůrov
výživ
kamery
velvyslan
Blu
Cu
##těte
##zeli
omezit
poskytnout
Sedm
04
zása
ruská
jazyk
nedělní
podně
Fotbal
dočka
využit
loňské
vystud
nepatří
Svit
haly
##práv
Prague
Minulý
šíření
Serg
ústřed
##med
##štěné
materiálů
Důležité
Pon
##ejmen
infrastruktury
tmav
pořídit
##istům
Ekonom
nějakých
experti
zahrnuje
##mlou
##zová
písem
prst
platů
Johan
ublí
vinu
Libere
znič
##hna
dolní
vej
Teprve
životy
Bob
GDP
ign
##rn
Abs
Hub
##škou
##ativ
dosáhla
Antonín
bed
Františka
Izraeli
Nel
##šeno
stavbě
skončili
filmové
teplota
Fa
Rud
zazně
##hající
##itelé
Strý
témat
klesla
bezpečí
##OR
##ticky
Krč
britských
##atý
##oder
##avý
Vyu
Johnson
odch
znepo
zavaz
říkali
lídra
Sama
kurzu
GDPR
##zl
kontrole
vlna
jmenování
Hospodář
zmír
sestavy
chat
běží
atent
nákladní
Švédsko
Egyp
podmí
muzik
nejrůznější
kostela
nahlá
##sela
přeje
krku
Nepo
drobné
spolehli
##mutov
Ozná
Ťok
Mikulá
Glo
tito
fotba
zkoušky
##ôsob
něž
developer
##stein
zápasem
pomoct
eleg
vlivu
##tický
##hlížet
šetření
uskupení
vstoupil
Jack
nesouhlas
islami
##oľ
nápoj
drti
systémů
PS
mým
sená
##ánku
kroku
##omá
rozhlasu
Jenom
zvládli
Plek
gólem
Muži
Turecku
vrtulník
katoli
tenkrát
historicky
výstavu
Led
Rady
Vset
naším
rozhodlo
libere
láká
stejného
lož
##klop
Hvě
smu
obsaz
trž
Prý
##átory
##ien
donu
zakoup
hý
slavné
Základní
##žku
legit
administrati
prestižní
Třinec
nejzná
tisku
otráv
kolegů
##vie
##arda
Výbor
nemůžu
samosp
kuchyni
ab
zub
naklada
##mán
##torů
radnici
šper
iniciati
##úspěš
nebe
##náší
##stější
cukrov
krokem
Ander
navštívit
ovzduší
zpočátku
##šce
##inen
##hrála
požaduje
##ital
sklá
nedokáže
prohrála
Pos
##zetí
časopisu
palestin
King
Něco
programy
Příč
figu
nejob
zastán
Jor
Můžeme
vyrazil
##řez
původního
##procentní
získa
nechtěla
restaurací
hit
kuf
Ki
##eti
překonal
##market
udržel
zámek
Ovčáček
kandidovat
komplikace
Přer
Feder
##zia
##chově
##ske
maz
93
ženám
novými
Osm
One
##abá
váp
přímé
Hradce
standardní
zaost
##idy
##vede
těles
Anglie
Ivo
Py
##nii
připou
variantu
ben
Úč
bouř
zvítězil
divize
turné
Černo
předchozím
portálu
jemuž
Mé
##kovo
160
respond
tempo
poly
přibý
Vojen
telefony
dosti
##ional
##atiku
zlikvid
##ward
zeměmi
##rálního
vyrovnat
vyrovnan
předměty
Arábie
##leni
pomohlo
Paul
očích
unav
##inění
tax
cítím
sponzor
##ražd
stůl
##dán
úspěchy
břehu
Slováci
princ
zranil
Zejména
plnou
drogy
nejmenší
Dosud
vnú
##dili
##loub
týdně
existence
olympiádě
zamest
##kul
jindy
Nejsem
podílu
reality
olej
##ralo
strop
##stickým
mrzí
HC
Jel
Nu
##andr
Celkově
Voda
kůže
Island
obez
##bytku
##čovat
možných
SUV
proudu
odstranění
úkon
nadšení
osmnácti
spořitel
možný
počítače
frek
novo
dlouhodobé
živnost
hale
##stri
pocti
##hodný
pravděpodobností
interiéru
věcech
##lebrit
nepřátel
##pět
okamžik
Arsen
lesů
spočívá
Chla
##riad
vedli
produkci
Slovin
Bon
##lety
celost
těším
##field
špion
98
##čov
##umím
dáv
červené
Celá
Rozhodnutí
neopráv
##DC
##tul
doufá
Varech
summit
Přem
Londýna
Daniela
##ranž
Jste
rozdá
rozdíly
památky
ŘSD
Olomouce
350
McC
Fol
##get
##ťák
##osu
stačilo
03
##sea
sklád
naprí
nemocnic
Někdo
séri
normálně
statistiky
utrpěl
sehnat
obchodního
nelegální
provinci
Švýcarsku
kosmet
napríklad
zapá
cerem
##ovacím
Připrav
federace
##áním
vynech
napí
počkat
vytvořili
varování
pasaž
tejto
hraní
vyrovná
vypořád
fotbalisté
přeci
saúd
zabezpečení
vizu
revoluci
palubě
Lak
##uba
##čelem
Takto
vyhlášení
CNN
##rátora
předsedkyně
##atřiceti
verdikt
##xa
Jelikož
dopady
podporují
##ls
plánování
obvinila
map
lež
znají
důležitější
řešením
##plu
##stitu
novely
##snější
Znoj
kys
mém
odůvod
##večer
chystají
##jíždět
Bir
Záchra
správu
##kevní
propuštění
pracovala
soukromých
nekoneč
Del
vyzd
těmito
##fikace
Budu
sledování
rezigna
pravděpodobné
osvoboz
##jád
##reet
výrazné
##alík
Novém
##bava
investorů
McD
Dana
apod
Maro
mladá
kdybych
lůž
zb
##nový
##foli
orchest
potla
zdravotních
listopad
Havla
svědky
kontextu
Gabrie
obu
volebního
Old
vydali
##ctva
provozní
##schop
##řská
netra
málem
novinky
Speci
France
##zec
niz
konzul
procento
Nejča
přesvědčení
vybudovat
nejvýznam
##ovol
kuli
berou
Ústavní
celo
##tejner
snahy
finance
obličej
liberální
##žka
nástroje
##tán
##vaných
##dělali
reklamy
svědků
bonus
obdržel
##ovává
mra
uráž
##iera
##enému
##lenka
cestov
##inout
psů
přistěh
mobili
Kate
mužem
vul
hoř
Tot
Řez
Střední
pozvá
rodák
krajský
Africe
96
##chla
něčím
absolutní
Pocheho
dřevo
vracet
rozdělení
radě
našim
autoři
FBI
nutně
1999
Sva
navzá
odhaduje
nizozem
předloni
nečekaně
Poslanci
##alosti
##třebí
kluk
##rálních
##líbenější
láz
##FA
Podí
déšť
Vondrá
ďalší
okamžit
telefonů
varianty
zneužívání
nejmlad
##gnosti
##áv
##50
##itá
rekre
smích
##út
pota
zato
krásně
Buď
Trumpovi
basketbal
Šum
synem
rie
označila
závěrečné
čtrnácti
laborato
odstranit
##ezu
herci
fotografii
ďal
##bury
čistý
##roste
ponděl
marně
porno
postava
##skop
##bují
##utor
politolog
nedostatku
pronásled
novičok
##líka
kolech
nedod
úvodním
Elekt
Tem
##zely
Prahou
hal
##rs
vidíte
zabezpeč
zůstalo
nesly
lidech
Konec
profil
bek
nevá
vyřaz
rozpor
##gel
tahle
doj
##anci
léků
průběh
nejenom
láska
Korej
cukru
Generální
##zený
minutu
francouzského
slabší
Emman
Wimbled
srazil
##con
##haly
##UT
##ložka
Koneč
Radim
prozradila
Detro
zrc
procház
##ětřes
Nechtě
přiblížil
studium
##dží
parkování
agentuře
Dů
##bau
##př
##náři
zámo
plná
uzavírá
lží
##skytují
plnění
Brusel
poptávka
musli
Kolář
proběhne
vyplatí
odmítají
očekávan
důsledky
pyt
##itý
nahradil
Jihomorav
kas
nastoupí
##něně
tot
holo
pará
milovní
biolog
odkazem
##dcem
obvi
dobrého
##zít
větru
Holeš
Pob
##pce
##bel
##grační
množ
jaro
kabel
fyzické
jedenácti
politickým
tet
##míra
žijící
Nejvyššího
rezerva
neli
roka
právního
adres
Dominik
cenou
##edia
nepomo
usnad
Cesta
Zab
##ativně
##telnou
cestách
Trumpem
Berlín
vedlejší
originální
kádru
zastoupení
##noprávní
tržeb
nepot
Kanada
farmá
porazit
kamera
týkají
silnou
americkém
Buda
dopadlo
policií
nejlepšího
##ženým
zvyklí
##letěl
Barrandov
##čkovi
##istky
##káme
tyč
Mach
dokončení
##leje
##lip
##říte
##burk
mužstva
140
zvolení
shromáždění
##aková
vyspě
##hodně
recy
senátu
porážku
##ejmenším
šik
##akce
zvěd
##MA
##děly
schůzky
vstoupit
##iva
##zlo
způsoby
Pomo
koncertu
album
poma
povod
##ránek
techniku
zachování
debatu
##rála
rock
ztratila
Ježíš
doži
Marka
Jána
##undai
Plá
expor
občerst
##kářů
svatého
zapotřebí
Zas
##aga
líp
Zemi
##hád
Tex
zachovat
nechybí
vloni
viděla
Jihlavě
Nevy
připravený
Krym
existenci
pohybují
inva
hodinou
nedokáž
členské
Přesně
střelec
dostupných
naznačil
##rne
obzvlá
Tomu
tváře
indi
Ruský
částech
Pár
##hlu
stranách
hovořil
doplně
záležitostí
Kladno
záda
##měl
infek
Nemo
rizik
zajistí
léčbu
koordin
člena
##tív
potý
parlamentní
baterie
Kas
Svou
##kládání
zastupitelstvu
Československu
příspěvky
soustředění
protě
Internat
získalo
##heim
Práce
expertů
##šou
eura
řetězce
flor
mala
manaže
neomez
##kovaných
dlouhých
vašeho
reálné
##rij
Strop
zakaz
termínu
##inec
##kuji
##těžší
##boře
komisi
Jaká
složky
syrské
figur
Litvínov
odborník
úvěrů
nere
##tyš
tomhle
palub
sestry
##řeje
návrhá
Matt
podnikatelů
elitní
Jistě
Černý
Steph
zadržela
navzájem
KHL
přijeli
příslu
současnou
zapar
tře
##lanti
rozšířit
##lům
poslu
kontejner
bezplat
##ákist
vždyť
##portér
vybraných
Kab
Thaj
nastal
##inské
dařilo
občanské
myšlení
kří
úm
##líček
dobro
##západ
setkal
Dříve
Top
##ěje
přál
trénovat
emisí
##stanov
dělám
sankcí
zkontro
vychy
vedlo
osobním
##brali
postavili
nepřija
přistup
společný
šesté
zůstali
lékařské
celebrit
Vysočině
facebook
rozpo
koncerty
Vladimíra
přirozeně
cizinců
Guardian
Pákist
poprav
přehá
kousky
Vrá
aud
##znak
sektor
##mund
váží
pokoji
úsměv
podobnou
zůstanou
kulturu
bel
##hám
##ánem
cestovní
bývalých
osmnáct
Gabriela
International
hand
prosp
hokejisté
Rit
mari
dobí
kapela
říkala
proud
Palest
##čnosť
nehodu
##jíme
##ivou
středově
systémem
příkladem
Frank
Spojen
kamarády
instru
spodní
trestný
vzpomí
strategii
bombard
AS
sotva
##izi
Maj
změnilo
nechtěli
děláme
zakázek
lyžování
údolí
Sar
vyšpl
obraně
zmizel
Španělsku
sekundy
okraji
bio
opozici
Švý
velikost
zájemce
nejnovější
Úda
Toho
rozhoduje
vybrali
mimořádné
bát
původních
displej
##stiky
nějž
lib
skupinou
Soukup
Bet
Vino
##urt
nemáte
oznám
Nest
liš
úvahu
zelené
tituly
odmítli
vrst
Hyundai
Akademie
čekali
vůli
výrobní
imunit
Sand
rozsudek
chemi
vládne
Pardubic
un
ruskou
Pražské
##válí
##leva
porazila
##bohat
zadlu
kriminalisté
Avšak
Upozor
##vať
Mimochodem
tráví
Kalousek
chlu
nejp
pomohli
kauzu
Pardubicích
kandidáti
Krná
internetové
nařídil
Jihlav
středoče
světový
kabině
##ague
Anglii
chvá
mafi
Lize
turisté
považuji
polské
tramvaje
tragédi
##enský
porost
##alis
litrů
zbroj
##cich
##basti
Veřej
karet
##rkevní
porodu
zmrz
pochod
##rud
domnívá
##itky
##tur
páteční
logicky
Ode
spravedlnost
těhotenství
lák
odpoled
skrý
nemocí
potřebovat
pohřeb
súd
jakékoli
takzvaných
Navzdory
##cto
##zelo
pořádá
formy
kuchyň
kontroverzní
trendy
##zii
pokusil
ryt
dokumentů
papír
zvět
účelem
##rují
skan
střechy
##anty
##lámu
stejným
účely
těžká
##ajú
archeolog
kratší
vyzna
insta
rakety
zadarmo
portfoli
Micros
94
Dál
dopravce
havá
##hledy
zdravotním
hydro
požadavek
Deníku
žáků
##éři
##fo
zasa
příjezdu
způsobit
dolaru
povinné
přetr
seda
##minut
zbytečné
elektronické
cítil
identifik
ada
##ňovala
akademi
představila
rychlý
##visti
Podobné
##čoval
polé
opil
Soči
nezákon
reaguje
privat
pátku
##řského
kombinace
složitější
kg
výsle
##žební
##dělo
kritice
pochopit
romanti
ačkoli
disciplí
přesun
tratí
autora
elektrické
náboženství
Předpokládá
pracovali
církevní
##vojnásob
uzavřít
mezinárodního
pacienta
fanouškům
uc
##hlasil
otevřeně
zuby
1992
Zlína
terén
efektiv
Hokejisté
OKD
Fanou
##gin
##leba
proslav
jakmile
niž
pacienty
dohodli
průměrná
extrem
elektromobil
přijede
uživatele
##koch
přijíma
čtyřikrát
povinností
europoslan
##DE
stri
Babišova
1996
intenzivně
##jezdy
##amo
starat
##ládní
horiz
významně
divadel
podrobnosti
dou
komora
Smí
jejímu
srde
##ross
son
##kovaný
herce
únor
##řeno
zazní
##ovania
sklep
zastupitelé
##čnej
##zoval
##bíral
nechceme
vraždě
Cit
##leti
čelit
Výsledek
dcerou
Plat
instal
dozorčí
##něným
##štěm
komisa
souboji
##clav
měří
skvělou
vydává
večeři
PP
utí
##bírat
společnou
paříž
důležitou
Akce
##zar
##lií
Parla
nevíme
celkového
expozice
Neza
Mnozí
##novou
##terán
zpřís
Kuciak
Kři
##wski
nejúspěš
blok
fotbalistů
Španělsko
vyvrcho
volí
štvr
pokoje
YouT
suverén
##sh
přelo
velvyslane
##mož
##znamy
##iích
##obě
pátý
Novotný
Fri
##rava
zavr
##istu
Kal
##ors
blíže
plochu
hráčům
Postupně
sběra
Der
##edu
výlu
přinesla
kW
odd
koncept
ohni
Mali
závislosti
Fro
##žnější
##icko
poslat
scénu
zvládl
insolven
okraj
##žad
##hon
památku
prohře
##ácie
##liti
nejv
strachu
studii
čínských
příčinou
postoje
rů
##gie
zablo
brej
Opravdu
ceremoni
##ki
##sání
největšího
Vladimir
Fe
veřejnoprávní
takzvaný
schůzku
Ostatní
Paci
##tních
##chta
dorazí
správě
koncernu
##wan
spôsob
společenské
Nového
Šť
##dělní
Pokor
Musk
Současně
zkuše
průmyslové
územní
radikální
hří
##nostech
Nemám
nevěří
spolupracuje
pozitivně
Sobotka
ocenil
Mili
##kument
rodinných
protěj
ukončit
úředníci
primárně
##islava
Žádné
řemes
Sí
postu
stávají
podpoří
zasáhl
##if
mimochodem
gastro
##avé
##mala
##držela
Tuto
jmenoval
výzva
Rodiče
Karviné
Port
Stráž
uvědomit
povzbu
Krátce
Set
ment
trů
##inger
asij
železni
hrou
čerpa
chlapec
Sha
Christ
##kázalo
Ondrá
signá
mateřské
lidu
přepad
##atika
lese
Dag
Ope
soustav
zůstaly
volebních
výhry
chemických
Otev
inte
drama
##měrů
##nerová
koupi
zkrat
dělí
skvělá
Ana
Lav
přibývá
##pustili
některým
přátelé
strážníci
zklamání
ré
ster
architekton
stabilní
Japonsko
zpravodajství
##OZ
##dera
předmětem
signál
Lze
mest
##outu
##alej
drahé
nemusel
ústavy
předvolební
Čap
##tory
ekonomicky
nemění
velitel
rodičům
##LAF
léčeb
158
Bratislav
hezky
tís
OLAF
odstí
ruským
krém
rozhovory
jednodušší
příležitostí
daňových
energetické
odpovědnosti
agentur
půlnoci
vyznamenání
stol
vyhlíd
šestnácti
činy
##ül
běže
Raku
kancléř
vyjadřovat
Mel
SA
obřad
spadl
1945
zneužití
Bezpeč
##elle
vykou
organizátoři
efektivní
bazénu
Těžko
obět
sucho
Systém
Kanadě
mládí
vyloučení
##povídá
Phili
Pastrňák
Mr
##řina
Che
kluky
korpo
napadl
pojede
vymá
##kovými
rozhodnutím
vítězů
lásku
zodpovědnost
střely
krásný
policejního
Slá
nud
##mální
##enského
obtě
##hub
platnost
otázek
ranní
##jezdech
náhradu
##běžné
pracovníky
pane
##ož
##čat
nevin
obtížné
přemýšlet
svet
##hrade
zdaně
Britská
Konce
dluhy
dvojici
přispěl
Topolán
naprav
desky
radši
sociálního
plnit
pustil
nedávné
roztr
exklu
hradě
pokuta
##týká
pun
ustanov
##ázku
volbě
vyplat
smlouvě
užívání
dobrovolně
šťastný
Místní
Las
Zmí
odvod
##vosti
203
parta
vyšetřuje
podotýká
úkoly
##cejí
vzděla
debata
Turecka
Daily
Stanley
kně
##nského
##úp
zahrál
vyjít
nedosá
způsobu
Překvap
městského
zadrželi
Bit
Ford
Rok
Chel
doporučuje
Lang
##ije
svěřila
nejdraž
Vznik
Rodina
Budějovicích
posádky
Boston
propojení
Každopádně
##ětřesení
##luvě
##rick
schválení
Škody
Krimin
Metro
pej
##lia
špatná
kandidáty
Těch
zraněním
##řitelné
procentní
humor
Ken
bato
##erti
##artner
##óz
##etí
výsad
typy
Taky
Švýcarsko
##use
líčení
dospělé
##pustila
akadem
připravena
panuje
kriz
považovat
EET
zbývá
##sové
volan
center
třinácti
YouTube
zaz
svěde
medvě
svát
vzájemné
Hlu
Urb
väč
##šia
slavný
sestup
prie
podlehl
českými
sad
připustil
rozv
zatí
##eňte
očekávají
1993
##nutý
hym
vesnici
druho
zbytku
vymýš
devadesátých
nepotvr
průměrné
statistik
hmy
##IP
česko
problémům
út
##silo
##nský
##ďa
díly
ovládá
miliardu
nespl
stihl
bazén
Lau
rozvěd
##árka
1500
klíčových
portál
výbav
vůle
Nemys
připojení
mnoh
Evropský
stačit
##fikaci
plát
titulů
Univer
lehké
úrovně
reklam
řádně
zahájil
ultra
wor
##ňat
prosto
konto
nedokon
ekonomický
lepším
Davis
nástupce
moji
expr
jediného
ostrova
ploch
##ničkou
triumfu
Dnešní
##čtyřicetiletý
Uvidíme
Ane
stromu
mlý
Trest
Dž
Tre
##čkové
agenta
rozsáhlé
Mike
belg
haz
##vaní
spát
##dělování
mobilních
princip
dědictví
učení
##hlý
##sáno
vzájemně
vzdálenosti
islámu
nejrychleji
úprava
jednomu
tvůrci
bilionu
mříž
##spi
jíst
radi
podobným
budování
číst
vysokým
pozornosti
přinejmenším
napadlo
##ye
##lam
databá
Skripala
Potřebu
Kristý
SMS
trop
nab
motoru
##kovu
strojů
Caro
zavést
zástav
prosím
tvořit
místním
hospit
slovenských
mik
Vědci
vlny
zastavení
rodinného
vnímá
měk
kořeny
Čiž
##ečka
##ning
celých
obchodech
krásná
##regist
kř
uspět
nerov
Parou
motory
Merkelové
představitelů
experiment
přístroje
jízda
slavnostní
vojenských
dnem
##izer
energií
Juvent
lyžích
zvažuje
nejrychlejší
obličeje
plech
ša
##nt
výher
Potvr
inova
##itelná
svěřil
Španělska
autorů
potřeboval
elit
poto
vlastnosti
Obžal
jmenovat
zločinu
FI
kvalitě
League
Unie
Zná
##pekt
stři
System
Kdybych
selhání
znásilnění
osvětlení
##ženy
vypadají
objevit
koupila
Ukrajina
Odborníci
potápě
široké
Ronaldo
Jean
slavného
##jezdem
ambice
pamětní
nerozhod
dárek
odvolal
Třebí
Bil
ateli
rej
táta
##ns
užít
novela
Závod
1994
použil
stole
píseň
nepříjemné
Účast
zpro
Pho
příště
konop
spojuje
nepřízni
sněmovna
Sled
kali
psy
##ovné
jednoráz
krajů
počtem
Dostál
Uvedl
výjimky
##lexu
předsti
##iček
##ickému
1997
rozehrá
Tábor
likvidaci
##řena
dočas
Jakuba
snímků
Sini
##sli
##vas
autenti
zahájila
nervó
uprchlíky
uzavřena
překonat
genet
##itativní
Petří
Výrob
návrhem
Kometa
index
nechod
záhy
starého
úkolem
fau
##ograf
##štej
##jistila
mínění
určené
planety
##měsíční
##movní
##ňte
##šího
Trumpova
výrobců
zpoždění
legitim
gará
úder
nádr
##sadit
čtvrtém
jednoduchý
Die
vstoupí
vyrazit
tyhle
běhu
sluš
obyt
evropskou
Pražská
nominace
Mig
vstřelil
obsazení
provést
intele
svěřen
ochrán
Firmy
vědců
Amazon
viny
ČES
##cením
uznal
Obecně
světová
zabrá
Švédsku
dová
zádech
ztráta
znalosti
Nád
##šeny
mohut
##enách
organiza
zkusit
dozvěděl
prázdnin
úspor
Instagramu
Pelikán
ignor
pošt
##žejí
vzdal
obchodním
okolní
Budape
Wat
skrom
Taková
jednáním
Koukal
sebevraždu
nevo
probu
rozlo
nemluv
sbírky
##ura
##bin
záme
předvedl
popel
##dělala
chři
##bulu
##želo
střechu
extrémní
##lian
##vajú
##typ
##alice
##jdete
vyšších
psychicky
touží
Hude
vylé
akviz
čemuž
Požár
Zástupci
Pad
Wa
##VA
nabit
přispět
dovnitř
zajímavá
Str
situáci
činů
Indii
Dali
##nci
##ouští
##enství
pono
Jednání
postupovat
čínského
zdán
ošetření
kurd
tragédie
předčas
chrání
zvuk
dobrým
oken
známky
opakovat
sedět
poznání
klienti
vaš
posílit
kanceláří
Jindřich
Smo
biz
automobilka
kostel
obsta
řídil
světu
##cházely
solidar
##cenou
Nějak
postupem
závěry
zaměřit
román
Úřadu
##řely
účastní
vyrobit
##oo
vypla
platby
zlomen
Komise
učitelů
úprav
##otera
rohu
skli
Vaše
demonstran
regulace
spekulace
nahoře
rozměr
věž
##opat
Informace
Výraz
funkcion
zdravý
vyvolal
vezme
Mia
opí
##ness
roboti
ústup
zále
filma
Institu
sedmé
opravu
bojů
Android
fotbalový
obrazy
články
jaderných
ambici
Dům
přená
pronají
osudu
##bezpeč
přis
ledu
navig
tradičních
příspěvku
Lubomír
Ján
##řenou
##aneme
##ith
trvala
tržní
Organizace
Smith
nejoblíbenější
##ýr
zahrát
osmé
##brala
Kolumb
operátor
korej
aplikací
orgánů
##lování
##žnou
Indie
přestav
komunikací
vytvoří
Teplice
vlož
prémi
podala
Příběh
Hradi
zaznamenali
facto
Chomutov
chvilku
Singapuru
Klíč
##anc
zátěž
##osť
snižuje
okupa
paláce
Twitter
##maž
schopný
kytar
střediska
USD
moderních
dosahuje
Oli
##EL
pokusy
choro
defen
##gary
##ovateli
Víte
právem
dárky
nezbytné
EP
##ous
královské
Rum
had
##ceni
prodal
týdnem
vznikly
národním
##quare
čísel
Vyso
dostanete
potvrdili
aneb
Simon
nepochybně
Trá
chalup
letních
##ive
připravené
oběd
##obchod
nadsá
účastníci
Tvrdí
dav
dán
kard
zmín
##dé
##platí
##akar
Buff
odhal
principu
inženýr
technologii
vystoupil
vyrovnal
##ňové
##rozá
kandidátky
Paní
pustit
střída
Vysočina
##nava
Schwar
západních
hovořit
téhle
člověkem
prázdné
splnit
tehdejšího
bás
paradoxně
řím
##ejde
nároky
manželky
rodiči
extralize
niekoľ
velvyslanectví
Chelsea
##isto
příchod
minimum
Európ
sboru
dílem
změnou
výrok
pavil
##esť
reprodu
##veru
žádat
Objev
189
Seeho
zemědělské
zlaté
Svůj
pronik
totali
##hradě
produktiv
Sdružení
he
stoupl
Finanční
mine
##érou
nabízet
obviněn
zdálo
Budějovice
prohlédnout
chodil
ploše
tvaru
odraz
soudí
Realu
Bratislava
##érie
nastoupit
##káře
##hodil
Nevě
mladého
##čenou
##ňá
##rosta
napsat
zasáhla
transport
neřeší
Bůh
##chal
smů
známého
publikum
##milion
ileg
pouště
Okamury
hezké
mané
žili
##čané
otevřela
stíhá
Hodno
sále
Rez
##prů
##eng
prochází
##kovaná
patrné
Dok
Sun
##DA
##livní
##anými
zajím
Sebasti
Romana
Dobře
fotbalista
Žádný
psaní
zákazník
Hamáčka
podvodu
zapojit
vzdát
zdát
Anton
plánované
obhájce
Ny
##plet
mať
čtyřiceti
kritika
ryby
managem
úvěr
Pouze
paliva
##oj
oblo
kucha
Alžbě
limity
reformy
kalho
Libeň
##nosy
běh
Večer
internetových
tábora
dekla
Calgary
Mně
sepa
zařaz
souroz
Výstava
zástupkyně
diagnosti
čte
nápo
veterán
chů
Moment
Úspě
##ding
##chi
spánku
##ámen
Pražského
přáteli
Dobrý
poplatky
Vlastně
dvor
##áté
past
zakázku
bývalým
Jiřím
miliardá
sochy
upozorňují
otcem
otřes
spoločnosti
neskon
Art
kosti
letošních
pracovního
vlevo
poměru
rozvoji
vzdá
značkou
dětských
Život
kláš
hvězdou
##čo
##arov
potreb
těhot
čtvrte
zveřejnění
vzpomínky
Vra
Žď
vyhla
##mentem
perspek
barvu
zpřístup
vzestup
Nas
napadení
sun
Štef
##lora
strážníků
World
Oby
učeb
následovat
běžných
tajemství
sdělení
##ŽDC
česky
Radka
umělecké
poklesu
skončily
Ferra
##poved
##liny
počátkem
dveř
cukr
##dava
reálně
celkový
těs
pražská
vytvořila
guverné
Austrálii
připomínají
SŽDC
poraž
nereag
neudr
akcept
výšce
Tel
##OB
vyná
řešili
Ryb
zajišťuje
Dvou
Zra
sup
trasu
nekončí
výdajů
##líku
hodinky
svátek
Honza
Dej
Jitka
Ono
Pas
Von
cíli
závodech
Bay
společenství
##SK
zasla
tříd
Exper
Syn
tvorbu
Kel
##šin
rolí
přiznat
dni
svobodě
Bílý
pochybení
lokalitě
Jour
bill
uvést
##cci
vychová
podlé
zlev
##chozí
přips
##ovatelem
čtvrteční
vznikají
televizních
odpočí
nůž
##vým
startem
Roky
svátky
konfron
Slovácko
holky
impul
Osobně
bro
Nejvíc
tresty
divu
##vini
Janu
odborníky
Serge
přiznání
Mercedes
##hrada
resortu
provincii
##ráty
podmi
případem
literá
##čeného
Agentura
Hlad
zaměstnancům
sídlo
plic
##esty
nezlet
síle
manželku
##ňka
nedal
prognó
morál
##lony
kontrolovat
ktorých
zkušený
dnešních
Kovář
Hlas
Rost
odchází
přítomnosti
řadou
válkou
přidě
střelu
normali
proměnil
požádat
Belgie
poži
##dějící
kontrola
investory
zaplatil
bilanci
hygien
mrav
##voří
říz
Havlíč
##advacetiletá
zdrojem
##vence
##até
##avské
##taf
službách
Rot
posed
##lické
Prote
##árek
trestných
Spou
vyzvala
stranami
záři
zápis
zahraje
kdybychom
přemí
brněnského
##mej
terčem
zdravé
namísto
poledne
Fanouš
##ump
##šelo
rovno
bydliště
hůř
Messi
jaz
##tním
komerční
veřejnou
nejspíše
Ce
##kovali
##ON
nestojí
předčasné
zemřeli
##nělo
##líky
##hrani
nezd
##ceméně
##kly
nemuseli
katast
turecké
lokální
Green
##řte
##ovem
Zemřel
ovládl
izraelské
španělské
Sáz
not
##šle
##níkovi
##volá
státním
zabav
tramvají
Bloom
nejtěžší
nepovaž
Toy
operační
Opět
Lékaři
bos
návy
malým
socha
střelou
jihových
##UDr
fand
obý
náhle
výpověď
Hü
##fob
následné
dobrých
vysvětloval
diplom
Prima
legislativní
Břez
přestávce
Im
nacházejí
fotbalového
diskrim
Staroměst
Montre
Mun
sná
##habili
##vád
ministři
spojenci
Djo
Ul
##ectví
policista
##tion
podílet
významných
vydavatel
tj
zdě
pobav
zanik
Sním
zú
##talo
##alá
##rian
nemohu
připomína
vlnu
imigran
##raly
##sků
promile
stand
odo
##ovají
výkonný
Tan
##hto
týkat
dávky
Britové
podstatné
vzrostla
##později
Existuje
Dú
Ps
spolek
jídelní
trojice
prošla
totéž
gólmana
Opat
civilní
evidentně
pravomoci
##hlou
##hnal
jedině
##lovar
pití
BIS
Tok
certi
##šující
##itut
odměnu
poranění
mezinárodním
vnútra
Zřejmě
##kazují
kanon
sledoval
vzrostly
přítelkyně
##rce
severových
havar
vysokoškol
administrativní
rukama
Dolní
vyzdvi
nejbohat
##pravo
neustál
bojují
nemovitost
narodila
Land
1991
všemu
nedalek
bratra
usilovat
interiér
upřesnil
eurozóny
Hrd
##váním
Kaš
##hůru
vojenskou
absolvoval
Saúdské
Běloru
Dagmar
Th
##inkou
##chý
##cházení
připravují
komunismu
investoři
odehrává
věznice
Východ
samozřej
##vom
##raj
volbám
Tay
přijala
piat
jdu
nič
##čiť
podoby
##arab
Dlouho
zopakoval
světel
občanství
hokejistů
sportovních
##díme
expon
manu
Andrejem
přibližuje
Japonsku
preven
##lexi
jednička
okoment
významný
Hašek
zamířil
Výsledkem
##ire
##enc
vlaků
Baník
Komerční
mód
brýle
poci
metody
objevuje
resort
odně
Poč
##loužil
súvis
testování
okolních
pojišťovna
poslucha
##skak
protá
##luva
záku
dělo
koupí
Piv
##bn
##terie
##ečo
##idně
##byl
nedokázali
Moder
vybudování
shá
hoří
navázat
spotře
prask
životu
##rního
##sion
starou
mistra
Víme
zvolili
##ville
tepel
##lywood
fotbale
DNA
Wolf
proží
##vátní
rozpad
##uber
jasná
přijali
občanům
Schiller
Ryan
Problémy
Trochu
Růžička
vší
odjel
středně
obchodování
počty
určitých
webových
Karviná
Ši
Vyt
poradit
dílny
##pka
##racích
##itivní
##amí
nejas
Audi
IN
nátla
jednal
premiéře
najv
##zování
nepřes
##leným
unijní
testu
Salvini
Clin
Kova
##četl
povstal
připravili
automobily
##bridge
poměry
nahrad
##ett
##vast
spar
##řetr
obvinil
délce
nemožné
Závě
Záleží
Ruské
dobrém
Spartu
rou
##nor
##tko
simu
exter
základny
Space
Příští
Říká
finální
Průměrná
Bas
Smet
##čující
##idlo
Chovanec
veřejném
Právu
anglicky
##novém
Leg
jednotka
reakcí
pevně
Kle
sudí
přesá
bolí
##jistil
otevřený
Liga
židov
designu
Eliš
raci
##řuje
##rokra
##žijí
Kapit
minulost
najdeme
výpovědi
kapacitu
pořadatelé
nejslav
účty
údajné
příznivci
Nemocnice
neplat
organizátor
##halo
##hoř
##namu
městu
ztvár
náročný
lesy
zima
názvu
Lis
Lind
sdru
akademie
##núť
Návštěvníci
vag
##levan
parkov
koupali
československé
zábra
malém
tajemník
Pravda
nedostali
konzulá
##éria
invali
král
poslali
ktorej
marihu
OP
útul
poslala
zastupitelů
remiz
Šlechtová
intelektu
Sala
úkor
Raj
##robí
##lika
vyko
kolektivní
partnerství
zahájí
vytvářet
tvorbě
centrem
Československo
poslaneckého
kybernet
##vej
##HM
vypr
nohu
padla
stavebních
přechodu
amat
##fit
bubli
cenné
kouření
Německá
portré
rud
hranicích
stížnosti
nízká
##řídila
pivovar
Příbram
kober
biskup
##plik
polep
nezůst
zastavila
posunout
paměť
rozumí
dec
ord
##dý
alerg
uvedení
platební
finančního
krále
čaj
restitu
tunelu
tuzemských
nepředstav
expan
##řejí
ods
blesk
nastří
matkou
národních
NASA
poznamenala
shodli
debatě
Milana
znamení
řadí
vnitrost
navrhla
datum
##hama
přesunu
Útočník
stoprocent
##ALER
Čili
Vzá
takzvaného
Capital
Sergej
Hled
pomů
připraví
##mář
##kladem
plateb
mladšího
sop
##skut
osvě
zásadě
konstatuje
iPhone
##ALERIE
profilu
běžný
uč
uš
šlech
##eba
##inám
##kánu
unij
srdci
strojí
muzeu
dodržování
kondici
##čich
zaregist
##rovoz
Helena
slyšel
nedostane
##anja
byto
talen
Karl
pochybnosti
Cít
IP
blon
##nového
nosit
reklama
oceli
dějinách
terorismu
venkovní
pil
ren
ukr
analy
provin
cílů
faktu
nezastav
unikát
argumenty
Považ
##cs
morální
jihlav
volného
proviz
Kope
##držet
umět
Boris
von
##tebo
večerní
kostým
Lam
rezid
Slovenský
ženské
obžalovaný
hrdina
Budějovic
Alexander
##zla
důležitých
zvládne
chor
prom
novému
Druhou
Mam
snou
uhra
politikou
Sedlá
zákrok
fru
system
levé
afghá
Technolog
tohto
silou
karlovar
##lonu
vyrů
##emiér
Moham
vlakem
stěž
mex
chlapci
utekl
Majitel
nejkrá
východu
technika
necelé
bulhar
Golden
Procházka
Vir
komer
##znali
vietnam
kilometry
samostatné
Venezu
motivaci
Cen
smo
##tovat
něčeho
##řich
vašem
výborný
probíhají
Hodo
teorie
transparent
usmívá
nefunguje
Niku
Rol
zahrad
historik
dráhu
Divad
bližší
úpravu
přijímat
Čermá
vládních
dělala
Nikola
doprovodu
poplatek
##ktech
##bší
Horáček
parlamentních
Kvali
##vard
setu
Potřeb
Christi
spoluž
odešla
pomáhal
##ate
antisem
mládeže
učitele
Dru
úniku
vyrazili
##idi
večí
##utnat
##ičtější
kompletně
Ek
##sie
kongres
matku
ochrana
zavražd
zdůrazňuje
nehrozí
uspořádání
vašich
Zla
jeli
programů
určitý
využívání
Doležal
##slo
novinka
osobě
Želez
nenápad
zastávky
věři
tvrdý
##mezí
Angela
ničemu
##wi
##ďme
nale
proběhla
##rub
Janem
činností
náměstka
parametry
blu
kv
##ahuje
##ladě
rozes
děde
##žiť
změnám
##ceného
projevuje
předpisy
##tům
zemětřesení
postavu
Jaromíra
##čerej
návštěva
nezletil
tých
akorát
zisky
jízdní
Kev
špe
##raději
partnerů
Strana
půjdou
justice
##roch
narů
obcích
nález
lístky
premiérka
Maďarska
porážce
prohlídky
předchůdce
snowboard
mýt
##kostí
##vádí
nejak
panem
vnímat
žádají
##mdesáti
dotazy
Asii
reklamu
Ústavu
Bub
##rnou
##iti
odtud
italský
povědomí
dote
##ilton
obav
zaplav
menu
správnou
dodavatele
procentech
konkurenční
popularit
jdeme
fronty
Mou
Nek
vzkázal
##znám
čekání
předeš
Naši
víceméně
nezvyk
natočil
Dopravní
úste
##manová
prodávají
inflace
##řídili
1938
prestiž
grandslam
Hap
odvy
##rodil
konzult
uživatelé
garant
Chem
##řených
oznámili
otvor
dveřmi
##něme
vytě
novelu
dluhu
myslíte
uvažuje
duchovní
využili
texty
tunel
Zimola
Kříž
nemůžete
civilizace
schůze
epid
Klub
##álnej
speciálně
připomenout
majitelů
zmíněných
varují
škr
##rých
náj
měny
odbory
stěny
povolání
Pražském
vzdělávací
nerozu
Sú
schrán
červenou
městská
potvrzení
spadá
někdejšího
přenosu
seděl
vyrovnání
##skoarab
##skytu
slalo
Stavba
##řskou
nikam
informovat
vd
##utter
Změna
zahynulo
Dama
##ťaz
protivní
pravou
odporu
výrazný
Police
##pie
soudkyně
technických
samotná
obvodu
##allye
Plus
##kora
brou
doporučil
Slovan
naznačuje
komunikovat
gril
straš
##itelných
dáme
Patří
##zala
##urnali
Strýcová
daly
##činy
##rusla
Stří
sluch
Rock
respektovat
dorazila
pramen
##anější
dopise
kusy
zamít
tuzemské
hatt
lak
##mä
##lička
zády
náram
dž
##pila
dorazili
zasko
výstra
zahrada
Ing
fotku
Mladí
nejbližších
Záchranáři
Kre
telekomuni
##pisu
převzetí
přidává
pacienti
svatbu
olympijský
kopce
konečné
pauze
intera
zeď
silniční
170
poskytovat
písní
důkazů
redaktor
Simona
Pchjongj
zajímat
záměrně
záhad
patře
kontrolní
padl
odpovědět
jihoče
Paříže
bezpečně
##ppe
toale
##zdrav
omlou
náročná
##lejte
Štědr
galerii
nepovedlo
Cambridge
Sav
##CH
představy
přímý
Červen
čínský
zjiště
souboje
##enost
##měs
##hodnot
tvrdé
plí
ritu
neří
##vyšším
mistry
perfekt
##celku
##EM
chov
svr
##šeného
##mall
vyzná
lidovci
jinam
brazil
##mál
##non
##bie
nelíb
##skych
##illi
teku
volbu
Hamilton
Orli
středeční
úvaz
##roš
neup
##skeho
##tiť
připravovat
přidala
odsouzení
výjimečný
lavičce
korupce
krevní
##štích
Teplo
Automobil
rap
přímém
pondělní
hrozilo
stránek
dokázat
nastart
Pitts
Bratislavě
zajistili
otro
ukrajinské
nechybě
zbytky
transakce
Sab
##piš
obrazu
ochotni
zamýš
hektarů
##kos
##tín
koleč
##alita
německou
symbol
Pamat
##skala
byrokra
##randu
mnohých
manželé
asfal
Dánsku
konkrétních
Koru
pul
##pri
##žiště
##strace
myšlenka
dodržovat
nedodr
Zpě
předběž
šéfka
obsadil
Rovněž
gymnázi
respondentů
navyš
neč
vyjíž
Stalo
##dice
činil
sexuálního
čokolá
nepamat
bojov
školky
Neviditelný
##orá
##áru
vedly
dvacát
patřila
priprav
posunul
anglické
elektráren
vyvíjí
Ac
##mie
##hodná
studovat
kapitál
supermarket
obnovit
lince
psí
čel
##can
##tivu
##isť
potkal
pravý
patřit
##enici
vyšetřovatelé
1995
shodují
##host
Street
Bělob
tajných
Navr
autobusů
výstavě
mála
čtvrtinu
panu
podpořili
vysíla
aliance
##rozápad
##álky
představa
##tejte
držitel
kouzel
Asie
##voká
dílu
dílů
stoupá
potenciální
hypoték
sma
##skl
##řele
##hyb
##letým
pops
kroků
nenávisti
niektor
pódiu
uvedené
##hovor
balon
Úřady
přijela
##neři
##číte
Čínou
komentáře
450
zimu
tarif
vnější
##pan
vyprav
##obou
vpravo
autorem
speciálních
armádě
Kó
Wood
##tis
##ival
pozic
pozůst
majiteli
univerzit
personál
vejce
Ferrari
kem
zapl
sociálním
zvolit
ztratili
zážitky
vlastník
armádu
Nebyl
viceprezident
prostorách
Mala
Mohou
nevyhnu
##ářské
Doma
realita
potvrdilo
Gazy
mozek
Tesla
##žád
##ismem
nejpozději
trvale
Bure
dočkal
zeptal
##šej
nezmění
##píše
brance
pozemek
prosazovat
Konkrétně
poni
sester
##ces
protek
##hodnější
Park
pravidelné
Malý
úředníků
Sato
Zim
rehabili
čekala
podzimní
Pompe
inscena
otevírá
dámy
Cle
vině
Čo
##hony
věděla
ekonomického
##cenace
nutno
němuž
nejrůznějších
senátních
absurdní
##wyor
Tich
newyor
hrálo
oheň
##šenie
naproti
schválil
Žal
pocházejí
##otou
úterní
##lační
obnovu
splat
Zásad
účinky
předpokládat
zjistí
vybrala
Kremlu
místostarosta
štaf
soudů
výstavba
komentuje
našimi
nemyslím
Log
Vic
101
##alizovat
kosmi
##imedia
slušně
plak
uply
názorů
rozvíjet
jeskyně
Kana
##pali
doklady
instala
##berou
zachra
jednoduchá
nemusíte
##čící
pozval
##tras
nákupy
nede
skep
objektů
finál
nesprav
svědectví
##níme
pronesl
rozt
získaly
komunity
související
obtěžování
lži
potýká
ohně
vyvolává
Harryho
Fanoušci
##bala
objekty
sníží
pachatele
zře
stu
odvahu
##ivnější
opravit
farma
obchvat
##tíme
projevy
Výji
ukázali
##rol
negativně
Spíš
pouhé
diesel
antu
sedmnáct
lesní
Vysoké
Jizer
Lim
Miss
linka
zbou
##iční
prohra
##ette
vyrovna
podali
obchodě
Pražané
zaznamenala
Klára
##skú
diam
Baš
dosavadních
recept
Hráči
Zato
Prodej
stavebního
demokraty
ovlivňuje
##bení
##čina
##lovalo
listy
##myslem
Nedě
zaměřuje
bohaté
analýzu
prosper
uhel
nebojí
nezveřej
pochopení
podezřelý
Iva
Vad
kámen
##stím
mláď
chytré
hřeb
##ební
Leo
scéna
mobilu
schůzi
kruhu
gender
příčin
soudního
Clinton
žila
Odpově
starostka
Brabec
Windo
Pittsburg
##ieľ
##řelo
přestal
Alb
upravit
hrů
ničeho
korunu
hrajeme
domem
aktivita
Rang
##TP
měřít
spojených
Zaměstnan
bezpečné
začínal
stupni
ox
##ceny
Ruská
mysleli
ekonomickou
Bayer
schopna
skutečný
sportovci
analytiků
pachatel
platformy
ir
##lné
##OM
volných
provo
108
Trut
připravila
plocha
nebezpečný
Kluci
SNS
##éž
##ceno
##žností
##rani
##dych
ničím
pěta
hrozbu
##formaci
gastronomi
lup
##ener
##elli
obory
prsty
stáli
trenéři
podpořila
Horní
užívat
scénáře
vydí
cokoli
jinému
Liby
Kanady
umožnit
nezávislé
nedostatkem
prokuratu
Muzeum
Peru
##vál
##toč
##stock
možného
velkými
utrá
málokdo
Bavor
příznak
##kovský
někým
Náklady
podílí
plánů
potřebovali
rezignaci
Brand
Nash
kina
chyběl
ozbroj
bitcoin
##cúz
##fun
nižších
prokurátor
AI
Pil
sing
žádného
##kládal
hájí
obecné
schválili
složek
prvků
egy
##ádala
##ftu
##chyby
základnu
perfek
psali
Maláč
textil
vyloučit
rostliny
továrny
Bostonu
Šafář
Nemyslím
ima
##ývat
dívku
ekonomice
obyvatelstva
místopředsedy
Řecko
jasnou
##gera
nízkou
zúčastní
hledali
zásoby
IV
raj
##cib
papež
Podobný
usiluje
kancléřka
Gabri
zachránil
Pekingu
Arab
twe
žurnali
##oman
rozhodnou
začína
kapitali
blaho
Gh
Wer
Zbroj
ado
pojetí
oblou
protis
bouřky
Silvest
Morava
uznání
antisemit
Rý
##icap
přesah
ekonomických
střídání
Forman
emise
umělců
##anjahu
es
fre
##ovová
##atě
spě
tepl
ktorého
pololetí
Mayové
Vlasti
klimatu
Seehofer
Windows
Deb
EK
čili
##zená
neur
##sková
záměru
##nostmi
##rovým
trhů
jezdil
Netanjahu
vyměnit
Opava
vzoru
##bliž
metry
zlata
Nejdříve
Mos
##bilní
##nějí
přehrá
##ffe
veletrhu
##kovala
jeví
Hradě
svatbě
italského
podotkla
žalobce
##eck
##teľa
konala
plném
provádí
zasáhnout
veškerou
vytáhl
Mand
##šíte
náladu
##več
pohledá
sledují
investici
masak
památek
Masaryk
hard
##sin
##skij
##alová
##kur
##omi
##avíř
člu
##što
##äz
Občan
Leon
vyloženě
talí
vcelku
nachy
##louho
##vanou
volbou
způsobuje
divit
schopná
špatnou
hůře
oš
pilí
vyú
Nebu
cizinci
prozkou
režii
Cenu
Vik
##EK
##rátoři
letoun
trasa
vysokého
plánují
písmen
zapojení
světem
Galaxy
Kro
vs
##mak
prvé
černý
významnou
předpoklád
mandátů
burze
hokeji
Jandač
Nejčastěji
Ped
Partner
různě
predsed
debut
Gam
prvot
kopí
pěší
188
ukázaly
podnikatelé
asisten
Chtěla
ztrátou
výpla
milimet
podmínku
podmínkou
svatební
zdánlivě
trestním
stvo
nájezdech
situacích
útokem
Koč
Hof
vrchní
fu
lab
svoboda
světovém
peněžen
západě
udržení
Vídni
##vír
Kolín
Věra
zvyšovat
penaltu
volantem
Miami
##bnb
##lky
##čno
##cep
Chris
Petrem
Robin
vybírá
vyvolala
převzala
nožem
pražskou
Britský
##bank
##šuk
novodob
Západu
Odmí
upozornit
Bern
civil
tvorby
fondy
korupci
omluvil
Satoran
##dím
##oft
##Square
##Small
##ledSmall
##tační
předmětů
Žádná
ohrožuje
FilledSmall
církev
Komety
##rozumi
FilledSmallSquare
##nin
##pak
##měří
nezaměstnanosti
diskutovat
manévr
ocení
##kazy
Aj
laj
##zan
odle
odmi
cestovat
Palestin
th
priš
inti
pravidlo
běžného
ideálně
Západní
skóroval
Sní
##US
oborů
divákům
Viet
Design
##čtyřiceti
Jim
Och
sur
##láním
##rik
Pořad
váhu
rumun
Roy
institutu
Jablonci
Profes
fat
##řál
děs
##růstu
původním
Mezitím
zaměstnavatel
uspěl
Šuma
prudce
dobrodružství
Som
Vok
řá
##ras
##rotech
vzhůru
zastaví
Mount
2022
přátelství
Katalán
konopí
Zví
Znovu
##dar
##lované
čtenáři
senátorů
Tor
Zvý
Americké
většího
Herman
sportovců
##havý
lokality
úd
##sce
##naly
rop
##vík
říkáte
symbolem
tragédii
golf
##nko
##ode
chleba
postupy
učitelé
##nutia
adap
##put
nebav
Mars
bojoval
asistence
důvěře
natož
Nechy
zimních
nakladatelství
pořízení
zaznamená
máma
řešil
Černá
##vinut
Masaryka
Ritti
mřížemi
Kandid
##covou
##ZS
zapad
obrátit
##cími
předčasně
milen
postavila
zmiňuje
vyvolat
křídla
Plekanec
##gmat
##hm
##bio
##ight
nadcházející
tip
reagovala
nedařilo
Studi
legenda
úžasné
fascin
pová
##ikou
##stý
znale
divid
tisková
nezávislost
nazývá
môžu
Sag
##atické
vývoz
##hlásil
průběžně
Inde
stoper
vybrané
Dostal
status
milost
##tát
trou
zamítl
pleti
Def
##lelo
vypá
historický
dohodnout
Volby
zapomenout
sobotním
zázrak
##tochví
TA
fik
##óně
zahaj
odví
nevyhov
zaměstnanec
výborné
velvyslanec
Dle
##dž
reportér
##dáme
klienta
Nemu
zmizí
probíhat
diplomatů
sci
kolekce
republikán
vají
majitelem
rozhovorů
dokumentace
Airbnb
##burgu
babička
humanitární
horizon
pách
##enská
přijet
Poro
##igu
motorem
postrá
klesa
úvěry
přístavu
##udy
dojel
##luvní
Podnika
tvrdit
setkat
momen
Ofici
##ňová
##dela
##avá
recen
upev
Alexandr
Jihlavy
miliónu
Gri
ukry
šty
##álek
##hovat
##kálu
Německem
vojenského
zvítězila
výbuchu
##nojmen
zamestnan
Wimbledonu
Umí
##gativní
##hry
##Autor
##zali
##lana
##aktor
prohla
rovnak
objevilo
##ologie
vyjádřila
mandátu
Řidiči
##títe
lahví
harmon
Bau
##bl
##kujeme
věže
schválit
ambu
různá
Dmit
Salis
útvar
vězeň
obnovení
nehodlá
Kanaď
##atí
##nis
##vapí
##nesli
vážná
silným
Ondráček
Strany
kreativní
Marián
spoluhráči
Feli
##ecké
Anka
hejtmana
separati
Nos
osa
ČV
##enců
Sara
hostování
konstrukci
odškodnění
Had
dý
vydržel
obklop
##víme
volném
##ovníci
sebevědom
odlišné
premiérovi
architektury
sluneční
UK
daný
oleje
včerej
##dů
výhodou
uvede
studené
živočich
zvládla
##venství
Chášuk
vybere
Alespoň
sněmovní
realitu
bankovnictví
hromadné
Hun
vstře
znem
Minim
nejdel
Centrum
nezaměstnanost
fit
misi
míra
přežití
páry
finančním
##čátek
čtvrtou
Amerika
Hynek
etapy
zabít
Klo
Platí
##king
zábava
způsobila
pětkrát
živé
Varš
Kob
prek
Posled
##čež
arbit
střela
spotřebu
EÚ
Jur
trap
slovenská
domluvit
Kriminalisté
Salisbury
Hroz
Lán
fol
Ší
##aní
##čům
##řiv
##ladit
odeb
považován
##orepubli
kapitána
pochvá
pozdější
porozu
rozm
nejhor
##tář
trofe
druhému
převzít
kontakty
zvítězili
prázdniny
benzí
Otec
##del
##děte
kolá
exminist
Zach
průjezd
písk
komunistického
Lep
dluž
nespráv
kontrakt
Vrba
ovládání
memo
iba
historického
nabídkou
##lostez
vnímají
příčiny
vyvolalo
Alexandra
Francouzi
Voz
han
hala
##tice
##děk
pustí
zájemců
nimž
trojnásob
handicap
Nok
##roděj
##lix
vyjmen
poskytl
střeše
Filipa
příslušníků
útočníci
deváté
Působ
##stní
##louží
nepůjde
jimž
návrhů
dítěti
stere
Mül
Pam
zmat
Vypadá
potřebujete
nevědí
kurzy
teroristické
mega
dospělých
chemické
přirozené
Greg
Ok
##vkami
##cos
##PG
##rovaný
informuje
projektem
##onii
Siniaková
##mát
záchod
##konoš
teraz
Staněk
způsobilo
Předtím
některými
úspěšná
Zucker
klientům
kdykoliv
nepom
očkování
nádrže
##ish
beze
nezávislosti
Nejdřív
Dneska
##dová
##šiť
srb
dramatur
kolegyně
elektřinu
Deset
občerstvení
##rná
nastí
podr
slušné
motorů
závazky
neuvěřitelně
##její
dával
chtělo
Janou
nejmladší
službě
vítězné
ktorú
schopné
poslankyně
zajistil
priorit
Fox
odborá
obmě
spod
Kaza
páru
pěšky
pohot
nervy
podepsat
netradiční
rejstří
Příklad
snížila
technologické
praktické
rétor
Cru
tv
##ény
stejnojmen
zúčastnil
neuvěřitelné
komedie
agentúra
stoprocentně
ostu
uh
##šoval
akcích
dobách
Investi
podep
Kubí
##divé
zpomali
zloděj
est
##istou
##síme
lidského
tyg
firmách
##jížděl
odstupem
ľudia
Start
jub
##knu
porovná
##row
odpovídající
vražda
uplatnění
Brazílie
nervózní
Vám
apel
náru
Najednou
kritéri
pošty
pracovním
bob
mzdu
ony
##hospod
obratu
klade
Lotyš
hypotéky
zdanění
aro
##zak
##low
##kolo
provozovatel
atleti
zkoušku
přechá
rekordních
ohrozit
sál
vstoupila
##ivá
vyšším
určen
zvýhod
evropská
Duba
soupeřem
skladby
uskutečnit
spotřeba
obsahem
##ňan
sešli
##ister
žijeme
dívek
demoli
##chaj
pošle
nejvyšších
Gaš
Informovala
Bratislavy
hmoty
ČVUT
##zených
černou
radu
Boe
##antně
přidali
žaloby
svatby
Ass
míče
přesné
export
dirig
unifor
penězi
výměnu
vězňů
skrývá
všiml
Chášukdží
Krum
Wel
omá
##ken
##fej
##deau
konání
Nejed
policistům
sníd
automobilu
zohled
odvet
přislíb
Momentálně
odnětí
Kari
vyzved
výhrou
Snažíme
příčinu
kamion
Nob
utra
##chádza
##aticky
pozmě
středisko
kritizují
##vatelem
pozvání
akt
platné
Metnar
Břeclav
popírá
lobb
záležet
zost
##óna
mostů
vysvet
centr
hodnotit
vize
barvách
prodejny
Putinem
jezera
Federer
zvolil
nenabí
Media
předchozího
Juncker
bral
budí
rozez
rozvá
relevan
zdob
kult
technicky
požadují
šar
vylu
Polí
inze
Česk
společném
živí
citoval
sportovního
každopádně
pleť
konzuma
palác
##plav
přítele
nepřetr
půdu
Maxim
##valit
Výro
základu
Vsetín
Bloomberg
Cer
##oprav
návod
celým
##tečných
čtvrtiny
výstavbě
odměny
Bag
sálu
##stiku
Petru
##rálním
kanceláři
potraviná
##jaté
Kristýna
##nína
rozjet
baru
populár
stránku
protestů
rakouské
Šev
##hře
##niček
nepov
##livých
Tomia
působila
sousední
nápoje
Láz
Pop
Poj
stáhnout
medvěd
skok
##dla
zemím
##ctvo
##pík
pokračovala
Hov
MA
Zůst
##bri
soudci
nemus
opatrně
prozraz
předpisů
Fakultní
zásahy
##cibiskup
##oře
Koment
rodinný
kávu
Chomut
Okres
tank
Ša
##ške
##nadva
upřed
pivovaru
každodenní
Sho
##out
##not
##lastní
přežít
přečíst
jednatel
poskytování
charitativní
Koup
Moz
vpřed
komentář
prodejce
okupace
prvolig
NE
rozmezí
Poda
Jose
teplotu
Litomě
etapa
Informoval
Manchesteru
bezprostředně
CIA
Sz
ostra
##otě
podnět
##árny
Taxi
defic
příznivců
pretože
Bat
sešlo
výhoda
předních
viní
chodili
sedmnácti
oficiálním
Větší
Američanů
sdílení
Íránem
obrázek
Stephen
FIFA
Eston
Has
##něném
vězně
akté
##guay
garan
Příbrami
Brod
Řep
##cují
##álech
##odí
kopu
Tehe
rovnová
táboře
##nulého
##dějov
chytrých
mléko
nepotřebu
aspek
##uri
##stání
českému
zahájili
průměrný
motivace
samosprá
egypt
Poru
##ray
##stika
explo
zdravotnické
popisoval
jazyka
jímž
proběhlo
##úry
##lak
ČSOB
##dělají
Konečně
najmä
hokeje
uklí
##rií
##měrné
nemocných
pirát
střelce
vražd
Pravděpodob
dřevěné
Jones
las
##cks
přibylo
nepřin
Anti
nějakém
mladým
kategorií
obvyklé
dodavatel
nápady
Chybě
charakteru
dôvod
srážky
##iger
týde
zakot
Model
Bohuslav
Čeká
misí
vytí
##rův
Leh
Ondřeje
Rap
látka
rozhled
vodov
Matka
Armá
epiz
##lerová
přesvědčený
Dánsko
definitivní
desáté
Nelze
racion
Nut
##rey
soboty
špatného
nastane
Emmanuel
nabídla
vesel
užívá
Vondráček
zkomplik
Djokovič
##utterstock
pový
##cas
##lely
##čího
meziroční
tras
Skvě
oblíbený
komplexní
žáci
##ply
##ču
ručně
##vanější
notebo
uzavřen
zaměstnavatele
rozlišení
ďalšie
výslechu
##tely
nábytek
hyper
Matou
netuší
rezignoval
důkladně
rozmí
souboru
nohama
Lee
barok
Trpiš
Hradu
blogu
Hilšer
##ave
Češka
průměrně
pětinu
sdělit
debak
Pomá
nespokojen
Znám
ZDE
zle
Čun
##čte
kolena
píší
dostatečné
dítětem
katalán
subjekty
lat
pomysl
##livější
Prost
objevovat
##jíždějí
ukončila
kamarádi
příroda
relax
teplá
převezli
Doporu
získají
Gor
nejraději
##alian
##kret
Celé
cizince
##andardní
Indoné
Hud
jedou
hrani
##hlých
115
typické
Schillerová
##šské
##táž
##prí
bojovali
čekalo
demonstr
výcvik
Fica
říše
chyt
loňských
Tip
požádala
kriminální
Kyjev
vyhovuje
níže
soudců
uzá
partneři
Letné
pevné
Navrátil
##grafii
léčby
Belgii
stoprocentní
chorvat
twitter
##zne
nákla
náležit
##álny
odešli
##zvu
nakrá
jakými
zdvojnásob
těžby
blíž
Světové
priority
PA
zmoc
vynu
Milošem
operací
spojence
výměnou
zadržení
územního
socialismu
všetky
zažila
##omí
kameny
odehraje
Spol
Soupe
spolupracoval
##lynulo
zaměstnává
meč
zřízení
##nen
nejza
posel
klasický
nastavit
papíry
##ksho
Shutterstock
dluhopisů
dostávat
životo
odehrála
dôchod
AC
But
fut
exoti
žádným
##pliná
produktu
AfD
vítězem
příslušní
lam
##kau
##tací
##padesátiletý
##nostem
depres
městskou
zdravotního
5000
daném
##stov
dohrá
mojí
vězni
pláž
náročnější
##jezdů
Kanad
Lukáše
##ávna
Gran
suk
visí
sejde
##emen
zátě
stání
oznámen
Trag
Štěpánek
klání
dvací
městský
##ptat
nízko
##tvrté
Šťast
##mují
desetit
vztazích
Radnice
kompen
vyhrálo
komplikuje
Williams
Dynamo
zho
##IV
vzadu
rámec
zúčastnit
diagnó
dáma
regionech
požadavků
Louis
stresu
Zam
##randa
tepla
zele
hodit
Byť
bance
Laj
únos
vědy
celní
##paň
přemě
naučil
slávy
lídrem
neuspěl
podzemní
přistěhoval
jela
bezd
Kap
Boží
Tomio
Dalších
modelka
nepodpo
adek
##ťte
spoje
slavit
cituje
Krajský
Googlu
Otázkou
aerolin
oranž
sor
##emu
věnují
##ieť
zver
činila
Baníku
Němce
Francouzský
posádka
velkolep
Corby
upřímně
##fí
##ádou
##iči
nutnosti
vládnout
Druhé
výjimku
skandál
Dukly
dezinforma
Fry
Zprav
sestře
posunu
ER
##lú
##gos
dotáz
výtr
hledal
účastníky
uvádějí
korek
Syr
etap
DV
ČD
##niny
##GB
marat
vítězka
alba
finali
Son
komisí
stažení
měsícem
##hneme
vhodný
umělci
tvůrce
realizaci
skandá
##enut
sek
nedot
loka
duchov
barva
migranti
perfektní
Sek
uto
úra
##šného
naka
konají
Nejsou
Lubo
klíčový
samostatně
##EFA
nouzi
ptal
##rných
zaží
nejpo
##líková
rány
drs
autorit
tempem
přiblížit
Jednot
svoju
Daněk
rys
##zujeme
Výzkum
Berg
ligové
vládnoucí
provedli
danou
klou
lž
nul
##elová
neplán
balení
Spojenými
reporté
dosažení
pracoviště
kalendář
ME
UEFA
##tik
celkových
##drželi
patra
patři
obrana
senzor
dráze
neřekl
Chcete
vydělat
magazínu
kartou
##lovala
prokaz
záznamy
předví
##bost
koruna
placení
následuje
viace
hovorí
Jediné
Microsoft
##zek
pond
přesou
##čeli
vodních
využije
drželi
##važuje
realitní
očiv
zamíří
bizar
Rangers
projde
##adel
nepromě
amatér
##inko
letá
duši
Celou
médiím
Finsko
personálu
kláves
Antoni
cyklostez
##škerá
Aero
Hert
Wag
##ZP
nein
progres
účtů
některý
klesly
##čtu
nepočí
předsednict
##prodá
Soros
Ústavního
opustí
prioritou
meteorologové
cigaret
Kir
##ian
náčel
Franci
zpětně
přírodních
Spousta
##orou
roh
celkovou
Hoff
brzd
##mysly
zaujal
mj
problé
projeví
Německý
##části
Slovenská
Maty
normy
nevidím
sbírku
Rath
klobou
##jelo
sklení
##ingem
evropském
Kontro
##finál
půjčky
kamionu
Prostějov
jú
##ČR
##tedy
neus
zasta
##vák
##hrají
šéfku
Víc
Nováková
nenávid
vyprávění
Umě
výděl
desku
Obam
vojsk
slavil
Charlot
Kongresu
přetrvá
znění
##káží
##estu
ČSÚ
vystupuje
sovětské
mléka
Manchester
odevzd
Rena
bavor
lez
éry
##čia
nárůstu
Refer
##syp
pokračují
otevřená
výběrové
novinkou
Maked
Ráno
výhrady
kok
vítá
útočí
Mělo
architekta
nechává
příslušníci
nedostatky
čerstvě
promít
uchazečů
Sergeje
Hrozí
ironi
Ústřed
konal
##ovanost
výroční
Správ
Wall
štáb
niekoľko
Hr
##tia
přiměř
středoevrop
Zpráva
nejedná
odhalení
Mnichov
##bauer
úplat
neov
prvenství
krva
Alp
kamaráda
spokojeni
Oz
PC
##éle
naráž
předal
jíž
bývalou
112
ředitelství
uzavřené
Joze
rezolu
bránu
Šed
##sor
sešel
prodava
vyhraje
##letých
Náchod
kudy
navždy
verzí
olympijského
brněnský
nestane
ustanovení
Gale
poist
Kratochví
nevěděli
chorob
poděkovat
Režis
##HMÚ
NK
##láv
lidskou
poukázal
ligových
levice
posílá
Musel
licenci
Velikono
zorganiz
##czy
načas
rozpou
zápla
dokončit
prodejní
ženami
porušování
##řízené
Stock
křesel
linek
Vancou
Snímek
oka
##dové
sekce
##onie
stály
platu
takovému
peči
ušetřit
UNES
neoz
nálep
##ládat
##viku
fakta
klasických
umělce
přizpůsobit
celoži
##nikov
##číka
Maria
hlasovali
kred
zastupitelstvo
Mladý
ziskem
vizi
přeháňky
stereoty
##tým
##vézt
podepis
stylem
Ředitelství
flexi
pist
priz
##dární
patri
zastupuje
odhadnout
vzdálenost
spáchání
Rekonstru
pocí
##inského
nejvyšším
podlehla
veřejný
vypadal
přidá
Ministryně
staršího
analýza
odhalit
zhrou
parádní
Čty
nekou
závisí
##ased
hostí
vyšetřovatel
odpovědí
táhne
oslaví
fotbalisty
porážky
přenes
třem
##livou
##šiu
budovat
průvodce
Chlap
celostátní
Švýc
Ocelá
Vas
psi
##ovna
##šeným
firemní
francouzských
Rusů
úřední
výjimečně
Mikuláš
Krnáčová
přivola
pravdy
dneška
vyzývá
marketingu
pokročil
doskoky
oprava
##tce
zastoup
tox
##koji
spisu
Vídeň
technického
Vietnam
bohatství
smutné
Islámský
Pes
##anov
vzru
##štině
protestu
Bohumil
Brad
heslo
mor
##ňáka
nesed
vozem
jakési
mnohokrát
pohádky
neznámý
přispívá
##ifer
##rále
přile
zelených
světle
doplnit
##cara
filmových
opuště
podpisu
Vltavy
problémech
fou
ptát
youtu
pokož
jakkoliv
souhlasu
celková
##rea
Produ
##fika
jistá
nenapadlo
takzvanou
mrtvé
kádr
perfektně
hesla
pobý
##jín
##tura
volání
komunika
voják
chlapců
olympiády
Starosta
EC
fem
vynalo
obávají
motivy
##bot
##lovým
zpev
ponor
Sokolov
##naje
##tík
##skách
rozhodnuto
nepočítá
vesměs
miluje
jednáních
Demokrati
Budapešti
geni
děv
zprovoz
výraznější
požadovat
hluboko
veterinární
Svazu
Psych
MUDr
##zách
##škov
##stud
přítelem
##telných
Vývoj
zapsal
jistou
lázeň
Sami
nezávislých
Silnice
zničit
Chorvatsko
Faltýnek
She
105
##čáři
čtvrtka
favorita
advokátní
bolšev
zámoří
atom
zot
##pili
##hři
nar
filhar
Kohou
##čenko
gramů
Dušan
vášni
##nutých
tendenci
upřednost
čtěte
##utsche
Mohl
uvědomuje
závěrečném
inscenace
ojediněle
Vet
cez
##wor
##erka
##nojem
chovají
čep
Boha
Foldy
olig
utop
##RO
moct
letého
##saj
dešti
Krkono
Kučera
filmový
kamionů
prokázat
##wald
tát
koncov
pásmu
##řáb
reklamní
##rekonstru
hluboké
Zé
##znal
##inst
zadání
obal
stár
ruchu
nedokázala
reprezenta
stěžují
příjemně
dějství
Otázka
sdě
započ
rozman
nezbývá
zahraničního
fakticky
##átorem
usmr
umožňují
údržbu
Šmí
##nc
##žující
##meček
Prvním
Moravec
pokusů
bouře
huri
emocí
nedělním
nejznámější
Pát
##cal
pohraniční
##řicích
##hodli
návštěvníkům
kryptoměn
obzvlášť
FA
beru
utaj
##šina
koš
voči
neumož
neposlední
Obv
##cenár
všetkých
Barcelona
učinit
##sity
poslech
nema
toler
nástro
March
Reag
odborů
Server
hotové
Změny
pozdrav
AM
osp
ohodno
##švi
přísně
kotní
volá
poznal
zvýšily
myšlenku
##ktivnější
konzervativ
Cas
##linu
vypí
zajímavých
regulaci
teplé
čehož
Markle
Bár
Utkání
Šil
##čtější
nevšim
vypadl
Madridu
Skot
Komunisté
UNESCO
Pech
##hují
##ann
##tus
vojenský
Porsche
Charles
efektivně
olympiádu
lahve
Současný
Kalifornii
Rub
##řová
##cke
##idě
##pred
padlo
německém
shop
provádět
Chtějí
medailí
plzeňské
parkovací
sýr
##AMU
jedu
##igh
odpy
křeslo
hloup
Mrázek
strojíren
Doz
Fred
Mol
lov
okou
##EA
##waru
nevní
##kyňa
mosk
tret
lék
přijat
Němců
hrdiny
atmosféře
Premier
logické
uzdrav
nemí
radosti
odborných
##ukle
aktivitu
kritiků
manažera
hydrome
sirot
##box
leck
dostaneme
nebudete
směrnice
postarat
křesla
slevy
rozpočt
akcionář
kompromis
šly
##ákům
##ľu
##nuta
rozk
šéfred
nejvyššího
litr
strávit
seniorů
Tálib
něčemu
Nebude
stáří
správná
Prim
publici
označují
Cur
##íně
##šov
Poku
##myslu
Mohu
řece
pohřeš
lesích
stránka
románu
zazpí
súvislosti
##uti
##ící
poukazuje
##ike
China
Kučer
programem
zmíněný
univerzita
Většinu
##kej
##lami
##rádek
obrátil
prej
##žely
doplat
potvrzují
citovala
uprchli
odvysí
hydrometeorolog
##stilo
##chova
##ilová
##rovnat
lidovců
skú
Colora
studio
Váš
vyhro
sledovali
##bab
trvající
bílého
vnímání
monarch
seminá
maminky
zpravodajské
lokomo
has
základy
jakoby
trofej
filmového
čerstvé
znečištění
Gö
kub
šlá
##liví
##loně
týrání
tenistka
prostran
125
hokejový
přistání
papíru
Applu
Cra
cení
Šk
##rak
vyřazení
##stickém
nábytku
##lout
zabýval
##matu
připomněla
střílet
křeh
tatín
Híd
Vratislav
##kandid
##avých
investuje
zkouška
##afri
vyprávěl
PPF
MP
bali
##běr
neprac
##ingové
krátký
pyrotech
potíží
respektu
kostele
zóně
krav
##istické
cizích
Akcie
hnízda
##odenní
blb
Hosté
VŠ
zařídil
##bay
trolej
vítězstvím
levné
##cházejících
kontroverz
teoreticky
Ever
gratu
nař
##odpověd
stovku
patro
##age
Jersey
Zen
Zub
##tily
prožil
cosi
lidové
Podmín
Nejhorší
novinku
čaroděj
pozorovat
##chera
zpracová
jihomorav
předmět
úspory
vypořádat
vyrazí
##kar
##líků
Jednak
nevrá
nutnost
růstem
sloužil
menšin
Brook
pokrok
disponuje
devatenácti
Erb
##ula
překvapilo
Kdybychom
kávy
nástrojů
Současná
brutální
Jesení
##leku
##izovat
Bug
zaps
komplexu
nedb
celkovém
Scott
předloň
sezonou
Instagram
##ňost
##öm
##omy
##sahuje
Spartou
Tomášem
prodlu
železnice
##platek
holka
nejvýše
místostarost
nadace
smůlu
pondel
Zkrátka
hek
úklid
##vrat
##zované
nejlev
ministerstvem
Trumpův
##ongkon
dospělí
neoh
Jablonce
Id
thaj
Řecku
Štras
tamních
Novým
##renia
paláci
sousedů
Japonska
koncertů
Divadlo
zahájit
Rec
##ide
postoupil
sexy
##alitu
Podpo
kerami
Výkon
neoček
havari
penalty
mizí
apa
##etní
##nát
pomohou
brzo
samotnou
čínská
Říkal
riadi
renom
##ňujeme
postře
nastat
letů
Prokop
zprávou
tradičním
Mynář
Ligu
Dopl
ostravské
bilance
přilák
Ric
horské
špatném
lepšímu
informovali
hvězdu
##lady
##rodu
##obra
mapy
##árních
tratě
doplní
regionů
vystoupit
Růst
čes
##poli
Nejméně
podoba
chodce
hospody
Devět
polský
zabývají
vyvinu
směřuje
poslouchat
srážek
ujal
Toronto
horizontu
ukli
##vkách
##slou
proced
příčky
zataž
těžkou
Vás
##hlédl
mni
##nková
jedničky
##abet
řeknu
skládá
zvýšené
vrstva
uděláme
##žte
##enní
news
Rozdíl
Beran
severozápad
prosazuje
displeje
solidní
předat
##znají
dávek
Kolá
medz
kapitálu
Rem
##instal
##itého
buňky
Andreji
obtížně
hluboce
CSKA
fenomén
příspěvků
Bá
hl
šňů
##čar
##anka
##átko
##padne
hrací
nezajímá
termin
Dět
Kane
zaprac
kočky
##sii
sklí
Toman
souvislost
spadla
modernizace
##LČ
vyprod
evropským
jmenován
rodinám
dosáhli
štátu
Benj
hlídka
dějiny
kalendá
výhodné
jakkoli
##ckému
Buch
obsahují
úspěchem
nakupovat
facebooku
navazuje
připouští
Anebo
Potřebujeme
Gro
Zkou
spla
smluvní
láh
Filipí
Piráty
anonym
Ton
Us
uta
rozb
##hodnou
zatiaľ
líbit
vaření
stoupla
poločasu
##zující
prop
##plň
nadná
počtvrté
pustili
##nejšie
stříbro
problematiku
sejít
nemohlo
školá
##stoupily
neuvědom
republiká
nemluví
Staré
zábavu
##rudim
Udá
Ukázalo
##stie
legendy
uložil
úlohu
rých
nejk
anim
životů
3000
družstva
medicíny
protisměru
Podrob
##drou
vůd
držení
Nemá
Dívka
vojenská
získává
zodpoved
registr
oslovit
rezerv
připomínat
Skon
ží
##áková
odci
odráží
jedničkou
##zením
technický
bydlet
dovez
jakýsi
našemu
vydržet
kořen
přestane
hyster
britskou
testů
Snažím
Igor
hel
##pond
nešet
##luk
práve
Evropou
due
zákazníka
oblačno
kilometr
polojas
procesy
trávní
dozvěděli
Istanbul
iniciativy
otisk
##nském
##chl
podzemí
##stice
koše
##ránilo
menším
koupili
nejvýraz
SELČ
HD
Havíř
##věti
pravice
kolemjdou
úplné
Egypt
Čižinský
Režisér
sleč
##stán
předved
Anděl
žádal
##rálně
##štru
vyšetřovatelů
SaS
překvapil
Dlouhodob
pohonných
glo
##ovú
rozs
reviz
akční
##cházku
přešla
##sadili
přestat
hlasovalo
pracovník
demokratických
úrokových
řetězec
zaútočil
Vním
##cova
##vačka
ničí
##letému
krásnou
nezávislý
navštíví
tragické
##pku
##roví
prostred
soupeřů
Myslíte
2025
sídla
Chybí
tuzemsku
statisíce
Začal
uviedla
Hři
napoj
##ident
Jednodu
snižování
paliv
dokazuje
příchodem
Pokrač
možném
Marta
krajská
State
samotném
worksho
prostranství
bes
##řeně
##čnice
##rolog
##odo
zás
##terý
Marc
neudělá
zvýšenou
dotační
Haw
jednotlivými
Královéhrade
hmotnost
konkurenceschop
ambulan
Čtyř
##škové
Dokud
současném
Johna
královna
vánočních
miliónov
Kreml
nepotřebuje
Home
Jev
Zat
##stři
##rovský
stávajících
spojená
existovat
posílat
Tatra
Stropnický
##isku
všudy
##iga
přehlí
Obdob
kompon
pátrá
kurtu
zimy
Cleve
Nan
Novou
asp
##škr
##nus
Češky
dlouhodobý
Milán
etapě
nalézt
přijímání
zrekonstru
žáky
možnou
krátkou
Jarolím
svojej
DPP
Kurz
knihovny
Správy
úkony
Sr
vymysle
##kač
onen
senátní
programové
běžnou
startuje
mimořádný
utrpení
zasahovali
žluté
nápisem
Nen
##knutí
mluvili
automobi
svojich
věnovala
nábře
použili
čtenáře
Včera
halu
zahradu
Městě
suchu
plot
udržovat
Poláci
sborů
##hvě
##ťou
takmer
##hrn
Švýcarska
Klause
opačném
kandidaturu
2030
hazard
Policejní
##mulá
letiš
paše
Mareš
Ins
pláži
Plzní
Martinem
tréninky
restauracích
kapacita
znemož
uté
##ťané
domech
##toto
zeptat
Vyz
čtvrtina
vypadala
Minnes
profese
podepsali
Internet
Bes
##onců
zamez
##ument
krizí
překvapením
zraněno
věznici
dotázaných
##vili
##chálek
vyšetřují
navrch
Fortu
Chicago
List
hrůz
naděj
##cial
##tika
kluků
##matři
kritické
##kovicích
poradil
mladíka
postele
spáchal
##jme
prodala
Lew
střelcem
přehlídky
##mažď
##kilomet
netýká
věnu
přežil
vlastními
léčba
poradí
Gold
vývojem
ohra
končet
Ref
červená
úrokové
##naugu
##ventu
##ecký
##zové
petici
detektiv
Ondráčka
Ast
ujišť
##rkou
stín
rozbit
##rovnal
##kovej
tuny
snahou
známou
zraněn
Krmen
posudek
registru
Ful
sděl
##meme
##zpom
##isen
##tích
sluní
##štit
směs
magnet
podpisů
utrpěla
Bělobrádek
NY
##ror
nehraje
dohledem
hodil
hranicí
##ings
pracující
modlit
otočil
Peking
dělníci
Ideální
Australian
nejdražší
pomohly
nevad
vyhraz
zakázat
dokumentaci
tábory
rakovinu
CO
Sin
blý
hes
##uz
##iemi
sep
##rovaných
deska
sumu
##endum
Centra
Vladimira
ankety
oznámilo
estet
úrad
##CA
186
platnosti
serví
sněmovních
chuti
nahrávky
oprávnění
kulturních
voličům
Four
audi
prij
náhoda
Cohen
okno
Varů
Kyje
dvojí
modernizaci
Jasně
ozdob
University
okupaci
látku
##ujem
##iteľ
##telích
vysta
##nutá
nejvy
karos
##sexu
tendru
výraznou
italských
fakultní
improv
Olga
vyžádal
##jízdné
Bart
Jmen
mel
neved
##rimin
spoluv
potkat
orgánu
Lidi
označit
##bourne
nepříliš
dosáhne
sídliště
odpovídat
ovládat
nečekal
pováleč
Fede
Uru
##mý
##ya
stád
přestoup
All
přijme
otci
Zajímavé
Ele
Stí
Smr
odva
mosty
zelenou
Jakou
##čany
ovlivňovat
vhodná
Politici
##kultu
Tuni
úpad
##eje
##aky
zatě
bankro
půlhod
kuře
Expr
čistého
exped
pít
sraz
zve
##sman
##hově
##lese
odstoupil
odstoupení
Jeff
Stro
noví
parť
Domní
rozvědky
hospitaliz
Dce
##lyn
##číně
skladu
Dolín
neslu
##eniu
1969
zpoždě
příslušné
československého
ustav
##žším
prach
kriticky
láskou
Rusy
Irena
delegace
Sáblí
bin
vzbud
##inálu
krvi
sporů
Kamil
Agrofertu
Národním
Podařilo
Fron
Úplně
##řském
pojed
nabou
rozsah
##ryho
krajích
představitele
Výmě
Význam
pravděpodobnost
číslem
tvrdila
hypotéku
výbuš
slalomu
vily
dopustil
odstoupit
##izoval
pravo
ulicí
vstupní
aktuálním
Každé
soukromého
Zlí
pse
##hart
odbav
##obile
jakožto
##hynul
##hák
těžkých
euru
Hlavá
léčiv
primátorky
Svobody
spotřeby
Bö
Cast
Zám
##maji
##puště
##ostal
##berger
obyvateli
sněžení
památní
jihozápad
zúčastnilo
vydalo
holdingu
ozbrojen
##imu
##čkal
Postav
deště
skot
dluhů
farmy
opustila
spořitelny
zažili
vepř
##nder
sucha
legion
průmyslových
##júce
Aktiv
zraněný
výměně
šťastná
faul
závažné
ocitl
turistické
hlasem
otázkách
Dítě
ztrátě
výjimečné
##ránil
##ismy
sprch
životním
nemocnicích
perman
pohledem
Pirát
Severokorej
hrubého
Liverpool
ďalších
plem
##čeny
##skočit
popsat
přestala
postará
Jenomže
Referendum
##IKA
odz
přivedl
##izované
zaklá
rektor
myslela
reprezentantů
kabiny
Švédska
uvažovat
subjektů
zločiny
Nobel
daného
##din
dokola
prolo
##mující
##iška
způsobené
energetiky
basketbali
angličtině
odevz
moskev
Vez
retro
trav
##váb
##eced
kompak
Musíte
Keď
dokážeme
seznámit
suroviny
reportáž
Bang
##dné
##tního
dospí
základem
Konz
vyhově
nutná
Sokol
úvěru
zvyklý
pěkné
fix
duelů
zakončil
ambasády
průzkumů
Ala
Hom
Sněž
eroti
##lovali
Podstat
Market
provok
červen
krajně
zraněné
generací
Těší
Netf
Situaci
Arsenalu
UN
VI
Viz
##ix
##ickej
služební
bývalí
stínu
profesní
kampaní
Bohuslava
Euró
Philadelphia
Začíná
inovace
Lok
##sus
točí
##puštění
závodní
samotných
Zelení
zajímavou
1988
občana
úkolů
Jordán
srdeční
Alo
scenár
##ght
zajíma
hojně
Prakti
paraly
obvinili
kamerou
##dalo
##anům
oddí
odrů
Ney
Zastup
Jednalo
Luž
dovedl
náznak
Skoro
Existují
Brat
gang
##žeh
přiby
prapor
##stevní
příběhů
Merkelovou
kontinentu
dron
mostě
##dává
napá
zpracovat
chutí
Polák
konkrétního
zvykem
una
šach
##enali
##atik
prin
veci
parkova
##ínský
krajině
otevřeli
pokusit
vykonávat
zakončení
##eckonců
lokalit
slev
dálku
##ovatelné
kultura
synovi
hladinu
rekonstrukcí
vzájemných
japonské
Zvlášť
zbývající
Pákistánu
Dun
Thi
##bru
##inten
##ision
jednost
státům
pravdou
krátkém
Letiště
dosáhly
zkrach
stráví
Bezpečnostní
metoda
současným
základním
desítkách
vládního
vyrovnané
důkazem
Východní
plnohodnot
napsali
fab
##dam
nejh
minulostí
krásy
článků
vazbu
Omez
Oveč
##ovkami
pronaj
podvečer
přip
Počítá
##inárod
##prezent
##ović
plach
dopisu
kanál
Herečka
750
převzali
CH
Rij
pik
prota
voze
##statek
prezidentský
##renie
cyklu
publika
servisu
falešné
Vietnamu
nedob
##deb
obává
předali
##dustri
Čínu
lásce
Nemáme
vlně
Budete
zasahovat
barevné
softwar
úvahy
##IM
##spar
Mate
osobou
kluka
Brou
Černé
jadernou
zanedb
špeci
AN
Fle
krych
taktéž
##isek
##busu
##vodní
budoucího
dešť
středy
novinách
firmami
divák
udělalo
sportovce
fakultě
zasloužil
##FC
minú
veřejná
trestnímu
##lass
právních
posílí
počítači
civilistů
focení
množstvím
ČESKO
fér
##jov
##zeno
##ôli
##ZE
doch
odkou
významu
vlastníkem
vítězný
vrah
přísnější
kriminalita
postaral
Viděl
duelech
Zcela
##pet
mince
přeroz
rozhodly
Dokument
##livého
padá
schopností
Miloši
Vlta
demonstraci
verdiktu
stíhaný
útěku
Eliška
prot
nechte
neobjev
konstatovala
stabilitu
vědecké
smaz
##žba
nákladních
posoudit
srovnat
Parlament
poselství
Bot
Zvo
##pany
strý
##erie
##telným
Basket
dodávek
doplňky
##ström
splnění
přesunout
preventivní
zverej
člov
nejste
zákonu
dlouholetý
střelbě
vytvářejí
Průzkum
ovoc
Nabízí
Smeru
Starostové
Hab
Šeb
Šárka
##lně
##rovy
Českém
historickou
třídu
údajného
matce
korekt
software
křižovatce
Číňané
##dlo
##emato
hosti
pozicích
koleje
umělec
ohňost
Albert
sněhové
ochoten
vystřídal
kulturního
obrázky
cirku
nejdelší
Edu
##říkladu
protikandid
##ánů
bodem
ochla
kapsy
profesora
cizině
založili
##řemýš
ekologické
Židů
Smlou
Zoo
Tří
klik
odkry
dáno
Museli
arcibiskup
hokejista
ztratí
koncepce
Požad
nedůvěry
pořádek
pátečním
Test
bratislav
##bky
užit
##rodila
ruční
##cházím
##here
legální
Světový
trvalé
Pís
hudebních
válečné
Znamená
Theresa
Ská
slon
popo
prvý
odejde
dopadla
necháme
oboha
přístrojů
sparťan
dorost
Austr
pohroz
hrozbou
Norsko
Slunce
účastí
spoléhat
Fra
TSK
##kru
##taly
zajímají
propadl
urob
úna
půle
##áren
držela
platil
poskytla
##řídka
nábřeží
xeno
nahá
sekret
##šeň
104
Luke
přímou
##zeným
poplatků
připojit
##covi
##átra
kapli
banké
moderního
zvolila
Beat
Studie
jakousi
schůzka
Dosavad
žadatelů
vstoupili
koň
samet
Chalup
Ukrajin
odvolat
Service
brigád
Satoranský
Fun
ojet
##rup
##obraz
přep
mix
místu
Roland
redakci
přesvědčeni
realizovat
Výjim
Gir
##zovali
pokládá
výklad
přihlí
napoví
kliniky
původem
poskytne
palce
Nadal
koncentrace
moti
příměří
Pok
třicát
dětského
európ
pochopil
##hlédnutí
jezdec
naslou
pruhu
balíček
Jeruzaléma
motocyk
##dan
věřil
##vanie
##romadě
posily
šířit
kategoriích
Amb
##tování
zapí
vyvě
násko
chovu
Popu
##mostí
poukáz
kanálu
vstupenky
bílý
Američany
záchranného
módy
hmotnosti
zeleniny
odvezli
Cristi
Ran
Směr
##zší
neče
stok
##kupa
druhých
meta
Přece
herců
činit
Tahle
Sýkora
Gula
písnič
oslovil
cibu
nepřijatelné
nit
Ško
##knou
##chel
nemocný
pochlub
burzy
krádeže
Pán
Téma
bag
začiat
##stoupilo
otest
vstupem
220
##ácia
kamiony
principy
rekordy
zavolal
strikt
Vati
whi
domo
##itelů
přitá
ekonomická
kulat
skutečnou
tiskového
230
lehčí
nestačilo
Demon
zakladatele
natr
nastala
došla
nepovo
Lucem
ostré
aktivisté
kariéra
Masarykovy
##brojení
Vojtěcha
zklaman
Anderson
Lion
##stel
odchodem
##álnych
##éhož
schová
budovou
dnešek
Libu
Pavlem
ostr
láka
souhlasit
vyvíjet
bitcoinu
Krčmář
Ara
Brazil
Lov
pojem
narazí
výšku
mladist
horských
Tať
výkonnost
dětský
splnil
legislativy
délku
chápu
Kemp
pep
##isy
##islu
sved
exce
##rozhod
Jirá
místnost
šestý
padne
trénoval
bílých
faš
fronta
Kovan
Om
apo
##čové
##stění
##ujícími
půlce
kuřá
agenturu
vyžádala
podrobně
zákroku
zesnu
Jílek
posteli
Pul
sňat
##tilo
proběhl
vycházet
##jete
##sejí
časově
##radil
dálky
stouply
vypočítá
Adriana
Vzni
Zbytek
##enem
zažít
přízemí
Nau
mast
kach
zdobí
Vaň
svojom
ověřit
Kno
Kala
##itte
##talit
loňska
kupovat
pronájmu
zpomal
chaos
Sur
##erů
souhlasil
dávali
neudělal
chodníku
##nica
tlačit
vládnutí
Stejný
nedaleké
spoločnosť
učinil
saúdskoarab
Čermák
Smut
tebe
neprod
pouh
televí
vytla
pořadatel
Ukrajinu
počítají
Holding
utkáních
Frankf
##ivy
##berku
Vystud
drži
krajina
soutěžní
schopní
Volební
rozšířil
výuky
Wol
bas
vli
##inné
stanou
Počas
koši
stavebnictví
mrtvého
oceánu
herečky
Nesmí
muslimů
##yho
##riek
velmo
nebrání
naprosté
hlídat
webové
zvednout
rakoviny
Big
rival
##tic
##věta
nepla
nadst
Mode
absolvovat
poptávky
sliby
Kvap
##ňovaly
##ňuji
využila
Legen
nestačil
osvobod
hájit
Trav
##nská
##klou
##gs
##gana
##hrd
spokojení
##tečnost
podíleli
ducha
priest
Kuz
řízením
otevřených
##čítání
Pelhři
dvoch
zásluhou
vybojoval
házen
filozof
##bet
##čině
##pochyb
čtve
provedl
filmech
Nemůžeme
poradenské
odsoudil
divoké
Architek
Jediný
exkluzivní
Lat
Mem
dži
##koľ
##hlík
brankou
zraněného
inkasoval
inaugu
ujít
Stal
Skand
kupní
napojení
Katar
informácie
podávat
kohou
dialog
vůně
postavou
uzavře
Strakon
Světovém
opustili
Útok
Barceloně
ozbrojených
holokau
Ghú
Bala
Minu
oří
päť
srozumi
##ravý
jedovat
máš
časů
pátém
sdílet
soukromý
##adeř
rozhodují
kavárny
časté
brali
kel
zklid
##lisí
zažívá
102
obrazů
hladiny
kočár
Hospodářské
zev
##čníci
Chile
Brzy
##holm
únik
##zovala
##espond
##ezí
mořem
##alost
pracujeme
černá
čerpání
provozovatele
alb
Mex
tiskový
Nezá
Vánoc
Trpišovský
Přá
##mrt
narost
##mením
##livým
studoval
tiská
hereč
oficiálních
Svým
vyčís
černobí
Štědrý
Whi
##ári
zavě
výnosy
víru
##alogu
##šťál
krajinu
184
přátele
III
zařadil
ideologie
pochvaluje
líbilo
Abra
cé
##oven
náhrady
ostatky
term
kamarádů
Studenti
Analytica
Rest
WTA
vzp
právu
podlehli
popřel
klíčovou
širokou
Přid
struktury
nezapomenu
Kniha
tatínek
Profimedia
okomentoval
##érii
##ôže
##ôraz
ruko
odehrát
ochutná
vysvětlovat
umělou
velkému
účastnit
styku
Myš
praktiky
nervoz
formule
úroky
armádní
ublížení
elektromobilů
Bam
##lenými
násob
##padalo
celky
##slaví
Strom
##lišti
vstupuje
podezřelé
Teplicích
slibují
komfort
devatenáct
nápojů
druholig
Hart
odtr
Jac
duely
čtvrtého
Běle
rostly
dostupnost
blázni
Nemusí
dno
##hnul
věr
mafie
##hamu
popá
dlouhodobého
Troji
skrz
svojho
trpělivost
surovin
Brazílii
Energet
car
kvar
lich
qu
##éna
trvají
ležet
exhi
silného
103
mladou
##atikou
infar
vedoucího
neúspěšně
zkušební
##wic
##well
##post
průběž
chytil
loaj
počínání
zveřejnit
Druhým
konkrétním
znalost
Nymburk
upou
onkolog
otřá
určena
Danko
bitvy
židovské
plzeňský
Mexiko
obejít
Nymbur
Jav
výslov
příjezd
nedostala
místností
zapůj
udělají
uvolnění
osmdesátých
taxislu
káz
nevyšlo
autorka
nemusela
opozičních
záchranky
primátorka
pánové
Istanbulu
Adol
Mobil
##ming
##Dance
##cek
##nickým
chroni
povstání
řešila
##fisti
překlad
kuri
info
Benát
Atlanti
menšinové
vracejí
vyjadřuje
připojil
Sat
Sme
irá
##ktivně
obrně
záchy
Naším
slušný
##plikace
jestliže
Někdejší
blízký
francouzská
slabé
formátu
shromažď
Samotný
nejúspěšnější
doned
vylí
zápa
##tahu
přejít
zvon
##sadila
cenzu
členům
požadoval
právním
zkoumání
délka
senátora
zčásti
##RU
##lař
##baj
Statisti
Marsu
kuchař
tajně
nástupem
spuštění
zbraněmi
donedávna
##íz
naivní
zavo
výky
umístit
jakýkoliv
Aktuální
Viktoria
maloobchod
Novinářům
schy
##órej
##orně
přivést
Počí
pozvol
rovině
prodejen
spravuje
droga
vyřeší
spotřebitele
propuštěn
fotek
Návrat
Saúdská
Paradox
##itých
##árna
krajní
Letní
predseda
eufor
umožnil
svateb
svatba
nevíte
Krás
pohodlí
jó
##ýva
pojí
zabra
##erre
víťaz
##zik
##fii
fungující
pripom
Komu
Bílém
klasickou
výběrového
výměna
šedesátých
identitu
hájil
lec
##smem
##kist
##iální
pojiště
prvek
lidský
##itelnosti
běžen
Kaps
představovat
překra
provozovat
##štiny
přijatel
zrušila
##šieho
Kaliňák
zařadit
středečním
Správa
Global
odpolední
Kevin
##hostej
Lepší
Klím
Sec
Třet
##chvá
nasto
##lující
čištění
##lenky
hračky
##řábek
##áciu
založené
asistenci
momenty
pojišťoven
zlatou
##SSR
Měsíc
fotoaparát
Bratislave
Ptá
Tchaj
vet
##lového
##soli
veškerá
rozlu
společných
ciziny
nádraž
Noční
Nechceme
Řekla
úzce
hliníku
poctivě
Victor
jednostran
Wind
dojed
rozbí
##icem
rodu
známy
zachoval
cyklisty
linie
Spíše
Zbyněk
Tren
poskytují
odjet
velik
nadš
##tečným
označením
barvě
nejdéle
odhadu
jaderného
shodně
správního
inspiraci
postoji
moderátorka
Sovětského
nejzajímavější
Pé
přehodno
##menty
nepřijde
založena
probíhající
sportovním
špičce
čtvereční
Kauza
ďáb
výzku
##grad
vážím
staletí
hodnotou
Beau
Financial
četl
Moravskoslezském
oddlu
Pokorný
instalaci
Charlotte
expozici
kurátor
Berdych
odpověděla
omezené
obžalovaného
Finsku
koncentra
Arábii
dřívějších
kód
zákoníku
úvazek
Kře
Sö
Sony
nat
měna
vzťa
rodné
Incid
podívejte
zaměřené
sebevražed
jimiž
Oldřich
Ras
šam
##daly
##iness
dosia
dopustit
proprac
hotová
Marx
studij
kandidátem
nuly
uvidíte
přihlásil
##oleslav
projednávání
projednání
vydavatelství
ČHMÚ
##řku
zásil
hraně
metro
Berlína
zájm
porce
prohlídku
arabských
Jirka
komiks
Zaměstnanci
Ciz
##rních
##orit
zaují
vyrazila
chovatel
budoucích
nedojde
Celková
Tímto
báje
pěstování
faktory
Dominika
Cou
ek
##oboleslav
##ovač
nadšený
tah
stejných
místními
neposkyt
187
pomáhali
účetní
Barcelony
návštěvnost
celosvětově
připomínající
Dráž
Hlí
zkola
##ávalo
##är
výzd
výška
##rovaná
časti
miliardář
Věděli
obránci
prezentovat
olympiáda
poškozené
Detroit
kalifor
Sebastian
billbo
polojasno
tor
upí
##emie
106
bankom
Alternat
zájmem
sáhnout
poznatky
Mexiku
neskutečně
Rekonstrukce
Lor
znova
Pochop
##opar
zatčen
dávku
ráz
bílou
nebezpečná
léčbě
Toyota
clou
svaly
##ktory
zatčení
připraveno
úterním
##promi
psychické
takzvaně
typů
sbírat
utkají
Labe
Uvědom
chválí
Tolik
zablok
květiny
ktorom
Region
Hitler
##totož
Data
Ec
ďalej
nakládání
##nipe
ruském
##vaného
Vyšší
technikou
absence
##zápas
konceptu
nádherné
Smart
benzin
prádlo
Podíl
Schwarzen
Müller
můst
šof
##mid
##yd
##ňovou
vyjádřili
klubem
Jinými
hladina
uvědomil
StarDance
mostem
##řizování
Cannes
češtiny
Kell
postoupit
nehrál
podtr
##dují
jejími
radoval
američtí
zahraničním
unií
vlastníka
koupání
otevřenou
bílá
propadla
sazba
táborů
všetko
Olympij
svěřenci
Členové
Rakušan
##žných
##ckcha
##peže
ski
vypát
Soukupa
##blízka
velvyslance
skandálu
Beč
rokoch
vztek
##čian
##novým
závodit
Besky
chybějící
argent
podezřelého
spokojená
pruh
přejmen
letí
těsné
Odhad
mantin
vaří
fotbalová
sestavení
bavili
přetí
Vrchní
odmiet
zataženo
Kut
načež
západu
předstí
##buch
opouště
průšvi
investigativní
Tělo
rozšíří
Svatop
kryptoměny
##tos
černého
##ovník
nesná
Jany
překladu
Berou
Těm
posouzení
reformu
sestři
Kadlec
Gen
Pic
SV
sůl
odnesl
konaly
představili
Jedinou
pěsti
různým
internetového
významným
zařízeních
zmizela
statistického
jevišti
Hovor
udrží
##iků
##tina
těží
Ston
čerpat
plamen
Babišův
Přišel
Liban
otře
přístupem
západním
pohotovost
vytváření
vysílá
schodiště
Nizozemsku
SEČ
Sigma
autonomní
Az
##vech
##alení
nestí
##ric
koli
prachu
leda
nezač
scén
touha
autobusem
daňového
nutí
Putinovi
jakoukoliv
uzavřená
1939
Metropo
Otta
smartphonů
Zdravot
Institutu
Un
zlé
##iler
stre
vysloužil
nadprů
mluvilo
nevyře
Španě
utéct
Dosavadní
ble
##iro
poři
##čína
##ctav
##vange
##pění
dceři
Benz
mld
úni
spolumaji
školou
prodejem
obyvatelům
Opak
úrovní
adrenali
soustředí
drobných
šetří
spoluhráče
ofenzivní
pivní
##jal
##úra
##ovar
##říže
pragmat
napodob
##žité
111
zdravotnických
poloviční
znovuz
porota
hezký
Winnipe
tlumo
pneumatiky
úcty
novoroz
jaksi
spek
přejí
Došlo
stavbou
prodalo
širok
Václavském
Římě
písničky
Vánoční
závislost
smyslupl
pochvaloval
večeře
SSSR
##leném
inovat
dostávali
radostí
Kara
Ski
hudbě
propuště
dozvěděla
Sán
Vej
##žene
regul
Nedvěd
nazval
CzechT
ověř
##členné
nejkrásnější
Zase
cieľ
úle
pochy
prošli
vymyslel
praní
stopu
připraveny
sestavit
utrat
Zlatý
znepokoj
lžíce
Tito
##sily
##rnách
sklada
##krem
kardi
konzum
hlášení
dramaticky
lokalitách
europoslanec
nouze
pôsob
Vit
ade
snu
ponu
##něni
##itz
##stickými
vít
ovlivní
označili
právníci
Carl
zastává
Finance
archivován
kolony
měřítku
jubile
ES
Nord
naft
prstů
##esporu
128
srd
vypadla
Kuba
Voráček
##advacát
Macrona
Bývalá
důvěryhod
odpůrci
Ukazuje
##koru
dorazilo
##taz
kdykoli
přehrady
zatop
Mary
cítila
Muel
dispeč
základe
učitelka
##letěla
šperky
kvan
téhož
##řan
##šom
##ün
##jec
výstřel
##damu
neju
koka
##inační
##roub
hluk
tváři
Kladna
výhodnější
literární
Pompeo
Zpravodaj
Křes
ST
dejte
veget
teple
řeknou
Nea
traktor
##zemní
krem
leteckých
společenských
dvojnásobek
Bush
jádro
pomalejší
vychytal
Nám
dráž
sny
##ráci
případný
vyplynulo
##lezl
blízkých
takzvaná
závazek
detailů
přepadení
##zil
zelená
Maz
neset
nevypadá
veliká
vyhlášen
konzer
neziskové
Are
##nenie
##gov
##iem
jednadva
uvedeno
sklou
vlasů
věříme
Místopřed
prezentace
Západě
okrese
poloostrova
zvedl
##cový
nahlas
##telit
středoš
klien
určitá
mrtvý
dostupná
extraliga
šedesáti
vlajky
Lesy
Es
Gud
Ron
lhostej
schází
předložit
spoluzak
překvapit
násilím
oslavu
ústřední
Juventus
pondelok
Wik
ujistil
zblízka
úhlu
neform
prvnímu
Kdysi
Čecha
upozornění
Autoři
spojů
zavzpom
nevěděla
výbornou
Vítková
Atlé
Karolí
hacker
utorok
Uruguay
Emi
rychlob
Hotel
Pavlík
Rozhodl
záchraně
zlepšuje
Rafa
vnímám
portugal
sází
podezřelých
Opavě
Vodaf
Opozice
příval
##oviště
##chají
kritéria
pošta
videí
##mark
tehdejším
deko
optimální
licence
brusel
vystudoval
najväč
Boeing
dží
fos
vak
##nickém
syny
odpá
vozovky
vyzvali
Československé
očekáváme
Antonína
trávit
látkou
Vrána
zastara
tma
##telnost
skladatel
Muham
vyjadr
horké
hollywood
Regio
kala
protiimi
republikou
Zemanova
absenci
tanky
plastové
ložnice
Nit
díle
vítěznou
aktivistů
Všude
oblíbená
bránil
hostující
ukrajinských
dočkat
baterií
poškodit
apart
předpovědi
Vale
pořídil
##etta
##nym
komoře
sílí
neumě
srdcem
Věděl
známým
ukaza
Nokia
##ser
##válec
předměstí
věro
##alizací
##ect
nežád
##letém
organizátorů
stížností
dopadnout
zlepšovat
chápe
přesilovce
slzy
Dakar
dik
pch
ujet
nastoupila
##skové
podává
revit
mask
politikům
##čiar
prezidentského
alp
zoolog
diskusí
Chemnit
Cat
davu
úmyslu
Čist
##štá
##votí
výskyt
týž
vlastníků
požádali
komplikov
Dodala
Puig
přítelkyni
Bry
Ner
Out
dně
eskal
##čkovou
##ilové
Cham
stoj
špičky
Martiny
probíhala
kinemato
odběra
kvóty
kalhoty
Zásadní
Plav
##bka
vykři
nejroz
Cheb
komunikační
Michálek
Abychom
uspokoj
válečných
Lisab
Sus
##čes
##enských
Pohá
koalí
strategické
emis
nasbíral
senioři
analytici
posiluje
odhalila
pohlavní
dojmem
Sum
pta
ret
##akov
##all
proru
##ilý
vycházejí
volal
##živa
fungovalo
televizí
telefonní
muzikan
Kulhá
stredu
Příkladem
Zmi
##NÍ
prostředek
důležitým
pozorování
zkoumá
chyběla
mládě
stabil
uplynulém
rybář
Státního
objednat
Kauf
Jelínek
Brož
GT
##rním
##vab
Popel
postavený
nepřišel
provedla
tvůrců
miminko
Organizátoři
hero
neon
jedničku
Chví
chodila
cyklo
chybělo
Loň
vyžadují
překážky
slavnostně
Hájek
kempu
Zpočátku
##20
##ency
zaba
nevylu
květin
nenav
úspěchů
elektrických
hypote
Kladně
potěší
poledni
Chrá
kadeř
##ženě
##něch
zajít
koni
##busy
##urtu
možnosť
Marcela
##eňme
Protopo
tlač
televizním
vyhlásila
Středozem
gymnázia
Údajně
Jozef
Giu
##vacím
stáje
##berga
prosinc
obecní
Fren
Mid
##dza
##úpi
##LO
pohlí
nainstal
opery
rozhodčích
osam
Největším
Kolo
lávky
1967
Gól
hotovosti
úmyslně
xenofob
Dlu
ohla
##hně
##lete
reforma
zeleně
Francúz
dopravci
připravená
interní
krvá
##lův
svobodné
Rytí
##fikovat
zodpovědný
poděkoval
slevu
Vyšetřování
volejbal
osvobození
Topolánek
Šafářová
Bill
Čest
nejs
vola
možným
trenérů
běžná
únosu
rezervy
všimli
Smrt
promluvil
sprintu
Ariz
FK
RA
cvi
potu
postě
přivá
předvedli
##lét
procentního
představiteli
potvrdí
zásadním
očist
očividně
Et
bale
záznamu
černých
potřebovala
Augu
Abych
podepsalo
letounu
pódium
Třinci
Třeb
učili
##jely
##ále
posk
##illy
##tická
Jejím
tenista
kouzlo
písku
barvou
investora
hrozby
plastových
obhajovat
stravování
faktorů
křižovatky
krádež
Asada
muzikál
Arsenal
zrcad
Adám
Drá
MM
ukáž
vnou
##vl
##ovost
ses
##říčí
##ravé
##kovské
##ople
převahu
Stře
týžd
nadých
stojící
1200
podniká
bará
Davidem
Wilson
vzácné
Lánech
Seni
Zru
omí
##vel
##taru
##In
protoko
přebí
ruští
Bohem
solární
sedmý
Jure
sporty
nemusíme
úžasný
využitím
##koľvek
vinou
totalit
vystěh
##lund
nezúčast
##nějšími
nevyjád
Trumpovy
styli
rezortu
reagují
Ryana
dôležit
spontán
Vytvo
Mul
gy
##oud
##enčí
čtvrtě
Novela
nemusím
Štěch
kolegům
statut
kapacitou
dlouhém
dominantní
anketě
Ústeckém
Pilo
čtvrtá
hlasováním
Špat
nádor
zapojí
kamarádka
vystupovat
dovozu
zkontrolovat
hattrick
Zuckerberg
Dort
Křet
Svaz
gesto
Poh
dív
tyči
školení
Tenhle
odbornou
národy
Tyg
umožnila
jazyky
domovů
směřování
vzpomínal
snižovat
pohodlně
Cir
##jö
zajat
##tie
lidstvo
tažení
útokům
určuje
zábradlí
Být
Novo
zez
zajistila
107
Koncem
odmítnout
opakuje
Adama
Dodnes
inteligentní
Uberu
Zvláště
Cítím
sak
##inál
zařazení
kotou
rozhodnutie
##ction
Zdůraz
úspěšnou
psycho
plyne
Varša
cyklista
poroty
segmentu
požiad
rejstříku
památníku
Incident
Cli
Sud
sady
Brnem
institut
spojenců
brněnských
uspořá
favoritem
nejčastější
odpočinout
okrem
policejních
zářij
Kud
Lho
Okam
dv
##óza
poľ
spik
uvedených
létat
Přijde
tieto
Koši
převed
dostatečnou
odmítnutí
potomka
železnici
manažerka
ukrajinského
exekucí
polícia
shrnul
inspirovat
variantou
Brig
Got
##ůstat
##ture
Podě
deň
osma
Dohoda
Roger
úspěšných
pátou
Herec
Všeobec
Mexika
nekvali
Lom
zhub
##srd
##10
stranám
synd
hrály
nechají
objektivní
třída
Pay
považoval
usly
založit
podzimních
přítomných
obsadila
zpívat
petice
Anthony
vulg
Web
hově
##venci
kapo
##pulár
tělem
změnách
nabíje
znáte
nemocné
protestní
bytové
převezme
Marian
Student
problematice
Viktora
gay
##ván
připomene
aktuálních
odehráli
etapu
otočit
##skutku
Muhamm
ťaž
neres
nápor
příko
příčce
spom
komod
žijících
Soutěž
Taj
slavných
prodloužit
Izraelem
odstartoval
dotyčný
Bulharsku
městečka
hřbitov
DJ
##enko
obrace
odstěh
výkup
repli
potkali
##uscit
běhat
částkou
polského
ostrovy
řešíme
Williamsová
zvláštního
Blízkém
sorti
Ovečkin
VW
##ínám
##jním
pohrani
odleh
##bach
zabrat
Zemanův
sofisti
##čeným
navrhnout
bitvě
Problémem
klíče
čtvrtečním
piatok
blondý
Gil
Sol
##iho
rozru
soužití
teena
##ičů
Mail
zakry
Přímo
fungovala
##psala
dopadl
nedalo
poruchy
Oscara
určený
československých
češtině
Hlubo
Damašku
Krkonoších
Půjde
##cast
##lič
##tahy
##padesáti
treba
stačil
radio
centrály
EUR
realitou
peklo
Palackého
##xabay
Třebíč
zlepší
##win
##pochyby
veterá
##ičně
převyš
Zaměst
podmínkám
děláte
alkoholem
Ministerstva
nepodaří
Jamese
mieste
napravit
Řecka
##šta
##itom
##nosem
##ozá
##bory
##pomo
Deutsche
kyseli
Maso
odehrálo
příbuzní
symbolicky
problematické
Nick
##stát
##címu
výpravy
##iele
kritici
posila
kapelou
Typ
zahájením
náměstkyně
ovládla
formálně
melod
emb
it
##tění
jedeme
Neček
představoval
manča
základně
##korup
druzí
demonstrací
pauš
Sánch
plé
##finan
prohled
projet
Jednu
mužům
spojený
korespond
Němcová
královny
vyjednávat
spustí
široký
betlém
novinek
Vltavou
pokyn
spolehlivě
zákulisí
Ox
Pane
zch
##anen
jídlem
sídlem
shopu
výhrů
tanec
vzdálené
zaujala
frontě
subjekt
setrvání
Luboš
vmě
##gg
rozhoř
hradní
projektech
Radio
Juraj
Děčín
Nadace
podepsala
úseky
inteligenci
rafin
prázdninách
instalace
nerozumí
IK
Vrb
vis
##tero
nehnu
zabere
obývá
nejzá
spoření
realizace
informacím
zachránili
pokoušel
senátoři
Wo
##zena
##zum
##acek
pouli
pravého
Chrudim
Nemůže
Laur
Such
pokusili
vydávat
bázi
nafty
vyčerp
londýnské
Liverpoolu
Sázavou
Sly
##chali
nalož
##orm
##láh
kdokoliv
114
odmítal
ideálním
úspěšnost
milují
evidenci
spustil
cukrá
přezkou
zpívá
námořnict
exportu
nelíbilo
dít
Matte
korid
atmosféry
jeskyni
##OHS
došel
##els
volant
hráčky
Petrov
veřejností
Předsed
rázem
tranz
prodejci
obsahovat
##ívne
pronájem
gener
Rumunsku
růžové
zákonodárci
Vyšetřovatelé
Maláčová
Uvnitř
niečo
starají
středního
Průmys
kolekci
Hora
zmíněného
Slavií
letectví
majitelka
kolegou
syrských
##havé
Floridě
důrazně
hybridní
koupaliště
Porošen
parkovacích
BR
##lemi
Soudce
kapel
převrat
bohatý
zahrn
zničil
##oterape
Pent
Uži
hity
mer
rallye
shled
osobám
obdobím
vyšetřovací
Turnaj
architekti
anglického
potvrdily
Tradiční
příznivce
autobusové
položil
potrestal
Šumper
kvôli
Baj
Cre
zka
vysti
prk
Poslanec
zdat
Spart
počin
diskuze
Oscar
zapomněl
spisovatele
domluvili
odhalil
zaplacení
tisíciletí
nálezu
udělil
Até
lem
##inz
jest
##rance
kameru
nabídek
chtěly
Babišovy
těžbu
lídři
kandidoval
kapes
##júci
Hulan
hotovo
Viktorie
zóna
NKÚ
RS
ÚOHS
sezení
##emokrati
##ránili
Prostřed
nezak
Nejsme
desetinu
Obraz
Obvyk
zastupitele
založila
planetě
##wie
čelil
legraci
opäť
##prese
plagi
platilo
chvílích
stěžuje
Unip
Nico
finiš
veškerý
dotáhnout
literatury
Ig
Xia
cister
##olí
##AN
Veľ
kolej
minulou
Kušní
zkouší
slyší
signali
čtenářů
Stavební
Islámského
magazín
příznaky
snem
##ury
##čnými
Kaf
ženská
producen
##nejte
Neměl
právníka
1985
starostou
polských
stanoviska
infrastrukturu
##hospodár
vô
čak
##něly
skuto
Zábran
bratři
ptáků
whisky
Aqu
hraz
zajímavější
##pot
vlák
sociolog
soudních
113
přímá
požárů
záchranná
pásma
toleranci
Nebudu
Sagan
Mlý
SK
Wen
##fity
##ďaka
##inkám
##nok
víry
##lník
Obama
Obháj
uzavřeli
právníků
Dělá
Plzeňský
Miller
vyprávět
##advacetiletého
opravě
Šti
nedají
prožívá
nezav
krajan
##iseg
asoci
přála
projevem
Hrubý
narozenin
kvalitních
Natá
klášter
Obyvatelé
nastínil
Tisíce
ule
pohl
##inter
##ektor
##ičom
##itelnou
sateli
##nergy
postupuje
jménu
šílen
samostatných
neděje
zadržen
##barev
pondělním
Kopecký
Klid
Mluví
##hard
desce
Chal
mladším
jednali
navrhli
1980
průměrem
bitva
adrese
burzu
nejznámě
Christop
Dmitrij
šéfredaktor
##nských
##cat
postoupila
tisíců
informačních
##tkách
dopravou
##sonová
Hrade
1986
konkurovat
příjemný
oslavil
1905
nejmoder
agentúry
bakteri
rozpozná
unes
##ilem
##čnému
neumím
vymyslet
otepl
považujeme
240
Arno
##tation
Kamen
##monie
menšiny
vyslovení
zaplatila
inscenaci
Ťin
##hování
nedali
podá
přimě
##isou
Českem
Mohlo
polohách
asistenta
jezdili
bloky
zvyšují
přírodu
podnikat
odkazuje
navýšit
make
##obudějov
neutrální
Klat
Nie
shoda
##VM
##čiště
pracovit
bíl
kolikrát
antibio
reálném
bojovníků
omylem
vévodkyně
totální
Atléti
Lich
##ňu
jedoucí
lepšího
běžném
zjistíte
odpočinku
zaměří
příbuzných
Gazdík
předstihem
Európskej
ču
##ppa
##hodl
##itelnost
občanských
Stalin
zakázal
udržuje
postižené
pěkný
žlutých
zákroků
##borat
##padě
hotely
aktiva
vyšly
atak
##onald
zkoumat
nenašel
jezdci
italská
dohodl
vylepšení
voľbách
úrazu
Hongkon
eko
mrk
##čká
##teple
dokaz
rozpadu
pákist
určí
stanu
Děkuji
Kancelá
složitá
evidence
vylepšit
obrátila
nezvládl
Gašpar
džihád
Obra
##šp
plameny
Hosti
kvalitou
Zlínském
Fakt
zaměstnavatelé
uspěli
Garros
AR
##ovnu
předání
inje
trendu
nabízel
nevyz
výrazným
fake
potřebných
dovolí
dodavatelů
Richarda
studentům
poškodil
smartphone
kruhy
Moderní
Unik
Vlá
##over
počá
doráž
vědec
neprů
##jeno
rychlého
Výhodou
Města
mistrem
obžalovaných
škodí
neviděli
výměny
ztratit
obyčejné
Zájemci
Jeruzalém
Hur
Schu
Zrovna
cou
točit
silami
##back
bezesporu
rukoj
Zají
pravém
mluvila
Kamila
##fiel
různo
kaple
zkoušek
Suchá
klíčová
bratrem
důchody
šetřit
Krajského
přiblížila
převezen
Brankář
Mistrov
náklaď
Unipetro
##KÁ
pohor
postoupili
##rážel
odved
začneme
bodech
Byd
sezóny
ráj
směsi
##jíždění
Slovácka
náboženské
poptávku
domnívají
specifické
cirkus
fiktivní
momentě
psem
##šků
předvést
svědek
##zdil
Tržby
Muslim
posilování
zvedla
přistoupit
místopředsedou
pociť
SZ
Člán
stovka
##líkem
##ranil
skály
válek
109
USK
Luce
South
otví
rezon
##enutí
letounů
Spr
bůh
##rtu
vyna
trouf
nezmi
Mohli
párů
komplik
proslov
nováček
diskuzi
údržby
Fung
Nation
Tec
alar
hus
##dilo
##ac
##atelné
##řou
##žmo
##onová
podklady
##ravedl
##dost
##skočí
krajín
evropskými
raketa
Drahošovi
koloni
Murray
Pravděpodobně
Raz
ol
ranou
umi
##bes
##činu
##lich
nálada
modr
Luděk
věnovali
nevíd
Mnohem
čtenář
matematiky
Učitel
úpravě
##rovali
namě
nera
##hodin
hotelů
##izof
milióny
ruká
hraniční
starším
banku
##ština
kultuře
Rai
Tamní
výzvou
brněnském
režimem
formace
Zkuste
Antonio
gló
Žít
Žene
##grant
##čely
podce
svi
##hradí
desať
zabili
rekon
líčil
lékařka
Věříme
výrazněji
kandidátce
Mladík
prevenci
cestovního
medvěda
celoživotní
Gon
Rá
snů
urg
##áli
##stvem
vyhaz
Costa
Výběr
historií
hrozba
procesů
komplikací
discipliná
rakovinou
upřesnila
spotřebitelů
konzulátu
provincie
Christian
týchto
##okem
##vec
##HO
##láz
##síd
váz
informacemi
přestali
slalom
Music
Que
suveren
Vídně
Gav
##mím
nadějí
nejhů
těl
znali
##tivý
rychlá
tvořily
prodejů
obrazovky
nazý
vyhledávání
zaplatili
cizího
vyfot
##kař
záření
##ever
sym
pána
resuscit
Publi
stávajícího
Výstaviště
Hir
pel
##mod
##škovou
našlo
podoz
##bírali
bezvědomí
ČSA
Steve
špičkové
liberál
slavnostním
meteorologů
atentát
Fou
PK
##ium
##ME
obdrží
podvoz
chý
##bol
převaž
Někde
odhady
##ácii
Fernan
plastů
Ježíše
ticho
císař
běženců
wi
##endech
naříz
prova
nepůsob
čáry
ochránit
výchovy
vznikající
zastavili
křídel
pokouší
dovednosti
Primátor
Sci
Skal
žel
##alým
předávání
trvání
jistotou
stupň
Magist
##ICE
##šedesátiletý
lídrů
suché
Akci
Wale
##byj
opouští
noze
rozdílem
milá
poradenství
Richter
elimin
lístek
zaznělo
Alžběta
okouz
Cry
##stad
předsud
##fort
pohromadě
médii
založen
setkali
##teľom
počítačů
##africké
vytáhnout
Kö
Lot
##énem
##ečer
přilo
prošlo
zaj
přešel
značnou
vodí
nevys
kulo
moderním
nepřítele
Michalem
vzorky
Sobotky
předvoleb
vyrovnaný
Manu
všed
##razíte
uvedly
čip
přehn
Stru
čtvrť
potřebnou
zastával
úzké
kreativ
zesí
Jemenu
Předpokládám
Ků
PET
ustá
##Too
##rané
##ráti
##koalice
zdôraz
domku
malými
suma
Arce
##hnete
##oroční
chemie
přineslo
##přítom
orientaci
asistencemi
Ústřední
zón
##tiny
##dami
##ánský
zaty
Moj
zahradní
slovní
nedává
směrech
koncern
jazykem
transakcí
pravicové
Business
Valaš
nespraved
Hop
sád
pojedou
narazila
naklo
neme
druhej
případnou
skutečností
McG
Edenu
astronomi
katolické
Žďár
Bod
Jmé
Lag
##Station
##enul
##skov
mainst
##cháme
německým
obratem
účastník
nepřiměř
regionálních
nepřímo
##škin
Vysvět
hospodářský
šťá
Lö
nostal
##ib
##tisí
papri
podíváme
vyjel
Málok
napadne
hudbou
prevence
hudebního
Bohemia
Ščas
##sl
##geni
proni
##letů
##trem
šéfovi
podvody
důchodce
farmě
udělám
podpisy
##émě
##uge
Podez
dobří
vítězného
rozšířila
Chytil
přestupek
neznámé
zásluhy
všeobecně
PlayStation
Chášukdžího
medzinárod
Bom
Kně
Mlá
##řiny
přeta
konver
Strán
tenist
samém
změnami
centrech
úřadům
proměnit
dosavadního
zaujme
vývozu
rezervace
Strážníci
Montrealu
začínající
Jerem
dale
##hľad
##skočila
kritický
kandiduje
technickou
Domaž
svátku
pracovně
věřící
Starší
uplynulé
Lídr
Nebyla
dočká
svítí
termíny
avizoval
brambory
figuruje
vydírání
nedbalosti
Konzervat
pum
učil
pob
##ckera
obdržela
takoví
připis
přílo
Informaci
Horák
sídle
grafi
dohad
zaujmout
Wein
Italové
prohlídce
nádobí
sféře
zezadu
Svá
cedu
slog
##orož
##cových
##rácie
##onské
rozkaz
lesk
dostanu
tahou
Záme
##sána
výsledcích
výrobou
britském
samotným
sloup
##být
mobilního
omyl
##prodávanější
Arcelor
Delo
KP
Koda
vou
##TC
##ator
vydělal
##řici
##pele
Zastav
bělo
podílela
Pacha
velikono
vojska
1987
prezentaci
Připomněl
Půl
##cht
mincí
stáhl
chodím
jedince
##linka
trávě
mimořádnou
neofici
AV
Alice
Mis
prošetř
##rátila
spojí
členka
výrobních
hasiče
penze
provádě
neexistují
manipulace
zdůvodnil
##bližne
zpožděním
Neymar
##ope
##viny
##gner
pritom
nábor
chut
Pojišťov
známí
jedinců
Dukov
našly
nenas
vzorem
zachytit
Netoli
Nechtěl
double
Kapitán
Gaj
Způsob
vskutku
Žlu
##odivu
inzer
Radovan
slyšeli
tempu
hlídky
samostatného
prověřit
zábavy
houby
pacientům
elegantní
nastřílel
TASS
##opravdy
Tal
případném
úspěšní
sochu
textů
sbírá
profesionálních
Hanz
přesune
digitálních
místopředsedkyně
diktatu
dluhopisy
Favor
NP
cenách
##cifer
výpočet
prasat
krasob
##tečného
ministerstev
nemusejí
Miloslav
prodaných
citlivé
svahu
Stojí
##bodový
uskutečnila
Rádi
Blue
potažmo
LED
kedy
uchy
ŽK
##ittal
zar
obtěž
zpr
volna
##hledech
zabij
##kládali
Jugos
kupuje
zdůraznila
porážek
Rose
Divadla
Nizozemsko
zeleninu
voľby
potrebné
Vlastimil
Hö
Všem
evolu
##oma
Pohled
reorganiz
prase
##oté
pasti
léčit
Vešker
zdravotně
kupují
důsledkem
řádově
složil
##omorav
Eng
pokyny
dramaturg
desetitisíce
Peč
mesta
##vený
##chnout
##rodí
přesný
společná
##háme
papr
vodo
postavené
dostatečný
kritizovali
přihlásit
pojistné
bezprostřední
kvót
Klí
Riv
##skav
##torátu
##cková
##esy
vín
##ovanosti
tvrdou
správným
profesí
názorem
pohyboval
obviněný
alternativu
kancléřky
strukturu
předváno
Mirek
Paroubek
Hot
prohléd
##vače
Pošt
##ivých
osloven
nevhodné
Karlín
##štat
vařit
sumy
Schick
súdu
Zlaté
elektromobily
íránské
vyčist
Jeruzalémě
Očekává
recykla
ISS
ON
kemp
lva
##úru
##ezení
jedny
vzpou
##stávají
##endem
Celkový
hladce
porážka
vyrábějí
obsadili
linii
smartphony
neschopnosti
Islanders
Experti
IB
ded
ocelá
piz
podříz
reform
přesnou
Náměst
doping
bylin
185
Slovenské
zemědělci
Stanciu
naučí
pauzu
zločinů
Městské
recepty
přivezl
Média
vizuální
Blá
Rab
##TI
##teče
doklad
vyrůst
##ezuel
měnové
##bavě
leč
##letní
samého
pracujících
kolejí
priem
považována
střelby
ochranou
stěže
žalud
Nechá
balík
pocitu
Teplic
Vlastní
Dukle
Upřím
Mrzí
LA
bala
fará
##Mittal
sema
##arilo
prsa
přijedou
strane
##ánského
dáte
auty
podobném
##manem
135
zvolí
Bílé
dohodly
Stutt
dráha
doufat
tvorba
1950
netušil
knížky
šatů
Štrasburku
davy
zacházení
##ried
kdežto
cestovatel
obchodníci
zmínila
obrovským
prodl
zlepšila
Říha
hotový
podlahy
zaměření
znalostí
Trutnov
Puigdem
AB
Bli
Dim
Dvoji
IC
Sti
mobily
##torát
česk
##cházejícím
školního
otevřeno
důvěrou
sousedství
variantě
nekompromi
posudku
##asedmdesáti
CE
Tony
fé
dohlí
připravoval
Muže
bojových
nabídli
Beroun
poslancům
přesněji
domácnost
vážný
650
odhalili
Chorvatsku
shromážd
chystané
nepomůže
prvními
filmem
otevřena
zavřít
Vladislav
realitě
daňový
oblíbenou
diplomatické
podnikatelské
Mezinárodního
dvora
vzhledu
chlubí
inovativní
mz
Žili
zasaz
vyvar
Proz
předsedovi
kontroluje
Británií
MeToo
překvapivé
nepřekvap
Stef
smířit
okamžiky
Irsku
připojí
##gorit
sedmdesátých
mesia
pasažérů
Detroitu
tetování
soustavy
parkovišti
Šmíd
Dřív
bál
Špa
##žemi
##FO
##90
vyma
##rovaného
vídeň
kaš
uveden
Rein
odborníka
východním
Step
spadlo
##orient
padesátých
kriminality
ohlásil
Faltýnka
Lucembur
Xiaomi
ArcelorMittal
Dvakrát
Svěd
zvr
##ohled
##jer
##MI
spekt
nezdá
kompenz
zakázáno
Halep
neode
dospěl
hrdý
litru
elektrický
uplatnit
odpočinek
zvířete
letouny
displeji
Chebu
Dum
Klas
mzd
vtedy
neos
odsud
##sadí
##atolog
čekáme
pozemní
##oněme
lyže
kritizovala
Stol
Dostali
Pravidel
smutný
federální
riad
Trans
Petrohradu
Hapal
Podnikatel
Elect
uvo
vtr
##ea
doopravdy
##lánu
přídav
##ington
následujícím
službou
kandidátku
řidičům
zajímavosti
hlubší
monit
nepřekon
emotivní
přítelkyní
výbuch
Židé
městečku
nesmějí
Hodonín
globali
##bici
##zdí
zařídit
##tivě
sousedy
říkáme
##dělil
hodnotil
nulu
Vánocích
advokáta
##členná
maďarské
fyzik
mizer
kufru
milimetrů
deficit
zpest
opě
##berk
bomba
muslimové
Renault
halé
vlo
šup
pria
účastnil
bezpečnostního
varovala
předpoklady
##pouště
turecký
ilegální
výtrž
GALERIE
šum
##čeni
##šič
zác
příklady
opod
nedoporu
výrobek
úvodních
pasivní
jakoukoli
bomby
zpomalení
Vítkovic
Dallas
cigarety
Hřib
Energy
neub
sejdou
##léb
ruší
premiéry
berlín
strávili
nastává
Chápu
porodila
přednášky
zhodnotil
pohřbu
havárii
Sty
##ava
##tet
##icy
nechut
Pres
účinku
životnost
řadách
přímého
zavedla
vraždou
přerušení
babičky
křesťanství
odstartuje
akutní
Nezapom
obstará
mláďata
Foldyna
idi
dorazit
##ckrát
##stopad
Stad
Koalice
Čechům
Celkové
umístil
titulní
obviněných
seznámil
Archiv
osudy
stěhování
Egyptě
Matthe
guvernér
nejslavnější
##trat
zaplně
vecí
výhledem
##rigu
satelit
novele
logo
uznat
autosal
##perto
zveřejní
zvládá
požáry
španělský
chytrý
Základem
Třince
skaut
##plyv
GPS
Sad
Stě
zkrát
zkres
Čel
Šind
##ávaly
##řují
##arin
nálady
rozměry
stán
Doh
stanoví
soutěžích
pervit
podstaty
Mladou
Tvrdík
Journal
##glo
##ite
##xit
vyrobí
odem
závid
předpoví
obchodníků
investičních
regiony
Andrew
pasáže
odvetě
Plaga
špinavých
Shi
usp
##číková
tepli
děkuji
cítili
hokejisty
volili
myslíme
typický
blockcha
nalezli
poboček
Frýd
výpadek
nezměnilo
Hvězd
Fried
zkolab
Dře
Dia
Vládní
ptali
pochodu
zastřelil
zahynul
##álku
Vyjád
##čanů
Hay
##řeným
pyšní
Irsko
manipulaci
námořní
neoprávněně
šatech
Divadle
Pořada
adekvátní
Nom
zmá
##ťaž
##raví
##peři
protiúto
spoluob
interven
ostří
rybí
hrozil
vyhlásili
Salc
herectví
srážce
renes
interaktivní
prozrazuje
hovězí
rut
Šang
štít
##žovala
##ózy
prohru
##álnější
způsobí
výsledkům
nebýt
Letň
vojáka
slavnosti
vstupné
poskytnutí
masové
doporučují
zasahuje
maklé
pobřežní
odpůrců
výcviku
Totten
zakazuje
Šla
výlety
mapu
týka
vedené
volieb
pohonem
odpadů
sanit
úložiště
dozvíte
nejvýznamnější
Melbourne
Výroba
Glas
##ml
poty
neje
##celi
letním
##kovic
##bík
čínskou
nesmíme
kopec
naplnit
Claude
rozdělit
frekvent
vrstvy
Bri
Sel
##jav
##tkou
##blo
rozdělí
součtu
ředitelky
klubový
působící
Bílá
klimatické
riskovat
Paula
Hradiště
Odpověď
životopis
zprvu
rô
řeku
účten
pětina
kanalizace
titulem
režie
vrácení
iDnes
žalobě
slz
Přemýš
Šumavě
Namí
Tit
éře
Živ
##níčka
dočasné
promyš
##orty
##mag
##sať
nadměr
##jícími
nesna
listů
1942
Snažil
legislativa
Banky
vápna
folkl
Penta
Sor
nakolik
rozliš
pravdě
snazší
kolegu
panely
kauzou
letadle
rozumě
zpěvačky
transparentní
přehlídka
zákoně
legitimní
relevantní
Ya
##Foto
##hodných
##žijeme
##vědčuje
Repor
hlasitě
kritickém
profesi
ryze
vyhrály
1978
mouky
Belgič
rozumu
dostáváme
destinací
teroristických
totálně
kříže
Poved
that
obrát
předs
##stop
nezpochyb
Střel
procentům
historickém
Rož
minimali
opakované
bytových
nápadem
zastávce
nevznik
sovětských
spoluhráč
výtvarné
suverénně
Zlod
pus
špí
##jou
pořídí
síni
domlou
dálniční
Vítek
výběrem
posunula
Světová
Stanislava
Korn
zlatý
Desít
Vysočiny
organismu
farmace
go
puber
##čnú
##ďka
##liť
##stičtí
##stupuje
pouť
skôr
Aneta
tipy
postaven
krk
Mika
Alber
Peš
1984
syrského
Patrick
Brown
mrazu
utkáním
Disney
hloubky
udeřil
fatální
pričom
dopravním
bývalému
pláže
versus
rozdílné
univerzální
kamarádky
příslib
selhá
motivovat
uskutečnil
Speku
udrželi
Palestinci
akademii
nechodí
Cab
ztě
##romu
zabud
vynik
motý
ing
letům
##loup
##tern
##kováním
páteř
filt
Kola
dařit
velitele
dovolená
pohybovala
provází
spolkové
##letět
##dorf
vlajku
Mobile
##cing
##toval
docházet
##arla
přived
mohol
##hraní
ombud
psala
fungoval
Duch
venkově
dohodla
židle
modelem
vytrvalo
dočkali
rukojmí
zom
docházelo
##atá
##náren
##ico
zatkla
spolujezd
Inf
nevyšel
základna
zlomil
Josep
Kram
posílila
momentu
nula
Začala
záměrem
spolehnout
House
komedii
sklonku
Haj
oliv
ÚS
šlap
nájezd
hlasu
nikým
##ránce
dodávat
svaté
zúčastnili
financovat
reálný
##mluvu
čerstvý
rameny
zásahů
terape
Výrobce
miliardáře
Kazach
##cer
##řípadě
vest
##hlasem
##hledě
koukat
Miko
Heř
sobotního
dokážu
Hráli
koncepci
akumulá
gigant
invazi
Rakuš
snídani
White
Lob
úspo
##gó
oddech
pozí
tudy
bezvý
bezpochyby
převa
popřípadě
##hlého
libyj
metrech
klima
dopla
##ražené
klíčovým
odpovídají
nielen
Jednoho
schody
nelegálně
##attle
splácet
Severoat
dým
##bon
dome
##kuřá
##cki
hotovost
kaza
schizof
strávila
palivo
hrdinů
zajímalo
Pchjongjang
oddlužení
bří
ohlas
uleh
zřiz
##15
nasá
##zivě
Takzvan
zakrý
čtvrtině
primář
tvrdili
Silva
vyrobené
odhodla
Frýdek
Dolínek
Moderátor
ptají
Šoj
##oka
##uš
stranické
každých
koleno
bojové
speciálním
dovolání
bloků
průměrnou
kopci
farmu
spustila
zpěváka
Murín
aplik
Sarko
CD
Osla
SS
truh
##rel
##ivo
##ôd
poisť
##ungu
paktu
smál
##trest
Francií
LeB
##pustilo
omezuje
odsouhlas
ocel
soukromá
Nepři
štvrtok
nástrojem
Pev
lad
Čt
##áteční
prona
stráže
##ladí
zákonné
karta
ovlivňují
příjmení
vyloučeno
videorozhod
Chystá
generálním
přemýšlí
uspěla
ukradl
holčička
Oliver
nalezení
Pila
Thu
krů
výdě
rozchodu
##bají
nezodpověd
##oupa
Colou
úřadující
generála
preci
přesunul
úplný
##cionální
identifikovat
těhotná
Otro
Vraž
zazá
##dez
##ester
Narodil
Několi
třicí
hráčka
jižních
liet
technologických
optimali
oběťmi
marihuany
dvůr
uveřej
ženách
##wo
##lenie
seš
zasti
kolen
reperto
nemohly
##ujme
upozornili
zásadních
nenašli
ukončili
určených
konstrukcí
Sobě
aktivních
zkušenostmi
Nizozemska
Menší
identity
Tokiu
zre
proboj
násle
##naný
mužské
speciálního
udělení
kupříkladu
synte
Seri
Norsku
##kánské
elity
nedokážu
útulku
neurčit
Irá
NS
žilo
##AA
nekal
vyhlí
##rubí
##chody
##řadí
Vyše
Oblíb
pokračovali
nulou
nosorož
požadavkům
mlčí
atrakce
faktorem
okresní
Jméno
Hara
Malo
ctí
fal
##áry
##stek
vyk
preb
věkem
lidstva
patřilo
průkop
neuvid
forvard
##poziční
Opavy
porušuje
potravy
olympijská
Light
dramatické
Conte
pitné
Edmon
nepovažuje
Dov
gala
načer
prosk
Power
leto
volají
nepřemýš
##graph
slun
Paris
slabý
aktualiz
půjček
úředníky
zaměstnavatelů
Kalifornie
potaz
demonstrantů
Vzápětí
Prostor
Květ
uchová
##cující
netají
dol
##tickou
##řejší
chováním
maleb
nadšen
placené
projevil
americkými
tvrdá
historická
Lete
početní
rytí
lukra
obyčejný
přesilovky
Zvláštní
hliník
rybníka
mistryň
Obvykle
Liš
ucházet
vlou
##cra
##brav
nerad
oble
##bosti
konalo
určení
pořádný
oznámí
automobilový
porucha
odměna
Demok
Nejdůležitější
blížící
propagaci
nazvaný
Červenka
Nechybí
Křesťan
následek
Islan
##roka
sesu
docí
dolož
spoleh
tuku
modrá
mému
horko
##ceným
archivu
tradičního
kolaps
neodpoví
startů
extraligu
brankáři
komunita
rozumět
Eric
Dvouhra
náskokem
RegioJ
pobou
vykres
pravomo
aukce
##manžel
platforma
približne
trénuje
nádvoří
Steven
důchodů
vyslovil
Městský
zoufal
záznamů
Urban
tweet
bílkov
Digit
Plo
Uvedla
##gová
zámin
čisti
Neb
vyjas
Krkonoš
trenéry
hodinek
usmě
vyhrávat
čemž
agresiv
netre
onoho
oživit
vyskytuje
tmavé
Petříček
pavilonu
znovuzvo
René
smer
väz
vicem
nač
##edie
dokládá
vykaz
nájmu
legrace
nadříz
##viště
populaci
porušil
klavír
deklar
burza
muzikálu
salát
oborech
jakéhokoliv
zkušeb
Dcera
Jord
Zver
oznam
uši
nádrž
nadšeně
nedoz
středisku
##naté
úřadě
Domini
##redi
předpoklad
poznamenává
sázka
doprovází
uvěz
nabád
management
jihovýchodní
Gabriel
God
kár
##žír
Stovky
##ysl
Možnost
provede
rychlou
116
Letech
ukončí
hrudní
čistou
Stoch
vnitřních
uměleckých
hranicemi
vteřiny
vesmírné
obličeji
obranné
Přerov
integrace
Juventusu
unijních
uhradit
Gard
Jab
neúčast
neznají
vymaz
návaz
##stající
komor
ochutnat
nočních
vytvor
Papež
develo
mono
očak
Naval
zvítězit
chrámu
nedostanou
formální
softwaru
Obchodní
femin
Ori
Vitá
##ratem
##počí
##mos
Zách
klukům
živoči
podíváte
hormon
používal
desítce
Musil
jízdné
zpravodajských
balkon
neznámého
chválil
Sarah
memorandu
barokní
Corbyn
nejlevnější
Sub
Šance
##pend
##zli
nastoupili
##ativu
odcházejí
záva
nádrží
předvedla
choval
živě
vysou
miesto
kuku
draftu
akcii
pomáhala
##ashion
předposlední
vybírají
široká
komunit
vypovídat
Lakers
lázně
řemeslní
Palestinců
neonaci
Chra
Mrt
Uz
rezident
##arev
roků
##vacích
vejde
chytře
pětiny
celému
Mela
kariér
Drag
nedostatečné
rameno
havárie
##žaduje
Armáda
jablon
čelní
##nutou
##žitý
Začátek
Nejspí
Názor
##myslí
stěží
klubové
lehká
1970
počítačové
mesiac
proslavil
Lewis
Ach
hap
##ll
##tého
##řic
oplá
přehledem
algorit
skutečných
podpořilo
nepřítom
ztrácejí
dohodou
myšlenkou
zasáhly
pruhy
vedoucích
doživotí
Vokřál
Tvá
hitem
tlou
neoby
zastra
vystřelil
##tici
##náře
přivedla
##řizuje
předě
větu
velcí
##ivého
pozůstat
stagn
značení
těža
Jiřímu
##nicemi
legálně
Pep
natočit
zavedl
slíbila
Morris
švédské
pôvod
útěk
súčasnosti
Tesco
Sáblíková
sadu
tek
zba
##ovom
##láci
##měte
##buji
##lovaných
##čik
reprezentanti
zachová
přípravou
Pomeje
prezidenti
regula
naznačují
princezna
předejít
nemyslí
Hertl
nehnuteľ
Brá
Hovo
Kem
Plu
Práv
sati
##pii
##ináv
vůdcem
##beru
vyšli
volnou
přestřel
některého
mužstvu
regene
jízdních
zpravodajský
oslovila
izraelský
pohřb
nakoupit
tolerance
meste
##deaux
Benjamin
túto
##enskou
##inos
##ardo
##ámy
bohu
pouští
protikorup
rub
stěžoval
rezort
stihnout
pamatuje
chlape
Krmenčík
##pilo
##řeného
předkola
hoře
překvapí
Obje
##endel
Schne
Trén
hlásit
bitvu
židovského
izraelského
Hokejový
alian
lanovky
odškodné
vynález
Pentag
Baví
kloub
neot
##embra
##nuty
inklu
pravá
##leman
přeplně
##plní
tašky
povy
nevyt
zabila
velikostí
hydra
zavede
nominan
nechávají
preference
nadsázkou
Článek
Finále
Mó
dus
edit
##iter
namo
chát
máslo
##kovice
##léd
##išť
traum
popra
šestou
padlých
Juan
komplikované
nákupní
zapomenut
Císa
Banka
katastrofa
remízu
http
Hitle
holding
žánru
ceremoniálu
Strnad
SpaceX
##uklear
trávníku
##isegrád
ró
##skep
##akes
##věst
##vozu
buněk
středním
vraha
teplot
##hradské
půjdu
konstatovat
stanovené
tureckého
křídlo
zachránila
odstartovala
Měsíce
Kočner
riaditeľ
Pořadatelé
##bas
##ake
##átcích
sveta
##hánět
kontinu
Odpoledne
##tona
Libercem
předpokladu
pochopili
americkému
Stuch
majetkem
časopise
pokroku
rasismu
reflekt
poloostrově
ambiciózní
Čunek
ospravedl
dani
jog
##hého
##hané
##žních
pohov
##atch
##zející
oplo
pravdi
většin
zabití
zrani
povinně
dovede
Strach
Ledecké
SN
Titu
##dák
Naproti
půvab
##mena
tendr
protiv
tisících
Záh
soudit
Holub
175
významná
Time
Jihokorej
vracel
arabské
multikultu
zoufale
Energie
drtivé
bytost
Award
Bek
Love
Madu
přimět
příliv
přepravu
silných
dokončil
pravidly
Duka
hospodě
důvěra
Tampa
stoupání
hospodářského
jazyků
zavádí
přispěla
bavíme
Spoluprá
Osobní
benefit
Speciální
laboratoře
Partners
air
janu
##AP
prok
podráž
Českým
politickými
zveřejnili
poradců
vzděláním
názvy
africké
nečekané
pokrý
zbývajících
zvážit
obuv
rekreační
chemiká
Rittich
Origin
##isky
zasí
podlož
##bah
bezú
akredit
použila
tamního
mladými
##gusta
mysliv
odborná
##ration
Raději
sociálními
pohr
1982
Ukrajinou
migrantům
Snap
sladké
olomoucké
Phoeni
Kelly
nedeľu
příslušníky
Aho
MI
zajetí
žele
obsá
svod
Colum
sobota
podporoval
spadají
obnovy
fyzických
navázal
Technické
kinech
Průměrný
orchestr
Fur
ožen
pavou
ubývá
##40
##stily
##itým
přichy
Zapom
Nejvý
stanicích
Vítě
##bera
navrhne
fanoušek
Opav
nechápu
užívají
Patrika
spustit
Bordeaux
mírný
managementu
tolerovat
Jek
Rev
##elin
##šinou
##ovských
naby
##meran
věda
sklu
váhy
Chan
Prince
obětem
zkusil
skutečná
zvol
nechtělo
plynov
trefu
proměnila
##terak
křesťanské
cyklus
zálohy
Čínská
domorod
FS
Rut
kví
##ensku
rozměrů
##tíž
boom
bojích
deale
zahrají
##hlejší
pěstí
dusí
doplnění
##balistky
Armé
stropu
nastud
prezentuje
naleznete
Cav
konven
těžit
osmdesáti
Některá
Však
vstupenek
pivot
Harris
zavádění
pobočku
Dlouhé
chápat
sekundu
Majitelé
nepřid
cukroví
osamě
trofeje
zásady
dolu
splní
potrubí
říkalo
nepozná
Saint
zmíněná
umoc
zbylých
utrpěli
topení
administrativa
rozloze
ige
přer
##alové
podpí
##kole
másla
dívá
nadcházejících
Vele
těžkým
hrozné
Vac
paragraf
hlíd
1979
tvůrčí
taktiku
hrobu
lhůtu
Středočeského
Teploty
Dro
evange
ujel
odhlas
výslu
nadšením
Spolo
rády
vyhlášky
přáli
Beck
sestavu
##indl
muslimské
Čapího
Nosek
Místopředseda
Oce
festi
nést
##ličky
##rálu
pras
patent
##ínky
##orth
členov
nabídnou
Krista
živý
Europo
##vacího
designér
Záchran
EM
HR
Kok
Sup
konverz
##upl
reci
zvané
aukci
soudruh
dvouleté
městy
premiérky
laborat
zkoušce
překvapila
##ničce
klasického
zaznamenaly
sdílí
##ejtman
útočníků
implement
operačního
svátcích
Hodnota
Jie
Octav
petro
##řovat
přibude
##žíte
vysu
politickém
##vania
##pravách
umělá
Tajem
spousty
zoologické
kontaktní
rostla
úředník
promění
uspořádat
legendárního
Červený
nereál
vnitrostra
Řepka
Jevgeni
kelím
Credit
heli
kory
ohledech
##list
dojet
napůl
budoucím
časech
Marcel
vodop
##psat
Samu
##blíže
touhu
jednotlivce
umístěna
bulvá
rozvodu
zhodnocení
zahrád
Express
Chvíli
Youn
flo
##líci
##loví
##enést
časť
Hosp
zkusí
milé
zneužívá
zasáhne
přinášejí
motivem
kalku
Rumunsko
Prostějově
Středočeském
invaze
opilý
Francis
CIT
Zv
##uma
##tuje
##čič
##zce
zaob
zamrz
##obo
věřili
letního
organizuje
zapal
úřadem
jedinci
soko
##komisa
znamenal
revoluční
dotkne
exekuce
konečném
Jonat
rozšiřovat
Kostel
Obžalovaný
Fly
Niss
gesta
Čch
odprac
odcest
##lákat
předložil
léčí
##eňa
jednotku
divné
výrobcem
reprezentovat
úspěšného
pátrají
inspiru
Všechna
továrně
družstvo
zvuku
Netflix
Dat
furt
gum
##jdeme
ruch
Chovan
autu
soudru
hokejového
Kraus
1981
získávat
chore
1972
závislé
tvrzením
uvězně
odhodlání
Bulharsko
monarchie
Kovanda
Sánchez
Lóp
Ole
ukládá
##hující
##xí
přenést
jezí
##nicky
##neu
##dici
rukách
Chru
plánem
##pers
sedmdesáti
ukázky
přidáme
##keř
bibli
postel
půjčku
italskou
elektronických
klesat
4000
poroste
spekulovat
rakouský
přelom
umím
Knight
koupelny
florbal
databáze
Šťastný
fabri
##vými
záver
##roblém
Princ
denuklear
desetkrát
profit
lavičky
likvidace
Bednář
schvalování
Ráda
uložit
žer
##LS
užil
##radičně
pětadvaceti
kouř
##iju
omezený
střílel
bydlel
komentátor
trávník
zpravoda
publikace
tajná
zuba
vicepremiér
reflex
zvědav
ECB
vypočítává
Aplikace
dab
##manipu
ulicemi
pohyby
pokusila
360
##myšlení
Upozornil
nemuselo
nevadilo
Flo
Sak
nebere
útocích
hlavičkou
podílem
kvalifik
partnerka
zneškod
##stitut
Písku
##rážejí
nedokážou
imigrantů
Fog
Pů
Seb
ladě
##ovskou
##chové
##cely
předběžné
prarod
opis
zápor
cenných
těžbě
postavena
základního
zkuste
čtvrtým
2500
lákají
Meli
vrstev
západního
otočili
##demokrati
##ING
zmluvy
alias
Human
otravy
##ountry
Doktor
normalizace
Dor
Šel
toa
##valem
zásu
Polo
svědci
žádnému
fotbalových
partnerky
přemo
šťastné
naváz
zjevné
jízdou
nazvané
brutálně
##štof
veliký
nežádoucí
Link
umy
##gers
##tz
##99
příplat
##izací
znalec
červených
ponú
dolar
ligový
upřesňuje
biatlonu
vyplý
rozšiřuje
neschopnost
Analytici
bezdrát
Půj
dna
##stali
##ráme
věta
věty
##hradech
Anny
Nápad
Novinkám
blízkého
telefonicky
dílčí
vysílat
prvkem
Ronalda
celostát
manažeři
koktej
Vadí
otra
##icím
neopak
odklá
##láp
##entil
beznad
důsledek
změnily
117
Souček
závodník
umíme
omezí
internetový
střídá
vzorků
klimatizace
průzkumy
Maminka
Českomorav
Colours
Camp
non
nestra
##rátem
vyjet
##valech
##kovského
Teor
Výše
pětadvacet
přesvědčil
vydávají
extremi
ostrovech
1976
##atřicet
hudebník
vrtulníku
specialista
omluvit
přehlídku
nepřetržitě
bok
pud
uchop
ztotož
##ákovi
##zím
namal
nejez
##ilé
##ezi
přístře
##telnosti
##émy
Dokáže
břeh
obyvatelstvo
prostorem
nechcete
tanků
povahy
uzávě
Raiffe
Uved
##žkou
pohledy
vystře
kostí
jisk
nezku
pouta
stánku
zvenčí
světovým
mysl
bojovala
Britské
ktorým
dodávku
kilometrech
##pustné
Schul
pochlu
320
samostatný
Denisa
Kubera
rozumné
přivítá
doktora
tance
##jon
zamyslet
##tických
##omoc
koř
žádní
chytit
plavání
Brň
vyšetrov
ztro
europ
##ruslení
Serena
litoval
fyzickou
automatické
analýze
vystupoval
betonu
##lárních
překážek
benzinu
srovnal
kanonýr
Gregor
kolemjdoucí
adep
shodou
utě
##žným
náleží
prácu
sednout
stanovit
záchvat
testovací
čínským
podvodů
směřovat
1953
kanadský
iPhonu
Severoče
navštívila
Games
CV
Ztra
gr
kino
Žit
##cil
##trover
##řenější
##žitelné
##II
##líčka
inovací
##kovní
těšil
deprese
osad
modu
přesta
provozování
opatřením
stanovil
přenech
fakultu
uvolnit
srovnávat
Mistrovství
Lady
##alem
##tovou
##čou
##lině
##aned
zamo
##eton
vytip
kafe
Martín
ledové
správci
drahý
Myslel
desítkami
vládnou
nuceni
Benda
louce
umělecký
hledala
ušetří
propojit
nejvýznamnějších
Econom
Avi
Hilla
Saz
dary
##hodinové
trénu
ležel
##ečtí
pustila
školních
Slovák
manažerů
kamarádem
luxusních
rozšiřování
lhůty
Kenn
katastru
Bureš
image
Minimálně
přestoupil
Které
hip
##sali
##pacit
plan
projevit
Prí
Reprezent
životních
Karlova
podílejí
spravod
##anásob
penia
zimním
naplnění
Mnohé
obojí
Helsin
nekoment
zahrála
Frýdku
přispívají
displejem
zmírnění
doteď
oční
##coval
karav
##ivým
boho
Nejstar
##ránily
komunistický
takovými
klasická
Angely
kamenné
maďarský
diktátor
skříň
valné
kritikou
promluvit
Žižkov
vyhrožoval
informácií
nezasá
Parlamentu
Koruna
Oceláři
týždeň
vich
vchodu
vino
##úš
##skar
##idů
zánět
##ranti
Současné
německy
položit
Jiné
vztahuje
jakýkoli
konstrukt
signat
Magda
zákroky
zhoršení
nenechal
nejdůležitějších
Thomp
distribuci
pokladny
Cestou
gymna
arogan
autoritář
Bis
Ou
Šen
##rování
##tam
poklid
##skí
##kovanou
domovy
podíval
Rozhovor
Trh
spojenectví
##báři
exekuci
argumentuje
připomínky
organismus
##střelu
potýkají
čerpací
zotav
Stones
Raiffeisen
Ulice
imun
včel
##tahuje
napsáno
sluší
pěve
přitaž
pražští
1983
Honor
záložníka
nechystá
faceboo
Městská
Jediným
angličtiny
prokuratura
Nutno
pašerá
Laz
##hie
##labí
kotel
smýš
dokonalé
získané
provozovatelé
Německé
plánoval
##ženém
slavnou
ústavního
zruší
jmény
poradci
zasněž
hladinou
křiv
sazbu
Začali
Orbána
Samotná
hrubé
dominuje
##TVS
doporučuji
abstra
Taylor
zhotov
JAR
Tvůr
fú
##žeme
došli
dopoled
##arová
##řete
parf
dokonalý
Rey
oznámit
Neměli
##ongol
Napsal
##fektiv
krásných
leteckou
prohlub
Štěpánka
zónu
Žižkově
lístků
oteplování
poisťov
Jung
Ple
##liktů
nestá
nevede
##ets
mapě
komis
parazit
Andy
manif
manželce
střecha
nastavené
postižených
módu
##pozič
Central
FOTOG
sluchátka
Index
vicemist
daná
uhli
##nům
##tovi
předběžně
##líp
Podnik
tamním
Matej
Champion
Petry
následků
divizi
##efek
dodávají
Ročně
odmítlo
nějakému
sídlišti
Doba
kleno
určená
rozhodčího
Cykli
anonymní
##inásobný
Dvořáka
Varšavské
Deloitte
CP
Švej
##yl
##jom
neru
dopadu
##atra
vynes
##tající
##util
celníci
neproz
##ander
tyče
nemůžou
##hers
vysokými
známek
Syd
550
Nepří
##ovečer
Rumunska
Šimon
literaturu
Rolling
Automobilka
Kulhánek
aprí
##sovou
##gl
##čuk
##BO
##ceho
koření
neznal
zdlou
expres
##čice
##kodra
ofsaj
##covia
hospodářskou
Termín
Koreou
doufají
majitelům
transplan
odlišný
záběrů
délky
Městského
armádou
levicové
pohotovosti
českobudějov
raně
vyše
bezmoc
čáru
časový
autech
Jap
Jágra
daních
##běhlo
střechou
nepřiz
Meziříčí
nezávislí
koncertní
sousedním
ovládli
Atlan
ukrajinský
příběhem
nastupoval
Develop
zpřísnění
Rybář
Sedláček
Škola
##éla
##chám
rozd
vědu
##plod
váze
Nemůžu
dětskou
otevřou
260
dozadu
zpoplat
Zprávám
ilustrační
lázní
disciplíny
expanzi
Kennedy
usou
##cej
zastí
výslech
měřit
popáté
areně
Lidem
prodával
neoch
zapojili
Vánoci
prvorepubli
teorii
dozvědět
pneumatik
nedělního
facebookovém
libovol
Bayern
Komentář
FOTOGALERIE
Mý
##ačtyřicetiletý
neškod
##ican
průhled
Takovou
leden
sportů
týdenní
skvělým
dlouhodobou
Diam
##znamenal
nebezpečných
nacistické
bavilo
odvolací
globálního
platformu
navštívili
epidemie
Mountfield
harmono
filharmonie
žalu
##inho
trhem
##lentní
Machá
starém
činem
neodpovídá
Macro
Harley
bankovních
##ínala
tramvajové
čokolád
koordinátor
Lukeš
Upřímně
oké
with
##žného
##CE
##stovi
##níkov
##rač
obávat
##nevě
volat
mailu
neporu
##icová
čerpá
starob
metodu
takovéto
aktuálního
zlatých
teroristy
nepravděpodob
Amazonu
trojici
Krčál
Investice
CR
Faj
##dily
##encie
##něnými
nepomá
##icku
padají
poslancem
##jížděli
komentářů
prodejců
svobodně
Donaldem
vyzkoušel
úplne
##ENT
ochranné
Vinohradech
epidemi
haléřů
Hard
Uzav
ove
##ínat
##iner
##anky
##rávní
řekněme
##icu
Chi
Recep
krásu
Karlově
výkonného
prevád
Peuge
ústavních
stěžovat
obecních
nízký
vyřešení
soustředě
##jatý
památkou
dopisy
Cestující
nastupuje
Oznámil
solidarity
Namísto
Bad
Dak
epo
srazila
##lines
##aki
výjezd
mučení
vzory
Marii
Slovenskem
potřebná
čísle
střelci
Arm
zakázané
hospodářských
protestovali
sexuálních
přestupu
nájemní
chudé
ateliéru
Teherán
##strov
power
odboj
##ácha
půlku
zdejších
##pěl
číslech
totožnost
anglický
prodloužil
Kamará
střetnutí
statistický
důchodců
kontaktovat
zdokon
severokorejského
absurd
odchovanec
nejpopulár
Drob
stý
odložit
##lun
hořet
neproje
Stor
rodí
patřily
Tenkrát
odhalí
slavili
posílají
demokracií
reformě
Georg
konflikty
zřítil
pardubické
rizikové
Vettel
Cleveland
Jurečka
Dam
Nich
upadl
##gové
##bát
##antu
sté
##dělat
potre
lebo
hrabě
prezidentu
Nejlépe
značný
zdravá
koučem
##gate
slovem
manželů
očekávali
poloze
Zelených
##finálové
##pouští
nekontro
vědomím
bavil
izraelských
front
závazků
klíšť
Investment
pořádají
brzdí
břicha
audit
zatížení
mů
##ön
výskytu
Infor
chodbě
krátká
vrátane
starostu
Švédové
##cenění
neúspěchu
táborech
inkasovali
architekturu
švýcarské
navštívilo
tendence
necítí
jazz
prokazatel
##cť
##wart
##ôvod
##nier
pravil
##érem
Intel
Inspek
útočit
Lidové
##ffen
automobilového
Těsně
Fotografie
Prix
dostupný
spotřební
šedé
stravy
Italský
kavárně
odvezla
nápisy
choroby
Hron
Jok
Pin
Rop
soš
##šným
##ňovalo
dotý
odklad
##isch
věcem
dialogu
podobnými
trestnou
opravovat
úřadech
Příliš
rodinném
letectva
požadavku
oceán
uživatelům
##oriad
nalezen
terorismus
ocitla
Televize
Láska
nárazu
Froome
vyrovnali
Sop
Tar
Vara
##uru
posty
poměrů
procházku
sau
černém
plýt
Předchozí
vlastníci
službami
zkoušel
hospodár
spolupracují
zapojil
vědeckých
zmap
samospráv
Salah
protiimigrační
Dvojice
Zet
Znojem
hno
naráží
##hom
vyskytují
přírůst
přežila
##rostit
Zelený
riziku
starostů
pasu
obnovitelných
závislá
uprchlíkům
specializuje
obzvláště
sběratel
vyplatit
supermarketu
billboardy
Kodaň
Helsinkách
vjezdu
pokaz
obhá
víra
autory
##krou
USB
##jímal
Auta
slovenským
vystoupila
zavin
Osud
alkoholi
Severním
vytápění
žlutou
Američanka
dohledu
nešťastné
Larsson
Hvězda
Philip
potoka
systematicky
motocyklů
Hill
bist
##ain
##coni
##ňovací
##CW
narazili
Kami
červený
183
britským
sníma
doporučila
typicky
publiku
sliboval
pomaleji
církevních
drogami
Přin
art
##éz
##gru
##šák
pořiz
roztom
přeživ
desiat
prezidentů
dáváme
##novy
domovní
vzniklé
##ktivu
odhadem
paralel
prohlášením
nechápe
idnes
registraci
oblibě
stezky
chráněné
rasi
Týden
Virgin
Malaj
syndrom
příšer
poutní
léčení
žádoucí
##heimu
šéfové
doplňují
výchovu
Davidson
nízkým
spadne
vážnou
přemýšlel
##tinent
stravu
vitam
dočkala
Okamžitě
Jekatě
Všet
##šé
##tujeme
Vyh
zdali
schopny
technická
pixabay
operátora
dospělosti
ozval
nafuk
obdivu
odsouzený
zakoupit
kláštera
oškli
odvíjí
ERÚ
Aha
Nisou
Zveřej
frá
##vory
##cup
##tete
##ars
##chách
Mast
Spolek
jasným
Ameriku
vaším
zavřené
zahraničními
Tram
maminkou
Denis
navrhoval
výuku
Republiky
výbavy
odolá
vajíčka
regulovat
Hed
tmy
##gher
##ÚK
seděli
semín
##ráním
##dosti
dostával
nesl
technik
Objem
nákladního
získávají
lékařskou
vypočí
neskôr
spokojenost
olomoucký
znaky
Ein
ZU
Zou
hľad
oněch
##gren
sekci
přihod
nejcen
splet
velry
nepri
vyslých
mladších
novinára
migra
občanského
podnikateli
rizikem
nedávném
dvojnásobný
nedůvěře
vanil
bakal
portfolia
kardiná
pomůcky
Kvapil
López
squ
##aut
##čkám
Poško
posvát
zlobí
partnerkou
zvolený
vozidle
Ondra
zvládnou
biop
zlepšil
architektů
příjemná
oblíbeným
zajišťují
Spoluprac
Klim
uvali
##ačka
##fung
##zovaný
##chala
neš
##itisí
##adlem
záli
maily
přežili
kolejích
založený
obrazovce
Slovácku
Ostrov
přirozenou
individuálně
zopakovat
nouz
Režie
Tayy
obchvatu
##omanžel
Ankara
nejhorším
ema
##ženými
##ónů
nejsla
tenisu
stavem
Berlus
Justin
nevěřil
sbírce
vyloučen
naučili
destinace
poslanecké
překročení
pracovišti
Hall
zlomek
agenturou
Wiz
YPG
ist
udí
##rana
##itost
zdvi
staří
změnili
zasvě
Těším
odpovídal
procesor
jízdenky
soukromou
Airbus
vítězi
schodech
prokurat
Beneše
vyčísle
Portugalsko
integraci
vyjížděli
Nenech
holokaustu
teenager
Hoš
mis
osaz
Šty
potop
##sklad
##ládal
vegan
##lenku
sahá
slunci
Přij
začínala
koaličních
půjdeme
sbírka
sousedé
Koud
Kouč
prohrávali
dodatečně
káv
Charlie
iniciativu
nefun
rybník
zdolal
Telefon
vyjednat
afrických
tratích
Týká
hůl
kned
Ťien
##anské
vyměř
##tického
##nán
veľa
letěl
hora
##vyklá
##stojní
Vyzkou
nikterak
ČSS
Konf
Míša
symboly
mandáty
odvolala
Centrální
Houston
dělníků
dlouhého
šokující
Thajsku
fla
nahlédnout
dokáží
zastal
##elsen
##tivou
##omíra
obalu
chatu
reží
volali
##kovaného
kdekoliv
##lence
silvest
námitky
plody
Karlem
Strama
živel
bohatou
cyklistů
spekuluje
Francouzská
exekutor
obhajobu
identifi
zvuky
překážkou
zahynuli
vyrostl
Spojeného
vzpomínám
Sydney
Fy
LM
Natu
##iní
vykli
vyvinut
Stroj
##vajícím
prezidentskou
počest
Všim
tiskovou
stavebním
víkendech
##TON
piloti
nepříjemný
Oficiální
racionální
Colorado
Din
OĽ
iR
Ču
##ziv
##cip
odrad
spr
Chr
chodník
hledáme
svolá
Víta
směny
vesele
Řekli
Hruška
vlajkou
přihrávku
vzestupu
nerespekt
Kněží
Méně
##iditel
náboj
##vaným
současnému
zdražení
řidička
používali
##anika
reagovali
Suár
vědomi
Líbí
Mostě
zesnulého
Wars
nesmyslné
major
hygienické
##wicz
AHL
Cros
Santa
Válka
Ztrá
oné
vďaka
##gale
##oviny
##leze
seděla
prokázal
prošly
##kyň
napom
skut
Přibli
zahraničných
nebem
poskytli
Komplet
zkoušet
André
ukazovat
popisu
Společnosti
absolvent
Slune
proběhnout
obhájit
##šedesáti
chaosu
Nedostatek
poukazují
Konečný
Výrazně
Zadr
hem
užili
hrající
Institut
##ínka
ženský
slavná
Joh
poznali
cele
použitím
řetězců
Avivu
Řezníček
Skála
Schwarzenberg
Zlo
kaka
vlek
##ctá
##fet
##aktivní
##orys
obavu
##mace
vzdor
nadpo
následovala
pořádání
platný
kultiv
videok
upravené
natáčet
vybudoval
obohat
sestrou
inspirace
Torontu
Blanka
Libereckém
Dostálová
Aspoň
Oč
Sb
nešel
sestru
proté
nejprodu
Nagy
chybou
##systém
Joe
bloká
proměn
pevnou
demokratický
bakterie
Smíchov
Karlsson
čokolády
řádech
Zélandu
Emil
##via
##átech
##zz
##rome
dort
##meš
vypě
##běhne
Velkým
omezování
usvěd
280
napadli
Moravu
tělocvič
potenciálně
cyklisté
falešných
marketingový
uvěřit
malíř
naprostá
Pchjongjangu
vzpamat
záchyt
nedala
vysp
nejprodávanější
Prosím
Zahraniční
Kaše
Bystri
několikanásob
155
listiny
znevý
půjčit
nominací
podrobností
chudobou
korupční
Vítězství
kontinent
koupelně
Znojmo
Emmanu
signály
OPCW
Nikulina
free
Galerie
Kapsch
Magistrát
Juni
Kang
Trop
chodu
gh
lám
čelo
víře
Kaz
velkorys
123
kapito
##lobá
konkurz
obnoven
stihli
Kubiš
poplatku
dosahují
nenechá
policejním
Profesor
kato
##lku
##ženi
přívě
přístro
potkala
pouhý
devát
##coin
útočné
koule
Martinu
lékařem
stupních
otevřeném
dokázaly
Olomoucký
ovlivňování
zpěv
startovat
nepodí
přirozený
dobrovolníků
digitalizace
vítězí
kvalitnější
odpůrce
Kritici
Mnichově
McDav
insolvenční
obřadu
ultraprav
snouben
telekomunikační
Bauer
laser
Makedonie
Tlu
vnik
proplá
zada
##ekonom
přijíždí
##lovce
Inspi
agendu
skutečným
rodinnou
Dahl
kombinací
papíře
vnitřního
zbavil
pilotů
pitom
zničení
onemocněním
Začátkem
narušení
kníže
honorá
##akespe
Tesa
##hing
##tery
nečin
zámoř
výt
##vedoucí
přečetl
čaje
zveřejněné
štěstím
Podobná
odpovědný
zdravého
Vidím
oživení
Renata
brzké
nasadit
Příčinou
McDonald
Wagner
Bav
Pec
Sw
sčítání
náhod
protiprávní
Vyp
mistryně
##movým
baráž
drahá
filmová
slovenskou
stroji
emisní
přinesly
regulá
Masarykova
utrpělo
muslimských
pohádka
budúc
pátečního
Erik
bizarní
uher
žralo
##ow
##vené
##ór
sestava
##tězí
dětech
celovečer
Toma
soc
složitý
sestavování
kůň
plasty
atrakcí
liberali
inspirací
příbuzné
vrcholem
Unikátní
East
Nena
Pur
Slad
dém
iné
rent
##aNO
##enze
##hop
odděli
vele
rozpá
##hur
začátky
Kolíně
Rozhodu
různí
televizního
otevřen
založená
pochopitelné
hlásil
náměstkem
cvičit
vyhoštění
novičoku
krátkodobé
Zdravotní
vyslal
Protest
Center
rozsví
Restau
Kus
Shar
ZŠ
##žbu
##HOV
##enčních
rolích
pris
Polan
pracovalo
##řelé
##ínal
Koho
nejlepšími
##hanem
Hamburku
sdělili
najel
vládním
UniC
jezdila
##živu
kritizovat
Panny
užíval
účinné
850
formát
Generál
důstojník
specifický
maturit
neobvyklé
prohlašuje
Matyáš
Vancouveru
Počasí
Eti
tk
zbě
##cz
##žou
##ür
zariad
nejch
##louvá
přesahuje
nemluvě
zapis
vznikat
Petera
střelba
kauz
obviněného
Ukrajinci
zemědělských
potřebuji
oblíbených
Slováků
nečeká
kontrast
záběr
poslouží
vypracovat
pořadatelů
vděčný
fóra
Petrohrad
Kavka
youtube
Obvině
zavolat
zbabě
Bun
ROZ
RTVS
##vém
##titu
##áše
věčně
objektiv
bývalém
skočil
pátého
Sevilla
2023
reduk
euroskep
zhoršuje
sezonách
Skuh
lhůta
taxikáři
Národnej
havaroval
Libye
Podpora
pohrozil
##tle
poní
nesla
prodali
zasy
##nesou
přepis
zvrátit
hraju
nedočka
##litrů
##hera
duo
běžným
tvořili
francouzským
Monte
Bartošek
Dánska
HIV
Sie
uložení
zalé
##inet
zava
zákeř
rozpoz
chutná
míň
jakož
##hami
dostání
##itelného
dobru
síně
sezónu
kdokoli
Britů
sloužila
hostům
zasáhlo
elektrického
prozradit
špičku
účetnictví
trvalý
destru
výhledu
odolnost
Veselí
sjednocení
Svitav
Trávní
nahradila
Pej
##raty
##enstvo
jeviště
podvo
přiv
rozchod
praví
hodina
napomá
nadřaz
##štil
Příprava
Disku
posuzovat
##pána
gramot
Masarykově
distanc
rekordu
Chorvatska
Koncert
předčasných
Pittsburgh
Událost
nejhez
peniaze
OĽaNO
Bron
con
##čností
##daj
nezpůsob
skleně
stavy
veřejným
šestkrát
Bať
osmý
vrátím
levého
zmínit
komentáři
poruchou
přípravné
samice
Pomoc
##kinson
odvezl
dědeček
nepotřebují
nařčení
výtržnictví
kvě
sav
##bé
poti
chaty
nejná
akrob
symp
dávám
##ránci
Boy
připravujeme
Hock
##hradila
společenský
primátorem
vážnější
tajemníka
ranních
genoci
percenta
jádra
zlikvidovat
bombardování
chůze
samosprávy
Vodafone
National
semafor
Koudelka
PL
Vliv
Zisk
##čci
##šiny
##rající
##diť
depor
přitah
Lidl
ostud
očekával
Sche
ryba
zvířaty
pasá
drony
Atmosf
Scé
tlačítko
pohodlné
vlhkost
Koukalová
severovýchodě
nátlak
heslem
kině
štud
##lini
předcházet
rozjel
mířil
##razd
Stone
cenové
Musela
piráti
Trna
##adať
Budova
nezávisle
hrdinové
vědomě
stihla
globálním
stanoviště
vyhledáva
Ladislava
metodou
holčičku
privatizace
schránky
Desítky
Golf
Vendu
sat
##úr
##řenými
##ňme
##něnému
##nig
prostitut
pásu
Babišově
##klidu
podmínkami
jednají
levněji
probíhalo
setkala
jezdců
nízkých
hrajete
antimon
obhájil
amne
zjišťují
objednávku
Konkrétní
vzpomínat
Staroměstském
jídelníčku
##funkční
všudypřítom
lukrativní
Champions
mráz
Šul
##žková
napriek
##ovější
miesta
Zahradní
##četla
Marse
##naná
nemalé
##čáka
plác
plochou
dlužní
zvládat
posílil
povedala
Ryt
projevilo
1974
vrcholné
rakouského
úžasná
silničního
přistupovat
portfolio
Systemu
totalitní
invalid
Hillary
NR
Pab
vrat
##žur
odpí
##avky
korunách
Evropském
nedostup
plynů
táhnou
Havlíček
nepřežil
Dobrá
Dobré
ocenila
dotáhl
Povodí
naprostou
benefity
European
Philadelphie
Liberecký
garáže
nereagoval
Šilhavý
Nezávis
Dohromady
Vu
love
Šab
Švé
polní
##dací
##tain
##rio
milión
Jiní
modrou
dopravců
obyva
##cour
společnostmi
Věří
hasičům
přesvědči
Romů
ostrovů
necelý
Slovanu
španělského
vozíku
distribuční
Tesly
Zmínil
zpronevě
Kreuz
intim
Dir
Gali
Jisté
fe
jam
srazilo
ud
únie
##qvist
nasy
propadu
##muzí
##álna
končit
tré
##preced
nezam
Reich
Koali
Allen
repres
Dead
daty
vydán
Japonci
ohrožují
průvodu
Zeměděl
ocenit
Trojkoalice
zareagoval
Vondrou
Bašára
odpyká
Kornfe
Ep
dut
napína
nadčas
samý
pohybli
požadovali
nepřiprav
Pražanů
Volvo
Starý
účinek
vypracoval
vyprošť
akcionáři
Ludvík
akceptovat
stárnutí
Ari
Vari
Zp
otu
##ente
##skali
přát
##žející
mírou
##růj
ruskými
větve
Revolu
Luk
sledujeme
##vajícího
hluku
inflaci
bereme
herecké
Vladimí
uprchlíci
položek
radikálně
pekel
Samsungu
##tefak
zanechal
smutek
vyhlídky
brala
glos
obdrželi
odklon
##lud
##lovy
Jeřábek
Proces
způsobily
připravovali
obrací
olympion
##úča
natočila
šif
znamenají
prosadila
sláv
maďarského
Gulaš
gynek
pravomocí
ego
##xel
##ils
kalam
dělost
nadstav
vyprov
následkem
rovná
sledovala
vrátilo
Schmid
zvládneme
Kampaň
přestupku
přesilovku
společní
projednávat
Samotné
Mirka
prsten
Jackson
trůnu
Mohamed
antuce
Chlapec
rukopis
CITIC
horu
otě
rat
zasek
[...]
